{
  "version": "1.0",
  "truncation": null,
  "padding": null,
  "added_tokens": [
    {
      "id": 0,
      "content": "[UNK]",
      "single_word": false,
      "lstrip": false,
      "rstrip": false,
      "normalized": false,
      "special": true
    },
    {
      "id": 1,
      "content": "[CLS]",
      "single_word": false,
      "lstrip": false,
      "rstrip": false,
      "normalized": false,
      "special": true
    },
    {
      "id": 2,
      "content": "[SEP]",
      "single_word": false,
      "lstrip": false,
      "rstrip": false,
      "normalized": false,
      "special": true
    },
    {
      "id": 3,
      "content": "[PAD]",
      "single_word": false,
      "lstrip": false,
      "rstrip": false,
      "normalized": false,
      "special": true
    },
    {
      "id": 4,
      "content": "[MASK]",
      "single_word": false,
      "lstrip": false,
      "rstrip": false,
      "normalized": false,
      "special": true
    }
  ],
  "normalizer": {
    "type": "Lowercase"
  },
  "pre_tokenizer": {
    "type": "Whitespace"
  },
  "post_processor": null,
  "decoder": null,
  "model": {
    "type": "BPE",
    "dropout": null,
    "unk_token": "[UNK]",
    "continuing_subword_prefix": null,
    "end_of_word_suffix": null,
    "fuse_unk": false,
    "byte_fallback": false,
    "ignore_merges": false,
    "vocab": {
      "[UNK]": 0,
      "[CLS]": 1,
      "[SEP]": 2,
      "[PAD]": 3,
      "[MASK]": 4,
      "!": 5,
      "\"": 6,
      "$": 7,
      "&": 8,
      "'": 9,
      "(": 10,
      ")": 11,
      "*": 12,
      ",": 13,
      "-": 14,
      ".": 15,
      "0": 16,
      "1": 17,
      "2": 18,
      "3": 19,
      "4": 20,
      "5": 21,
      "6": 22,
      "7": 23,
      "8": 24,
      "9": 25,
      ":": 26,
      ";": 27,
      "?": 28,
      "[": 29,
      "]": 30,
      "_": 31,
      "a": 32,
      "b": 33,
      "c": 34,
      "d": 35,
      "e": 36,
      "f": 37,
      "g": 38,
      "h": 39,
      "i": 40,
      "j": 41,
      "k": 42,
      "l": 43,
      "m": 44,
      "n": 45,
      "o": 46,
      "p": 47,
      "q": 48,
      "r": 49,
      "s": 50,
      "t": 51,
      "u": 52,
      "v": 53,
      "w": 54,
      "x": 55,
      "y": 56,
      "z": 57,
      "th": 58,
      "the": 59,
      "in": 60,
      "an": 61,
      "er": 62,
      "at": 63,
      "re": 64,
      "on": 65,
      "st": 66,
      "ed": 67,
      "ou": 68,
      "al": 69,
      "ing": 70,
      "en": 71,
      "and": 72,
      "is": 73,
      "of": 74,
      "ar": 75,
      "or": 76,
      "to": 77,
      "wh": 78,
      "as": 79,
      "es": 80,
      "it": 81,
      "se": 82,
      "le": 83,
      "he": 84,
      "ow": 85,
      "om": 86,
      "ly": 87,
      "ch": 88,
      "be": 89,
      "il": 90,
      "ad": 91,
      "that": 92,
      "im": 93,
      "gh": 94,
      "bu": 95,
      "his": 96,
      "all": 97,
      "li": 98,
      "ver": 99,
      "no": 100,
      "wi": 101,
      "ce": 102,
      "for": 103,
      "de": 104,
      "ve": 105,
      "ir": 106,
      "ay": 107,
      "ent": 108,
      "sh": 109,
      "ck": 110,
      "ld": 111,
      "with": 112,
      "un": 113,
      "ab": 114,
      "but": 115,
      "ri": 116,
      "am": 117,
      "whal": 118,
      "ain": 119,
      "ter": 120,
      "mo": 121,
      "--": 122,
      "ap": 123,
      "ro": 124,
      "was": 125,
      "ght": 126,
      "ke": 127,
      "su": 128,
      "so": 129,
      "ere": 130,
      "ll": 131,
      "qu": 132,
      "sp": 133,
      "one": 134,
      "oo": 135,
      "ag": 136,
      "id": 137,
      "et": 138,
      "this": 139,
      "whale": 140,
      "by": 141,
      "ion": 142,
      "bo": 143,
      "ast": 144,
      "out": 145,
      "not": 146,
      "up": 147,
      "you": 148,
      "him": 149,
      "we": 150,
      "ic": 151,
      "ess": 152,
      "fr": 153,
      "po": 154,
      "ill": 155,
      "ther": 156,
      "me": 157,
      "ome": 158,
      "now": 159,
      "man": 160,
      "ous": 161,
      "oun": 162,
      "ur": 163,
      "ha": 164,
      "ac": 165,
      "from": 166,
      "ard": 167,
      "con": 168,
      "fe": 169,
      "ne": 170,
      "are": 171,
      "sa": 172,
      "there": 173,
      "ip": 174,
      "ant": 175,
      "si": 176,
      "whi": 177,
      "per": 178,
      "pe": 179,
      "ul": 180,
      "em": 181,
      "ould": 182,
      "ong": 183,
      "if": 184,
      "thou": 185,
      "lo": 186,
      "some": 187,
      "art": 188,
      "go": 189,
      "ra": 190,
      "ye": 191,
      "com": 192,
      "ct": 193,
      "had": 194,
      "own": 195,
      "ound": 196,
      "have": 197,
      "ish": 198,
      "di": 199,
      "fo": 200,
      "us": 201,
      "my": 202,
      "bl": 203,
      "ship": 204,
      "ers": 205,
      "ah": 206,
      "pl": 207,
      "what": 208,
      "que": 209,
      "like": 210,
      "old": 211,
      "were": 212,
      "pre": 213,
      "ge": 214,
      "ut": 215,
      "way": 216,
      "they": 217,
      "ever": 218,
      "ight": 219,
      "then": 220,
      "our": 221,
      "der": 222,
      "thing": 223,
      "ex": 224,
      "which": 225,
      "do": 226,
      "ak": 227,
      "when": 228,
      "sel": 229,
      "over": 230,
      "their": 231,
      "who": 232,
      "tain": 233,
      "tr": 234,
      "el": 235,
      "ind": 236,
      "um": 237,
      "head": 238,
      "ust": 239,
      "other": 240,
      "end": 241,
      "upon": 242,
      "gre": 243,
      "ure": 244,
      "ook": 245,
      "wor": 246,
      "cap": 247,
      "fore": 248,
      "most": 249,
      "more": 250,
      "them": 251,
      "ate": 252,
      "into": 253,
      "te": 254,
      "ood": 255,
      "ort": 256,
      "af": 257,
      "ine": 258,
      "ahab": 259,
      "ack": 260,
      "ame": 261,
      "fl": 262,
      "vi": 263,
      "able": 264,
      "tim": 265,
      ".\"": 266,
      "ven": 267,
      "boat": 268,
      "str": 269,
      "co": 270,
      "men": 271,
      "its": 272,
      "seem": 273,
      "can": 274,
      "ted": 275,
      "sea": 276,
      "ally": 277,
      "pro": 278,
      "ite": 279,
      "than": 280,
      "her": 281,
      "long": 282,
      "any": 283,
      "would": 284,
      "self": 285,
      "ance": 286,
      "ation": 287,
      "ho": 288,
      "cre": 289,
      "ity": 290,
      "gr": 291,
      "hand": 292,
      "how": 293,
      "been": 294,
      "ark": 295,
      "will": 296,
      "ward": 297,
      "cl": 298,
      "down": 299,
      "ep": 300,
      "these": 301,
      "again": 302,
      "ub": 303,
      "ving": 304,
      "ble": 305,
      "ves": 306,
      "ake": 307,
      "only": 308,
      "sc": 309,
      "wat": 310,
      "see": 311,
      "though": 312,
      "less": 313,
      "wo": 314,
      "sail": 315,
      "ace": 316,
      "ning": 317,
      "ss": 318,
      "off": 319,
      "look": 320,
      "vo": 321,
      "ough": 322,
      "such": 323,
      "here": 324,
      "tle": 325,
      "ass": 326,
      "ive": 327,
      "ies": 328,
      "ree": 329,
      "part": 330,
      "ated": 331,
      "ars": 332,
      "where": 333,
      "captain": 334,
      "pr": 335,
      "age": 336,
      "thr": 337,
      "gl": 338,
      "yet": 339,
      "ink": 340,
      "ness": 341,
      "op": 342,
      "time": 343,
      "ious": 344,
      "br": 345,
      "say": 346,
      "very": 347,
      "ful": 348,
      "know": 349,
      "har": 350,
      "tho": 351,
      "int": 352,
      "spe": 353,
      "ach": 354,
      "lit": 355,
      "ved": 356,
      "great": 357,
      "au": 358,
      "about": 359,
      "ubb": 360,
      "!\"": 361,
      "cr": 362,
      "anc": 363,
      "fi": 364,
      "still": 365,
      "after": 366,
      "land": 367,
      "red": 368,
      "said": 369,
      "side": 370,
      ",\"": 371,
      "those": 372,
      "did": 373,
      "ist": 374,
      "two": 375,
      "ull": 376,
      "day": 377,
      "has": 378,
      "before": 379,
      "last": 380,
      "ting": 381,
      "fish": 382,
      "must": 383,
      "tur": 384,
      "your": 385,
      "air": 386,
      "erm": 387,
      "ise": 388,
      "white": 389,
      "round": 390,
      "seemed": 391,
      "while": 392,
      "fir": 393,
      "od": 394,
      "ste": 395,
      "well": 396,
      "low": 397,
      "whales": 398,
      "ath": 399,
      "mon": 400,
      "too": 401,
      "stubb": 402,
      "stand": 403,
      "ence": 404,
      "sperm": 405,
      "quee": 406,
      "every": 407,
      "ade": 408,
      "light": 409,
      "ild": 410,
      "gn": 411,
      "ried": 412,
      "des": 413,
      "act": 414,
      "may": 415,
      "ue": 416,
      "mu": 417,
      "let": 418,
      "?\"": 419,
      "dis": 420,
      "sw": 421,
      "ty": 422,
      "comp": 423,
      "never": 424,
      "harpo": 425,
      "uck": 426,
      "ings": 427,
      "queg": 428,
      "queequeg": 429,
      "aw": 430,
      "ord": 431,
      "little": 432,
      "ang": 433,
      "right": 434,
      "mat": 435,
      "est": 436,
      "three": 437,
      "might": 438,
      "through": 439,
      "ped": 440,
      "ash": 441,
      "read": 442,
      "star": 443,
      "first": 444,
      "hi": 445,
      "leg": 446,
      "buck": 447,
      "dr": 448,
      "ment": 449,
      "much": 450,
      "yes": 451,
      "ick": 452,
      "arm": 453,
      "cer": 454,
      "ary": 455,
      "could": 456,
      "good": 457,
      "being": 458,
      "mast": 459,
      "water": 460,
      "back": 461,
      "ows": 462,
      "come": 463,
      "sm": 464,
      "ten": 465,
      "deck": 466,
      "ob": 467,
      "pt": 468,
      "ber": 469,
      "coun": 470,
      "ser": 471,
      "same": 472,
      "den": 473,
      "inter": 474,
      "chap": 475,
      "even": 476,
      "car": 477,
      "should": 478,
      "call": 479,
      "under": 480,
      "ster": 481,
      "himself": 482,
      "cas": 483,
      "pos": 484,
      "hun": 485,
      "night": 486,
      "ail": 487,
      "ft": 488,
      "king": 489,
      "led": 490,
      "nor": 491,
      "ph": 492,
      "think": 493,
      "ory": 494,
      "she": 495,
      "ions": 496,
      "starbuck": 497,
      "jo": 498,
      "ud": 499,
      "ks": 500,
      "thought": 501,
      "wards": 502,
      "almost": 503,
      "away": 504,
      "sent": 505,
      "rem": 506,
      "turn": 507,
      "ors": 508,
      "bet": 509,
      "god": 510,
      "ts": 511,
      "ange": 512,
      "nat": 513,
      "world": 514,
      "cu": 515,
      "hold": 516,
      "crew": 517,
      "fer": 518,
      "app": 519,
      "mer": 520,
      "seen": 521,
      "hea": 522,
      "ular": 523,
      "chapter": 524,
      "sort": 525,
      "life": 526,
      "mar": 527,
      "made": 528,
      "won": 529,
      "ans": 530,
      "iz": 531,
      "cried": 532,
      "ie": 533,
      "llow": 534,
      "bre": 535,
      "sir": 536,
      "sub": 537,
      "les": 538,
      "sou": 539,
      "sun": 540,
      "dy": 541,
      "sid": 542,
      "gen": 543,
      "wind": 544,
      "inst": 545,
      "ons": 546,
      "sur": 547,
      "quod": 548,
      "pequod": 549,
      "ig": 550,
      "line": 551,
      "aking": 552,
      "far": 553,
      "cont": 554,
      "bro": 555,
      "pass": 556,
      "ating": 557,
      "orn": 558,
      "among": 559,
      "ling": 560,
      "sk": 561,
      "new": 562,
      "ical": 563,
      "many": 564,
      "bed": 565,
      "don": 566,
      "thy": 567,
      "ci": 568,
      "hal": 569,
      "tell": 570,
      "med": 571,
      "fin": 572,
      "clo": 573,
      "cau": 574,
      "lar": 575,
      "ni": 576,
      "oh": 577,
      "sin": 578,
      "ren": 579,
      "stri": 580,
      "heart": 581,
      "aye": 582,
      "eyes": 583,
      "eng": 584,
      "without": 585,
      "get": 586,
      "ering": 587,
      "came": 588,
      "ire": 589,
      "board": 590,
      "once": 591,
      "boats": 592,
      "ry": 593,
      "ched": 594,
      "ask": 595,
      "als": 596,
      "ced": 597,
      "ice": 598,
      "set": 599,
      "found": 600,
      "present": 601,
      "high": 602,
      "ered": 603,
      "!--": 604,
      "port": 605,
      "face": 606,
      "ged": 607,
      "je": 608,
      "ot": 609,
      "soon": 610,
      "ching": 611,
      "take": 612,
      "ear": 613,
      "sup": 614,
      "small": 615,
      "az": 616,
      "cir": 617,
      "hel": 618,
      "bar": 619,
      "fur": 620,
      "sle": 621,
      "half": 622,
      "ple": 623,
      "along": 624,
      "black": 625,
      "whole": 626,
      "harpoone": 627,
      "ily": 628,
      "ways": 629,
      "just": 630,
      "till": 631,
      "things": 632,
      "nant": 633,
      "body": 634,
      "raw": 635,
      "word": 636,
      "against": 637,
      "certain": 638,
      "ls": 639,
      "thus": 640,
      "hard": 641,
      "pur": 642,
      "went": 643,
      "itu": 644,
      "voy": 645,
      "ping": 646,
      "thee": 647,
      "ene": 648,
      "whaling": 649,
      "strange": 650,
      "roll": 651,
      "ations": 652,
      "hands": 653,
      "cur": 654,
      "vil": 655,
      "ances": 656,
      "nantuck": 657,
      "che": 658,
      "each": 659,
      "par": 660,
      "pip": 661,
      "aps": 662,
      "cal": 663,
      "full": 664,
      "mom": 665,
      "tom": 666,
      "feet": 667,
      "dist": 668,
      "moment": 669,
      "cle": 670,
      "att": 671,
      "athan": 672,
      "wa": 673,
      "ery": 674,
      "ale": 675,
      "beg": 676,
      "ures": 677,
      "both": 678,
      "near": 679,
      "comm": 680,
      "sight": 681,
      "something": 682,
      "hor": 683,
      "levi": 684,
      "called": 685,
      "gener": 686,
      "leviathan": 687,
      "bow": 688,
      "ff": 689,
      "fast": 690,
      "ken": 691,
      "put": 692,
      "sing": 693,
      "whe": 694,
      "dead": 695,
      "ween": 696,
      "mor": 697,
      "run": 698,
      "ingly": 699,
      "consid": 700,
      "saw": 701,
      "place": 702,
      "between": 703,
      "eye": 704,
      "make": 705,
      "sl": 706,
      "ush": 707,
      "why": 708,
      "inde": 709,
      "reg": 710,
      "oft": 711,
      "ason": 712,
      "bur": 713,
      "ase": 714,
      "ently": 715,
      "cut": 716,
      "nothing": 717,
      "known": 718,
      "vent": 719,
      "another": 720,
      "poor": 721,
      "ial": 722,
      "towards": 723,
      "heard": 724,
      "rop": 725,
      "cause": 726,
      "ging": 727,
      "ide": 728,
      "indi": 729,
      "times": 730,
      "ied": 731,
      "cor": 732,
      "lay": 733,
      "ters": 734,
      "ross": 735,
      "point": 736,
      "ump": 737,
      "arks": 738,
      "cra": 739,
      "hu": 740,
      "sy": 741,
      "aring": 742,
      "feel": 743,
      "try": 744,
      "large": 745,
      "ject": 746,
      "dou": 747,
      "vis": 748,
      "ane": 749,
      "--\"": 750,
      "flask": 751,
      "lord": 752,
      "ens": 753,
      "ared": 754,
      "sign": 755,
      "instant": 756,
      "shall": 757,
      "ished": 758,
      "plain": 759,
      "heads": 760,
      "gi": 761,
      "mind": 762,
      "val": 763,
      "form": 764,
      "ific": 765,
      "cab": 766,
      "dark": 767,
      "draw": 768,
      "bul": 769,
      "pose": 770,
      "open": 771,
      "ned": 772,
      "oil": 773,
      "som": 774,
      "swe": 775,
      "tail": 776,
      "boy": 777,
      "voyage": 778,
      "cent": 779,
      "ian": 780,
      "tow": 781,
      "sho": 782,
      "spout": 783,
      "green": 784,
      "cast": 785,
      "ham": 786,
      "ient": 787,
      "mid": 788,
      "ring": 789,
      "ition": 790,
      "lie": 791,
      "ously": 792,
      "does": 793,
      "ather": 794,
      "dre": 795,
      "dden": 796,
      "lt": 797,
      "ng": 798,
      "ol": 799,
      "oce": 800,
      "tou": 801,
      "imes": 802,
      "ool": 803,
      "wise": 804,
      "wild": 805,
      "rect": 806,
      "ising": 807,
      "top": 808,
      "ave": 809,
      "fre": 810,
      "leng": 811,
      "min": 812,
      "mis": 813,
      "vast": 814,
      "rest": 815,
      "mean": 816,
      "cond": 817,
      "years": 818,
      "akes": 819,
      "ured": 820,
      "nantucket": 821,
      "wr": 822,
      "ones": 823,
      "seas": 824,
      "few": 825,
      "ended": 826,
      "however": 827,
      "remain": 828,
      "flo": 829,
      "ible": 830,
      "ner": 831,
      "tre": 832,
      "lic": 833,
      "sudden": 834,
      "spect": 835,
      "length": 836,
      "sil": 837,
      "ened": 838,
      "toge": 839,
      "exce": 840,
      "standing": 841,
      "together": 842,
      "gent": 843,
      "stood": 844,
      "because": 845,
      "death": 846,
      "keep": 847,
      "ships": 848,
      "natur": 849,
      "cum": 850,
      "ds": 851,
      "ding": 852,
      "fle": 853,
      "four": 854,
      "mate": 855,
      "also": 856,
      "ches": 857,
      "going": 858,
      "whether": 859,
      "true": 860,
      "vol": 861,
      "doub": 862,
      ",--": 863,
      "ded": 864,
      "haps": 865,
      "jon": 866,
      "jaw": 867,
      "ked": 868,
      "lad": 869,
      "abo": 870,
      "perhaps": 871,
      "indeed": 872,
      "sound": 873,
      "war": 874,
      "stre": 875,
      "iron": 876,
      "ably": 877,
      "rig": 878,
      "pers": 879,
      "fire": 880,
      "cabin": 881,
      "bene": 882,
      "cess": 883,
      "give": 884,
      "mou": 885,
      "oc": 886,
      "pri": 887,
      "start": 888,
      "etimes": 889,
      "whose": 890,
      "seems": 891,
      "harpoon": 892,
      "matter": 893,
      "sometimes": 894,
      "pull": 895,
      "row": 896,
      "reason": 897,
      "best": 898,
      "ict": 899,
      "used": 900,
      "main": 901,
      "wood": 902,
      "stra": 903,
      "order": 904,
      "hear": 905,
      "cks": 906,
      "ets": 907,
      "sleep": 908,
      "jonah": 909,
      "hat": 910,
      "hour": 911,
      "kill": 912,
      "itself": 913,
      "entire": 914,
      "moby": 915,
      "dick": 916,
      "days": 917,
      "possi": 918,
      "soul": 919,
      "command": 920,
      "ug": 921,
      "ank": 922,
      "live": 923,
      "devil": 924,
      "young": 925,
      "selves": 926,
      "dart": 927,
      "ign": 928,
      "lin": 929,
      "pit": 930,
      "sat": 931,
      "smo": 932,
      "ze": 933,
      "deep": 934,
      "log": 935,
      "plac": 936,
      "col": 937,
      "ocean": 938,
      "bes": 939,
      "liar": 940,
      "emp": 941,
      "flu": 942,
      "vessel": 943,
      "sailor": 944,
      "prof": 945,
      "stead": 946,
      "earth": 947,
      "harpooneer": 948,
      "always": 949,
      "pecu": 950,
      "prec": 951,
      "stern": 952,
      "turned": 953,
      "peculiar": 954,
      "ele": 955,
      "often": 956,
      "within": 957,
      "appe": 958,
      "peri": 959,
      "creat": 960,
      "book": 961,
      "cover": 962,
      "done": 963,
      "drop": 964,
      "fair": 965,
      "mark": 966,
      "table": 967,
      "vid": 968,
      "sav": 969,
      "blood": 970,
      "case": 971,
      "iv": 972,
      "mort": 973,
      "engl": 974,
      "owing": 975,
      "ages": 976,
      "cted": 977,
      "comple": 978,
      "circum": 979,
      "bild": 980,
      "cour": 981,
      "ma": 982,
      "mr": 983,
      "ming": 984,
      "sim": 985,
      "squ": 986,
      "eness": 987,
      "enough": 988,
      "least": 989,
      "tern": 990,
      "bot": 991,
      "icular": 992,
      "beneath": 993,
      "mouth": 994,
      "bildad": 995,
      "?--": 996,
      "ef": 997,
      "gu": 998,
      "mil": 999,
      "ities": 1000,
      "living": 1001,
      "sure": 1002,
      "agg": 1003,
      "ically": 1004,
      "press": 1005,
      "work": 1006,
      "ground": 1007,
      "morning": 1008,
      "consider": 1009,
      "ca": 1010,
      "cord": 1011,
      "mag": 1012,
      "name": 1013,
      "sli": 1014,
      "short": 1015,
      "mot": 1016,
      "accoun": 1017,
      "peleg": 1018,
      "ult": 1019,
      "aken": 1020,
      "ready": 1021,
      "heaven": 1022,
      "contin": 1023,
      "natural": 1024,
      "bly": 1025,
      "ces": 1026,
      "find": 1027,
      "pent": 1028,
      "tri": 1029,
      "sted": 1030,
      "cked": 1031,
      "rope": 1032,
      "steel": 1033,
      "mates": 1034,
      "curi": 1035,
      "fact": 1036,
      "thir": 1037,
      "ins": 1038,
      "char": 1039,
      "ung": 1040,
      "amp": 1041,
      "whalemen": 1042,
      "rather": 1043,
      "ending": 1044,
      "looking": 1045,
      "fully": 1046,
      "wonder": 1047,
      "itude": 1048,
      "oars": 1049,
      "sto": 1050,
      "antic": 1051,
      "common": 1052,
      "anger": 1053,
      "dri": 1054,
      "fly": 1055,
      "fam": 1056,
      "tra": 1057,
      "inted": 1058,
      "quick": 1059,
      "follow": 1060,
      "close": 1061,
      "general": 1062,
      "gentle": 1063,
      "lat": 1064,
      "mad": 1065,
      "tal": 1066,
      "thous": 1067,
      "orm": 1068,
      "myself": 1069,
      "cannot": 1070,
      "grand": 1071,
      "waters": 1072,
      "lower": 1073,
      "siness": 1074,
      "thousand": 1075,
      "\"'": 1076,
      "bs": 1077,
      "bone": 1078,
      "fine": 1079,
      "pa": 1080,
      "want": 1081,
      "xed": 1082,
      "seam": 1083,
      "iled": 1084,
      "business": 1085,
      "room": 1086,
      "speak": 1087,
      "further": 1088,
      "bra": 1089,
      "home": 1090,
      "ith": 1091,
      "kes": 1092,
      "sed": 1093,
      "yard": 1094,
      "ates": 1095,
      "left": 1096,
      "chie": 1097,
      "therefore": 1098,
      "cape": 1099,
      "ately": 1100,
      "cru": 1101,
      ";--": 1102,
      "bit": 1103,
      "ither": 1104,
      "adv": 1105,
      "cei": 1106,
      "having": 1107,
      "need": 1108,
      "looked": 1109,
      "cook": 1110,
      "gone": 1111,
      "moun": 1112,
      "pow": 1113,
      "var": 1114,
      "ilt": 1115,
      "ents": 1116,
      "sol": 1117,
      "ides": 1118,
      "concer": 1119,
      "nex": 1120,
      "gold": 1121,
      "comes": 1122,
      "fishery": 1123,
      "since": 1124,
      "av": 1125,
      "care": 1126,
      "slow": 1127,
      "ual": 1128,
      "ually": 1129,
      "imp": 1130,
      "tered": 1131,
      "quar": 1132,
      "iffer": 1133,
      "got": 1134,
      "direct": 1135,
      "straight": 1136,
      "fall": 1137,
      "ern": 1138,
      "second": 1139,
      "owed": 1140,
      "tru": 1141,
      "watch": 1142,
      "better": 1143,
      "),": 1144,
      "cri": 1145,
      "cross": 1146,
      "du": 1147,
      "lly": 1148,
      "mal": 1149,
      "mere": 1150,
      "mur": 1151,
      "sal": 1152,
      "ti": 1153,
      "tash": 1154,
      "stance": 1155,
      "ought": 1156,
      "aloft": 1157,
      "dest": 1158,
      "fear": 1159,
      "broad": 1160,
      "bottom": 1161,
      "bows": 1162,
      "coff": 1163,
      "dred": 1164,
      "hum": 1165,
      "kind": 1166,
      "pain": 1167,
      "pac": 1168,
      "rap": 1169,
      "uff": 1170,
      "sever": 1171,
      "turning": 1172,
      "swim": 1173,
      "hundred": 1174,
      "bal": 1175,
      "ew": 1176,
      "fri": 1177,
      "held": 1178,
      "tering": 1179,
      "spir": 1180,
      "quest": 1181,
      "aving": 1182,
      "bat": 1183,
      "ger": 1184,
      "hind": 1185,
      "lim": 1186,
      "chase": 1187,
      "forth": 1188,
      "qui": 1189,
      "contr": 1190,
      "fellow": 1191,
      "six": 1192,
      "ction": 1193,
      "else": 1194,
      "themselves": 1195,
      "view": 1196,
      "ized": 1197,
      "calm": 1198,
      "mortal": 1199,
      "complete": 1200,
      ".--": 1201,
      "happ": 1202,
      "mut": 1203,
      "num": 1204,
      "sn": 1205,
      "ised": 1206,
      "ited": 1207,
      "coming": 1208,
      "plan": 1209,
      "ached": 1210,
      "above": 1211,
      "dle": 1212,
      "gro": 1213,
      "glo": 1214,
      "la": 1215,
      "pen": 1216,
      "ined": 1217,
      "wide": 1218,
      "rist": 1219,
      "amer": 1220,
      "terr": 1221,
      "spr": 1222,
      "mem": 1223,
      "goes": 1224,
      "tego": 1225,
      "particular": 1226,
      "indian": 1227,
      "tashtego": 1228,
      "dut": 1229,
      "eas": 1230,
      "fro": 1231,
      "gaz": 1232,
      "ouse": 1233,
      "island": 1234,
      "arch": 1235,
      "shar": 1236,
      "sum": 1237,
      "strong": 1238,
      "object": 1239,
      "harpooneers": 1240,
      "ivory": 1241,
      "english": 1242,
      "next": 1243,
      "cy": 1244,
      "taking": 1245,
      "taken": 1246,
      "ying": 1247,
      "lean": 1248,
      "fell": 1249,
      "ants": 1250,
      "tee": 1251,
      "clud": 1252,
      "savage": 1253,
      "curious": 1254,
      "fat": 1255,
      "fif": 1256,
      "house": 1257,
      "nar": 1258,
      "pi": 1259,
      "ceed": 1260,
      "unt": 1261,
      "ained": 1262,
      "susp": 1263,
      "ident": 1264,
      "peril": 1265,
      "ends": 1266,
      "vious": 1267,
      "ssed": 1268,
      "carpent": 1269,
      "broken": 1270,
      "cially": 1271,
      "craft": 1272,
      "00": 1273,
      "bones": 1274,
      "lee": 1275,
      "cho": 1276,
      "ime": 1277,
      "vell": 1278,
      "super": 1279,
      "ople": 1280,
      "break": 1281,
      "began": 1282,
      "magn": 1283,
      "americ": 1284,
      "dam": 1285,
      "equ": 1286,
      "rush": 1287,
      "yon": 1288,
      "bear": 1289,
      "ades": 1290,
      "forward": 1291,
      "vel": 1292,
      "roy": 1293,
      "play": 1294,
      "hoist": 1295,
      "sailors": 1296,
      "iously": 1297,
      "helm": 1298,
      "regular": 1299,
      "slowly": 1300,
      "coffin": 1301,
      "use": 1302,
      "wal": 1303,
      "answ": 1304,
      "oud": 1305,
      "noble": 1306,
      "sharks": 1307,
      "tran": 1308,
      "hope": 1309,
      "sails": 1310,
      "spec": 1311,
      "ancing": 1312,
      "obser": 1313,
      "rolled": 1314,
      "foo": 1315,
      "free": 1316,
      "hur": 1317,
      "ler": 1318,
      "swi": 1319,
      "theless": 1320,
      "inct": 1321,
      "ative": 1322,
      "stop": 1323,
      "itting": 1324,
      "chance": 1325,
      "behind": 1326,
      "lies": 1327,
      "pect": 1328,
      "struck": 1329,
      "coast": 1330,
      "took": 1331,
      "nevertheless": 1332,
      "mighty": 1333,
      "drag": 1334,
      "holding": 1335,
      "suddenly": 1336,
      "besides": 1337,
      "hist": 1338,
      "mass": 1339,
      "pat": 1340,
      "ske": 1341,
      "inc": 1342,
      "story": 1343,
      "orig": 1344,
      "below": 1345,
      "iling": 1346,
      "ago": 1347,
      "aged": 1348,
      "consc": 1349,
      "proper": 1350,
      "voice": 1351,
      "monster": 1352,
      "ments": 1353,
      "visible": 1354,
      "teeth": 1355,
      "carpenter": 1356,
      "swift": 1357,
      "origin": 1358,
      "dim": 1359,
      "ev": 1360,
      "gall": 1361,
      "gra": 1362,
      "nam": 1363,
      "ps": 1364,
      "wall": 1365,
      "thick": 1366,
      "told": 1367,
      "lost": 1368,
      "stranger": 1369,
      "cry": 1370,
      "marin": 1371,
      "pursu": 1372,
      "waves": 1373,
      "human": 1374,
      "bound": 1375,
      "fill": 1376,
      "jack": 1377,
      "loo": 1378,
      "mi": 1379,
      "step": 1380,
      "ense": 1381,
      "lif": 1382,
      "rid": 1383,
      "kept": 1384,
      "ioned": 1385,
      "sive": 1386,
      "ext": 1387,
      "door": 1388,
      "offic": 1389,
      "brow": 1390,
      "says": 1391,
      "running": 1392,
      "person": 1393,
      "possible": 1394,
      "chief": 1395,
      "quarter": 1396,
      "several": 1397,
      "sharp": 1398,
      "bor": 1399,
      "cat": 1400,
      "lance": 1401,
      "mine": 1402,
      "mist": 1403,
      "making": 1404,
      "pal": 1405,
      "vic": 1406,
      "inve": 1407,
      "respect": 1408,
      "lead": 1409,
      "whaleman": 1410,
      "meas": 1411,
      "people": 1412,
      "whatever": 1413,
      "test": 1414,
      "parts": 1415,
      "brain": 1416,
      "fixed": 1417,
      "clear": 1418,
      "touching": 1419,
      "doubt": 1420,
      "precise": 1421,
      "differ": 1422,
      "fanc": 1423,
      "ram": 1424,
      "res": 1425,
      "remo": 1426,
      "ont": 1427,
      "sts": 1428,
      "lied": 1429,
      "shad": 1430,
      "blue": 1431,
      "wondr": 1432,
      "caught": 1433,
      "ceived": 1434,
      "five": 1435,
      "knew": 1436,
      "por": 1437,
      "stone": 1438,
      "whom": 1439,
      "espe": 1440,
      "belie": 1441,
      "suc": 1442,
      "means": 1443,
      "somehow": 1444,
      "queer": 1445,
      "exp": 1446,
      "hole": 1447,
      "nigh": 1448,
      "pipe": 1449,
      "course": 1450,
      "power": 1451,
      "especially": 1452,
      "fa": 1453,
      "gli": 1454,
      "horn": 1455,
      "mild": 1456,
      "oy": 1457,
      "soft": 1458,
      "tem": 1459,
      "uous": 1460,
      "wre": 1461,
      "wake": 1462,
      "anim": 1463,
      "rep": 1464,
      "ased": 1465,
      "cking": 1466,
      "fect": 1467,
      "bled": 1468,
      "anything": 1469,
      "augh": 1470,
      "passed": 1471,
      "furn": 1472,
      "purpose": 1473,
      "regard": 1474,
      "castle": 1475,
      "lines": 1476,
      "motion": 1477,
      "seamen": 1478,
      "wondrous": 1479,
      "dash": 1480,
      "fit": 1481,
      "gun": 1482,
      "met": 1483,
      "pict": 1484,
      "slight": 1485,
      "inging": 1486,
      "encoun": 1487,
      "aspect": 1488,
      "lear": 1489,
      "leap": 1490,
      "chant": 1491,
      "deli": 1492,
      "terri": 1493,
      "spo": 1494,
      "spring": 1495,
      "conf": 1496,
      "ute": 1497,
      "nature": 1498,
      "surface": 1499,
      "hours": 1500,
      "placed": 1501,
      "creature": 1502,
      "bir": 1503,
      "fain": 1504,
      "iver": 1505,
      "ky": 1506,
      "kni": 1507,
      "alone": 1508,
      "whit": 1509,
      "oman": 1510,
      "child": 1511,
      "christ": 1512,
      "belong": 1513,
      "dep": 1514,
      "show": 1515,
      "quite": 1516,
      "uring": 1517,
      "felt": 1518,
      "bling": 1519,
      "blind": 1520,
      "seeing": 1521,
      "anced": 1522,
      "arms": 1523,
      "sky": 1524,
      "drawing": 1525,
      "town": 1526,
      "hammer": 1527,
      "murder": 1528,
      "easy": 1529,
      "either": 1530,
      "fed": 1531,
      "hon": 1532,
      "ii": 1533,
      "kilt": 1534,
      "mit": 1535,
      "snow": 1536,
      "vy": 1537,
      "storm": 1538,
      "separ": 1539,
      "lest": 1540,
      "sole": 1541,
      "manner": 1542,
      "aces": 1543,
      "gree": 1544,
      "aft": 1545,
      "sailed": 1546,
      "saying": 1547,
      "company": 1548,
      "carry": 1549,
      "skin": 1550,
      "horiz": 1551,
      "sym": 1552,
      "steelkilt": 1553,
      "concerning": 1554,
      ".'": 1555,
      "eight": 1556,
      "hint": 1557,
      "ience": 1558,
      "mus": 1559,
      "makes": 1560,
      "vir": 1561,
      "thunder": 1562,
      "inn": 1563,
      "ats": 1564,
      "ality": 1565,
      "ening": 1566,
      "leaving": 1567,
      "shot": 1568,
      "keel": 1569,
      "ety": 1570,
      "acle": 1571,
      "pret": 1572,
      "others": 1573,
      "proceed": 1574,
      "fisher": 1575,
      "distance": 1576,
      "single": 1577,
      "plainly": 1578,
      "fresh": 1579,
      "occas": 1580,
      "truth": 1581,
      "foot": 1582,
      "skelet": 1583,
      "dagg": 1584,
      "east": 1585,
      "gave": 1586,
      "law": 1587,
      "ms": 1588,
      "pil": 1589,
      "pul": 1590,
      "rad": 1591,
      "twi": 1592,
      "around": 1593,
      "ilar": 1594,
      "ric": 1595,
      "mock": 1596,
      "ket": 1597,
      "key": 1598,
      "bodi": 1599,
      "nest": 1600,
      "love": 1601,
      "preh": 1602,
      "forehead": 1603,
      "brought": 1604,
      "ubber": 1605,
      "crow": 1606,
      "ordin": 1607,
      "rench": 1608,
      "help": 1609,
      "rolling": 1610,
      "greenland": 1611,
      "darted": 1612,
      "gentlemen": 1613,
      "various": 1614,
      "quiet": 1615,
      "member": 1616,
      "born": 1617,
      "event": 1618,
      "hull": 1619,
      "mir": 1620,
      "pie": 1621,
      "rup": 1622,
      "rising": 1623,
      "sink": 1624,
      "ude": 1625,
      "warks": 1626,
      "ries": 1627,
      "soci": 1628,
      "upper": 1629,
      "weather": 1630,
      "pot": 1631,
      "meant": 1632,
      "acious": 1633,
      "accord": 1634,
      "ney": 1635,
      "antly": 1636,
      "dig": 1637,
      "eless": 1638,
      "forecastle": 1639,
      "firm": 1640,
      "discover": 1641,
      "anging": 1642,
      "turns": 1643,
      "heavy": 1644,
      "suppose": 1645,
      "burst": 1646,
      "cutting": 1647,
      "given": 1648,
      "bulwarks": 1649,
      "boys": 1650,
      "middle": 1651,
      "exceed": 1652,
      "flukes": 1653,
      "account": 1654,
      "famous": 1655,
      "question": 1656,
      "honour": 1657,
      "daggoo": 1658,
      "etern": 1659,
      "jet": 1660,
      "vain": 1661,
      "ann": 1662,
      "secre": 1663,
      "vers": 1664,
      "shr": 1665,
      "unknown": 1666,
      "pointed": 1667,
      "capt": 1668,
      "legs": 1669,
      "posed": 1670,
      "pacific": 1671,
      "friend": 1672,
      "loose": 1673,
      "bid": 1674,
      "fool": 1675,
      "hy": 1676,
      "ny": 1677,
      "son": 1678,
      "ses": 1679,
      "tw": 1680,
      "inning": 1681,
      "infer": 1682,
      "ises": 1683,
      "sequ": 1684,
      "heed": 1685,
      "nose": 1686,
      "fort": 1687,
      "rose": 1688,
      "ager": 1689,
      "haw": 1690,
      "ement": 1691,
      "previous": 1692,
      "hore": 1693,
      "woe": 1694,
      "sailing": 1695,
      "prom": 1696,
      "lands": 1697,
      "itudes": 1698,
      "huge": 1699,
      "sweet": 1700,
      "dream": 1701,
      "killed": 1702,
      "cluded": 1703,
      ",'": 1704,
      "bill": 1705,
      "cup": 1706,
      "fright": 1707,
      "father": 1708,
      "hast": 1709,
      "hence": 1710,
      "late": 1711,
      "lake": 1712,
      "lash": 1713,
      "none": 1714,
      "pon": 1715,
      "pend": 1716,
      "pick": 1717,
      "tor": 1718,
      "twent": 1719,
      "vals": 1720,
      "thor": 1721,
      "insu": 1722,
      "invol": 1723,
      "anded": 1724,
      "ashore": 1725,
      "ese": 1726,
      "shark": 1727,
      "meet": 1728,
      "hair": 1729,
      "blubber": 1730,
      "exact": 1731,
      "aked": 1732,
      "canni": 1733,
      "landlord": 1734,
      "desc": 1735,
      "master": 1736,
      "thoughts": 1737,
      "passage": 1738,
      "nearly": 1739,
      "bulk": 1740,
      "remained": 1741,
      "except": 1742,
      "rigging": 1743,
      "creatures": 1744,
      "third": 1745,
      "american": 1746,
      "horizon": 1747,
      "skeleton": 1748,
      "twenty": 1749,
      "?'": 1750,
      "cold": 1751,
      "fic": 1752,
      "gy": 1753,
      "jud": 1754,
      "lur": 1755,
      "lamp": 1756,
      "laugh": 1757,
      "nt": 1758,
      "pag": 1759,
      "ton": 1760,
      "iness": 1761,
      "inner": 1762,
      "erous": 1763,
      "stit": 1764,
      "arily": 1765,
      "sem": 1766,
      "chur": 1767,
      "bel": 1768,
      "add": 1769,
      "forty": 1770,
      "und": 1771,
      "spread": 1772,
      "bol": 1773,
      "post": 1774,
      "conce": 1775,
      "vig": 1776,
      "prop": 1777,
      "grow": 1778,
      "ively": 1779,
      "glass": 1780,
      "didn": 1781,
      "ists": 1782,
      "thinking": 1783,
      "hardly": 1784,
      "idea": 1785,
      "giving": 1786,
      "hammock": 1787,
      "yards": 1788,
      "completely": 1789,
      "fifty": 1790,
      "royal": 1791,
      "occasion": 1792,
      "aim": 1793,
      "cul": 1794,
      "during": 1795,
      "gir": 1796,
      "igh": 1797,
      "sch": 1798,
      "sme": 1799,
      "tall": 1800,
      "usu": 1801,
      "uct": 1802,
      "vit": 1803,
      "warm": 1804,
      "yed": 1805,
      "anch": 1806,
      "rever": 1807,
      "repe": 1808,
      "really": 1809,
      "already": 1810,
      "whis": 1811,
      "beat": 1812,
      "lid": 1813,
      "noon": 1814,
      "ford": 1815,
      "formed": 1816,
      "dec": 1817,
      "decl": 1818,
      "velo": 1819,
      "ains": 1820,
      "bold": 1821,
      "wel": 1822,
      "lock": 1823,
      "excl": 1824,
      "dog": 1825,
      "tained": 1826,
      "works": 1827,
      "viol": 1828,
      "scar": 1829,
      "harpoons": 1830,
      "intervals": 1831,
      "sides": 1832,
      "skull": 1833,
      "strike": 1834,
      "words": 1835,
      "nantucke": 1836,
      "horse": 1837,
      "darkness": 1838,
      "drawn": 1839,
      "touch": 1840,
      "eleph": 1841,
      "miles": 1842,
      "rapid": 1843,
      "number": 1844,
      "!'": 1845,
      ":--": 1846,
      "aves": 1847,
      "french": 1848,
      "hump": 1849,
      "ior": 1850,
      "rise": 1851,
      "swell": 1852,
      "tis": 1853,
      "tack": 1854,
      "ths": 1855,
      "incre": 1856,
      "ator": 1857,
      "ensi": 1858,
      "tossed": 1859,
      "import": 1860,
      "ays": 1861,
      "shap": 1862,
      "lled": 1863,
      "spot": 1864,
      "across": 1865,
      "necess": 1866,
      "myst": 1867,
      "uttle": 1868,
      "exam": 1869,
      "headed": 1870,
      "coat": 1871,
      "thrust": 1872,
      "aching": 1873,
      "fig": 1874,
      "lightning": 1875,
      "hither": 1876,
      "smith": 1877,
      "interest": 1878,
      "hung": 1879,
      "substance": 1880,
      "south": 1881,
      "instances": 1882,
      "medi": 1883,
      "supper": 1884,
      "chest": 1885,
      "distinct": 1886,
      "generally": 1887,
      "considering": 1888,
      "wrink": 1889,
      "battle": 1890,
      "planks": 1891,
      "species": 1892,
      "knife": 1893,
      "..": 1894,
      "bri": 1895,
      "eld": 1896,
      "eper": 1897,
      "fing": 1898,
      "lass": 1899,
      "na": 1900,
      "nail": 1901,
      "oes": 1902,
      "sad": 1903,
      "sco": 1904,
      "tum": 1905,
      "thre": 1906,
      "ert": 1907,
      "rel": 1908,
      "real": 1909,
      "ences": 1910,
      "sec": 1911,
      "sey": 1912,
      "omin": 1913,
      "bearing": 1914,
      "buoy": 1915,
      "list": 1916,
      "apped": 1917,
      "lls": 1918,
      "spare": 1919,
      "poss": 1920,
      "ified": 1921,
      "die": 1922,
      "fold": 1923,
      "utter": 1924,
      "tains": 1925,
      "vice": 1926,
      "prob": 1927,
      "carried": 1928,
      "thinks": 1929,
      "izing": 1930,
      "frequ": 1931,
      "jaws": 1932,
      "possibly": 1933,
      "pitch": 1934,
      "smoke": 1935,
      "flying": 1936,
      "swimming": 1937,
      "suspended": 1938,
      "leeward": 1939,
      "hoisted": 1940,
      "fancy": 1941,
      "possess": 1942,
      "ban": 1943,
      "bree": 1944,
      "cing": 1945,
      "cro": 1946,
      "eager": 1947,
      "gain": 1948,
      "hill": 1949,
      "hook": 1950,
      "nay": 1951,
      "past": 1952,
      "rant": 1953,
      "sor": 1954,
      "tar": 1955,
      "tub": 1956,
      "wound": 1957,
      "state": 1958,
      "outer": 1959,
      "altogether": 1960,
      "enorm": 1961,
      "aside": 1962,
      "hem": 1963,
      "height": 1964,
      "ils": 1965,
      "unless": 1966,
      "amb": 1967,
      "mood": 1968,
      "asted": 1969,
      "astern": 1970,
      "pole": 1971,
      "acy": 1972,
      "sist": 1973,
      "using": 1974,
      "els": 1975,
      "fles": 1976,
      "aught": 1977,
      "ancient": 1978,
      "sideways": 1979,
      "stands": 1980,
      "swall": 1981,
      "compass": 1982,
      "joy": 1983,
      "gods": 1984,
      "final": 1985,
      "hearts": 1986,
      "supp": 1987,
      "pleas": 1988,
      "certainly": 1989,
      "strangely": 1990,
      "shore": 1991,
      "entirely": 1992,
      "steady": 1993,
      "period": 1994,
      "circumst": 1995,
      "similar": 1996,
      "considerable": 1997,
      "mariners": 1998,
      "measure": 1999,
      "pretty": 2000,
      "enormous": 2001,
      "ben": 2002,
      "ball": 2003,
      "bright": 2004,
      "cust": 2005,
      "fu": 2006,
      "fun": 2007,
      "gale": 2008,
      "ians": 2009,
      "luck": 2010,
      "oar": 2011,
      "push": 2012,
      "wed": 2013,
      "yo": 2014,
      "thed": 2015,
      "reve": 2016,
      "resp": 2017,
      "stem": 2018,
      "become": 2019,
      "ilo": 2020,
      "dem": 2021,
      "shout": 2022,
      "ames": 2023,
      "mother": 2024,
      "acted": 2025,
      "load": 2026,
      "year": 2027,
      "shipmates": 2028,
      "experi": 2029,
      "express": 2030,
      "trou": 2031,
      "trans": 2032,
      "scr": 2033,
      "scene": 2034,
      "glance": 2035,
      "knows": 2036,
      "armed": 2037,
      "hunters": 2038,
      "breath": 2039,
      "subject": 2040,
      "parsee": 2041,
      "feeling": 2042,
      "meanwhile": 2043,
      "stret": 2044,
      "ignor": 2045,
      "earthly": 2046,
      "leaning": 2047,
      "whiteness": 2048,
      "fishermen": 2049,
      "pilot": 2050,
      "custom": 2051,
      "18": 2052,
      "ahead": 2053,
      "avo": 2054,
      "bad": 2055,
      "bread": 2056,
      "cow": 2057,
      "cool": 2058,
      "fight": 2059,
      "gin": 2060,
      "gay": 2061,
      "gri": 2062,
      "hid": 2063,
      "ile": 2064,
      "iest": 2065,
      "kick": 2066,
      "pair": 2067,
      "ran": 2068,
      "vine": 2069,
      "err": 2070,
      "erable": 2071,
      "aled": 2072,
      "alive": 2073,
      "arri": 2074,
      "orous": 2075,
      "seated": 2076,
      "lying": 2077,
      "added": 2078,
      "allah": 2079,
      "cket": 2080,
      "unk": 2081,
      "appro": 2082,
      "quo": 2083,
      "agon": 2084,
      "iff": 2085,
      "somewhat": 2086,
      "myster": 2087,
      "overboard": 2088,
      "wholly": 2089,
      "strain": 2090,
      "looks": 2091,
      "orders": 2092,
      "country": 2093,
      "served": 2094,
      "finally": 2095,
      "getting": 2096,
      "alongside": 2097,
      "eyeing": 2098,
      "midnight": 2099,
      "doublo": 2100,
      "started": 2101,
      "wooden": 2102,
      "appeared": 2103,
      "dropped": 2104,
      "thirty": 2105,
      "cruising": 2106,
      "dutch": 2107,
      "lifted": 2108,
      "precisely": 2109,
      "believe": 2110,
      "learned": 2111,
      "fedallah": 2112,
      "secret": 2113,
      "bag": 2114,
      "dread": 2115,
      "ears": 2116,
      "fash": 2117,
      "hinted": 2118,
      "lan": 2119,
      "ost": 2120,
      "pped": 2121,
      "takes": 2122,
      "inser": 2123,
      "atic": 2124,
      "received": 2125,
      "stro": 2126,
      "cher": 2127,
      "ility": 2128,
      "wife": 2129,
      "delight": 2130,
      "degree": 2131,
      "ented": 2132,
      "sumed": 2133,
      "solit": 2134,
      "front": 2135,
      "feed": 2136,
      "ulous": 2137,
      "foam": 2138,
      "blow": 2139,
      "otherwise": 2140,
      "venge": 2141,
      "lessly": 2142,
      "thrown": 2143,
      "oppos": 2144,
      "yourself": 2145,
      "compan": 2146,
      "masts": 2147,
      "cases": 2148,
      "ield": 2149,
      "sweep": 2150,
      "floating": 2151,
      "silent": 2152,
      "colour": 2153,
      "vessels": 2154,
      "circumstance": 2155,
      "followed": 2156,
      "original": 2157,
      "porpo": 2158,
      "faith": 2159,
      "bodily": 2160,
      "ordinary": 2161,
      "according": 2162,
      "circumstances": 2163,
      "band": 2164,
      "city": 2165,
      "corn": 2166,
      "hab": 2167,
      "kne": 2168,
      "mn": 2169,
      "rate": 2170,
      "sword": 2171,
      "tap": 2172,
      "tong": 2173,
      "vap": 2174,
      "zz": 2175,
      "ines": 2176,
      "inced": 2177,
      "resol": 2178,
      "remember": 2179,
      "stren": 2180,
      "alo": 2181,
      "token": 2182,
      "seld": 2183,
      "seven": 2184,
      "ley": 2185,
      "leak": 2186,
      "bun": 2187,
      "lig": 2188,
      "depart": 2189,
      "unct": 2190,
      "box": 2191,
      "haul": 2192,
      "feat": 2193,
      "pest": 2194,
      "yellow": 2195,
      "aker": 2196,
      "prodig": 2197,
      "hot": 2198,
      "intel": 2199,
      "afterwards": 2200,
      "anged": 2201,
      "drink": 2202,
      "watery": 2203,
      "interval": 2204,
      "striking": 2205,
      "cheer": 2206,
      "signific": 2207,
      "drew": 2208,
      "profound": 2209,
      "appear": 2210,
      "squall": 2211,
      "gentleman": 2212,
      "talk": 2213,
      "laid": 2214,
      "duty": 2215,
      "answer": 2216,
      "success": 2217,
      "hawk": 2218,
      "prophe": 2219,
      "seldom": 2220,
      "__": 2221,
      "cand": 2222,
      "da": 2223,
      "fail": 2224,
      "gth": 2225,
      "jer": 2226,
      "py": 2227,
      "pan": 2228,
      "pir": 2229,
      "ru": 2230,
      "ral": 2231,
      "ued": 2232,
      "yield": 2233,
      "thes": 2234,
      "instead": 2235,
      "erce": 2236,
      "relie": 2237,
      "stuff": 2238,
      "ency": 2239,
      "ison": 2240,
      "escape": 2241,
      "iting": 2242,
      "level": 2243,
      "omen": 2244,
      "became": 2245,
      "beyon": 2246,
      "immedi": 2247,
      "bub": 2248,
      "moder": 2249,
      "rock": 2250,
      "pol": 2251,
      "negro": 2252,
      "anted": 2253,
      "empt": 2254,
      "somewhere": 2255,
      "bles": 2256,
      "blows": 2257,
      "pres": 2258,
      "utes": 2259,
      "greg": 2260,
      "worship": 2261,
      "teen": 2262,
      "scuttle": 2263,
      "captains": 2264,
      "pract": 2265,
      "gling": 2266,
      "author": 2267,
      "crit": 2268,
      "crown": 2269,
      "fiery": 2270,
      "hunt": 2271,
      "passing": 2272,
      "thyself": 2273,
      "civil": 2274,
      "circle": 2275,
      "blacksmith": 2276,
      "remains": 2277,
      "pulling": 2278,
      "commanded": 2279,
      "empor": 2280,
      "mael": 2281,
      "wonderful": 2282,
      "following": 2283,
      "vari": 2284,
      "globe": 2285,
      "narr": 2286,
      "perils": 2287,
      "pursuit": 2288,
      "different": 2289,
      "regarded": 2290,
      "lakeman": 2291,
      "ponder": 2292,
      "exactly": 2293,
      "repeated": 2294,
      "vapour": 2295,
      "strength": 2296,
      "beyond": 2297,
      "aver": 2298,
      "aid": 2299,
      "bon": 2300,
      "bing": 2301,
      "dum": 2302,
      "ges": 2303,
      "hall": 2304,
      "hoo": 2305,
      "hus": 2306,
      "ia": 2307,
      "kno": 2308,
      "lances": 2309,
      "os": 2310,
      "rum": 2311,
      "screw": 2312,
      "tun": 2313,
      "ues": 2314,
      "zed": 2315,
      "inch": 2316,
      "rear": 2317,
      "reck": 2318,
      "refer": 2319,
      "iss": 2320,
      "sevent": 2321,
      "imper": 2322,
      "rib": 2323,
      "amber": 2324,
      "keen": 2325,
      "sul": 2326,
      "span": 2327,
      "ague": 2328,
      "thern": 2329,
      "acing": 2330,
      "peace": 2331,
      "died": 2332,
      "gest": 2333,
      "taining": 2334,
      "grey": 2335,
      "affair": 2336,
      "holy": 2337,
      "hollow": 2338,
      "gras": 2339,
      "grim": 2340,
      "pray": 2341,
      "intent": 2342,
      "intense": 2343,
      "speaking": 2344,
      "field": 2345,
      "descri": 2346,
      "obli": 2347,
      "phan": 2348,
      "merchant": 2349,
      "contri": 2350,
      "higher": 2351,
      "instantly": 2352,
      "flew": 2353,
      "sleeping": 2354,
      "places": 2355,
      "empty": 2356,
      "charac": 2357,
      "advance": 2358,
      "gazing": 2359,
      "history": 2360,
      "dashed": 2361,
      "virt": 2362,
      "meantime": 2363,
      "pagan": 2364,
      "flesh": 2365,
      "coward": 2366,
      "hidden": 2367,
      ".)": 2368,
      "avast": 2369,
      "bas": 2370,
      "boo": 2371,
      "eks": 2372,
      "game": 2373,
      "hone": 2374,
      "hanging": 2375,
      "ibly": 2376,
      "jap": 2377,
      "lof": 2378,
      "oper": 2379,
      "pu": 2380,
      "pay": 2381,
      "sitting": 2382,
      "vac": 2383,
      "wil": 2384,
      "thin": 2385,
      "inity": 2386,
      "stay": 2387,
      "toss": 2388,
      "imag": 2389,
      "lives": 2390,
      "cept": 2391,
      "del": 2392,
      "apart": 2393,
      "wash": 2394,
      "superi": 2395,
      "spi": 2396,
      "sport": 2397,
      "west": 2398,
      "compreh": 2399,
      "ishing": 2400,
      "dign": 2401,
      "likewise": 2402,
      "dost": 2403,
      "flash": 2404,
      "grown": 2405,
      "prow": 2406,
      "fulness": 2407,
      "spermace": 2408,
      "descried": 2409,
      "swam": 2410,
      "drown": 2411,
      "position": 2412,
      "north": 2413,
      "jolly": 2414,
      "apping": 2415,
      "souls": 2416,
      "winds": 2417,
      "windward": 2418,
      "windlass": 2419,
      "surpr": 2420,
      "cial": 2421,
      "engaged": 2422,
      "ires": 2423,
      "presented": 2424,
      "circl": 2425,
      "cursed": 2426,
      "horri": 2427,
      "deadly": 2428,
      "system": 2429,
      "centre": 2430,
      "emplo": 2431,
      "square": 2432,
      "stove": 2433,
      "brave": 2434,
      "golden": 2435,
      "contrast": 2436,
      "magnitude": 2437,
      "answered": 2438,
      "filled": 2439,
      "jacket": 2440,
      "terrible": 2441,
      "solemn": 2442,
      "radney": 2443,
      "rupt": 2444,
      "nantucketer": 2445,
      "respon": 2446,
      "seventy": 2447,
      "phantom": 2448,
      "character": 2449,
      "\"--": 2450,
      "big": 2451,
      "base": 2452,
      "eh": 2453,
      "fow": 2454,
      "fath": 2455,
      "gab": 2456,
      "hover": 2457,
      "hood": 2458,
      "ially": 2459,
      "lone": 2460,
      "lung": 2461,
      "pump": 2462,
      "snat": 2463,
      "tat": 2464,
      "tree": 2465,
      "tled": 2466,
      "trem": 2467,
      "wale": 2468,
      "incl": 2469,
      "reel": 2470,
      "revol": 2471,
      "oured": 2472,
      "asc": 2473,
      "itten": 2474,
      "season": 2475,
      "lect": 2476,
      "beach": 2477,
      "beheld": 2478,
      "immen": 2479,
      "former": 2480,
      "forced": 2481,
      "shud": 2482,
      "shiver": 2483,
      "ribs": 2484,
      "move": 2485,
      "rod": 2486,
      "spl": 2487,
      "spit": 2488,
      "spade": 2489,
      "wear": 2490,
      "weight": 2491,
      "hailed": 2492,
      "aced": 2493,
      "anti": 2494,
      "divid": 2495,
      "usion": 2496,
      "bless": 2497,
      "worse": 2498,
      "fled": 2499,
      "flag": 2500,
      "veness": 2501,
      "scor": 2502,
      "voc": 2503,
      "compar": 2504,
      "decks": 2505,
      "remark": 2506,
      "marvell": 2507,
      "distant": 2508,
      "attached": 2509,
      "individ": 2510,
      "minutes": 2511,
      "aboard": 2512,
      "stream": 2513,
      "england": 2514,
      "effect": 2515,
      "quickly": 2516,
      "truly": 2517,
      "gloom": 2518,
      "terror": 2519,
      "terrors": 2520,
      "000": 2521,
      "conscious": 2522,
      "evinced": 2523,
      "grave": 2524,
      "invested": 2525,
      "gunwale": 2526,
      "pictures": 2527,
      "christian": 2528,
      "cannibal": 2529,
      "usual": 2530,
      "anchor": 2531,
      "scarce": 2532,
      "elephant": 2533,
      "lofty": 2534,
      "superior": 2535,
      "fathom": 2536,
      "shudder": 2537,
      "aut": 2538,
      "dan": 2539,
      "dat": 2540,
      "ders": 2541,
      "danger": 2542,
      "fet": 2543,
      "ga": 2544,
      "gs": 2545,
      "gar": 2546,
      "gig": 2547,
      "ier": 2548,
      "lantic": 2549,
      "mas": 2550,
      "obe": 2551,
      "pap": 2552,
      "pper": 2553,
      "pra": 2554,
      "pale": 2555,
      "sag": 2556,
      "tu": 2557,
      "tic": 2558,
      "torn": 2559,
      "twel": 2560,
      "tempor": 2561,
      "vill": 2562,
      "wit": 2563,
      "zy": 2564,
      "ining": 2565,
      "inches": 2566,
      "atlantic": 2567,
      "ouds": 2568,
      "ism": 2569,
      "ories": 2570,
      "bell": 2571,
      "beef": 2572,
      "iment": 2573,
      "impress": 2574,
      "deem": 2575,
      "delic": 2576,
      "unch": 2577,
      "abl": 2578,
      "riel": 2579,
      "suff": 2580,
      "llen": 2581,
      "bore": 2582,
      "concluded": 2583,
      "sake": 2584,
      "artic": 2585,
      "raised": 2586,
      "owners": 2587,
      "ishmael": 2588,
      "plent": 2589,
      "exc": 2590,
      "seless": 2591,
      "moreover": 2592,
      "produ": 2593,
      "lowered": 2594,
      "monstr": 2595,
      "everything": 2596,
      "swung": 2597,
      "angu": 2598,
      "hide": 2599,
      "casks": 2600,
      "posing": 2601,
      "hunter": 2602,
      "phy": 2603,
      "brea": 2604,
      "finite": 2605,
      "strict": 2606,
      "earnest": 2607,
      "corp": 2608,
      "floor": 2609,
      "flee": 2610,
      "occur": 2611,
      "logy": 2612,
      "drive": 2613,
      "advancing": 2614,
      "needs": 2615,
      "directly": 2616,
      "cluding": 2617,
      "fatal": 2618,
      "regularly": 2619,
      "officers": 2620,
      "slightest": 2621,
      "separate": 2622,
      "billows": 2623,
      "school": 2624,
      "whisper": 2625,
      "breeze": 2626,
      "pleasant": 2627,
      "doubloon": 2628,
      "virtue": 2629,
      "japan": 2630,
      "dignity": 2631,
      "gabriel": 2632,
      "gigantic": 2633,
      "ahawk": 2634,
      "dil": 2635,
      "dinner": 2636,
      "gul": 2637,
      "hn": 2638,
      "lu": 2639,
      "lab": 2640,
      "loud": 2641,
      "ron": 2642,
      "sit": 2643,
      "sion": 2644,
      "sac": 2645,
      "tend": 2646,
      "yar": 2647,
      "thro": 2648,
      "reached": 2649,
      "resem": 2650,
      "stir": 2651,
      "whir": 2652,
      "assu": 2653,
      "seat": 2654,
      "leaves": 2655,
      "chin": 2656,
      "chan": 2657,
      "ili": 2658,
      "advent": 2659,
      "lion": 2660,
      "liest": 2661,
      "lips": 2662,
      "wid": 2663,
      "deeper": 2664,
      "enter": 2665,
      "unning": 2666,
      "univer": 2667,
      "whaler": 2668,
      "whalers": 2669,
      "mod": 2670,
      "moon": 2671,
      "erect": 2672,
      "upwards": 2673,
      "pop": 2674,
      "pots": 2675,
      "conne": 2676,
      "neck": 2677,
      "anting": 2678,
      "perpend": 2679,
      "iful": 2680,
      "loom": 2681,
      "comr": 2682,
      "comfor": 2683,
      "queen": 2684,
      "doom": 2685,
      "indis": 2686,
      "indiffer": 2687,
      "flood": 2688,
      "provid": 2689,
      "clam": 2690,
      "princ": 2691,
      "glad": 2692,
      "glory": 2693,
      "bring": 2694,
      "speed": 2695,
      "lowering": 2696,
      "awful": 2697,
      "dry": 2698,
      "mention": 2699,
      "counter": 2700,
      "hunted": 2701,
      "john": 2702,
      "sorts": 2703,
      "content": 2704,
      "telling": 2705,
      "presently": 2706,
      "tomahawk": 2707,
      "clean": 2708,
      "beginning": 2709,
      "wheel": 2710,
      "pointing": 2711,
      "largest": 2712,
      "silence": 2713,
      "smoking": 2714,
      "profess": 2715,
      "precious": 2716,
      "motions": 2717,
      "chiefly": 2718,
      "crossing": 2719,
      "merely": 2720,
      "superstit": 2721,
      "swiftly": 2722,
      "nameless": 2723,
      "vicinity": 2724,
      "picture": 2725,
      "quietly": 2726,
      "eternal": 2727,
      "foolish": 2728,
      "aimed": 2729,
      "rapidly": 2730,
      "important": 2731,
      "figure": 2732,
      "solitary": 2733,
      "opposite": 2734,
      "porpoise": 2735,
      "modern": 2736,
      "civilized": 2737,
      "spermaceti": 2738,
      "twelve": 2739,
      "perpendicular": 2740,
      "princip": 2741,
      "ek": 2742,
      "eu": 2743,
      "fare": 2744,
      "gment": 2745,
      "jest": 2746,
      "jump": 2747,
      "kings": 2748,
      "lon": 2749,
      "nal": 2750,
      "pet": 2751,
      "rare": 2752,
      "sand": 2753,
      "wing": 2754,
      "ware": 2755,
      "thine": 2756,
      "inside": 2757,
      "influ": 2758,
      "requ": 2759,
      "stat": 2760,
      "stick": 2761,
      "stud": 2762,
      "orge": 2763,
      "seized": 2764,
      "leave": 2765,
      "chased": 2766,
      "chains": 2767,
      "behold": 2768,
      "ghost": 2769,
      "irons": 2770,
      "termin": 2771,
      "spite": 2772,
      "idol": 2773,
      "outs": 2774,
      "ics": 2775,
      "ices": 2776,
      "thereby": 2777,
      "perth": 2778,
      "loss": 2779,
      "comb": 2780,
      "foli": 2781,
      "blan": 2782,
      "plun": 2783,
      "derick": 2784,
      "extre": 2785,
      "worthy": 2786,
      "affe": 2787,
      "flow": 2788,
      "viously": 2789,
      "cogn": 2790,
      "project": 2791,
      "longer": 2792,
      "cream": 2793,
      "grass": 2794,
      "scient": 2795,
      "wore": 2796,
      "whereas": 2797,
      "steak": 2798,
      "steward": 2799,
      "desper": 2800,
      "angs": 2801,
      "mentioned": 2802,
      "evening": 2803,
      "understand": 2804,
      "ledge": 2805,
      "sought": 2806,
      "dying": 2807,
      "instance": 2808,
      "brother": 2809,
      "bedford": 2810,
      "medit": 2811,
      "barre": 2812,
      "barbar": 2813,
      "voyages": 2814,
      "calcul": 2815,
      "attack": 2816,
      "aneously": 2817,
      "signs": 2818,
      "gives": 2819,
      "forming": 2820,
      "itional": 2821,
      "floated": 2822,
      "hatch": 2823,
      "elev": 2824,
      "dropping": 2825,
      "marked": 2826,
      "guess": 2827,
      "travell": 2828,
      "careful": 2829,
      "spirit": 2830,
      "german": 2831,
      "islands": 2832,
      "equator": 2833,
      "yonder": 2834,
      "observed": 2835,
      "originally": 2836,
      "gallant": 2837,
      "difference": 2838,
      "children": 2839,
      "pieces": 2840,
      "example": 2841,
      "revealed": 2842,
      "prodigious": 2843,
      "immense": 2844,
      "individual": 2845,
      "prair": 2846,
      "plenty": 2847,
      "extreme": 2848,
      ".*": 2849,
      "bac": 2850,
      "dare": 2851,
      "dough": 2852,
      "eli": 2853,
      "eur": 2854,
      "fli": 2855,
      "ffer": 2856,
      "gle": 2857,
      "hit": 2858,
      "job": 2859,
      "knot": 2860,
      "net": 2861,
      "pping": 2862,
      "pens": 2863,
      "ris": 2864,
      "rom": 2865,
      "sway": 2866,
      "oned": 2867,
      "stout": 2868,
      "ali": 2869,
      "enced": 2870,
      "issu": 2871,
      "isles": 2872,
      "org": 2873,
      "asing": 2874,
      "hell": 2875,
      "immortal": 2876,
      "impossible": 2877,
      "ceive": 2878,
      "vels": 2879,
      "shoo": 2880,
      "cken": 2881,
      "unaccoun": 2882,
      "amid": 2883,
      "rocks": 2884,
      "solid": 2885,
      "spine": 2886,
      "weap": 2887,
      "ousness": 2888,
      "acc": 2889,
      "race": 2890,
      "compl": 2891,
      "blast": 2892,
      "pled": 2893,
      "plank": 2894,
      "preced": 2895,
      "previously": 2896,
      "dol": 2897,
      "whence": 2898,
      "trunk": 2899,
      "flame": 2900,
      "proved": 2901,
      "gris": 2902,
      "grad": 2903,
      "handle": 2904,
      "lessness": 2905,
      "knowing": 2906,
      "harbor": 2907,
      "special": 2908,
      "fierce": 2909,
      "months": 2910,
      "starboard": 2911,
      "philo": 2912,
      "native": 2913,
      "crews": 2914,
      "appare": 2915,
      "heave": 2916,
      "subsequ": 2917,
      "surround": 2918,
      "fins": 2919,
      "stricken": 2920,
      "attent": 2921,
      "horr": 2922,
      "leviathans": 2923,
      "burn": 2924,
      "ginger": 2925,
      "trying": 2926,
      "visit": 2927,
      "dressed": 2928,
      "rectly": 2929,
      "minute": 2930,
      "meaning": 2931,
      "devils": 2932,
      "satis": 2933,
      "books": 2934,
      "simult": 2935,
      "heavens": 2936,
      "continually": 2937,
      "oarsmen": 2938,
      "madness": 2939,
      "bitter": 2940,
      "ceiving": 2941,
      "cries": 2942,
      "friends": 2943,
      "sixty": 2944,
      "muttered": 2945,
      "gaze": 2946,
      "summer": 2947,
      "rushing": 2948,
      "dragged": 2949,
      "animal": 2950,
      "furnished": 2951,
      "bird": 2952,
      "piece": 2953,
      "captured": 2954,
      "torment": 2955,
      "church": 2956,
      "tackles": 2957,
      "shape": 2958,
      "mystic": 2959,
      "hitherto": 2960,
      "frequently": 2961,
      "bench": 2962,
      "yojo": 2963,
      "shouted": 2964,
      "lantern": 2965,
      "inserted": 2966,
      "immediately": 2967,
      "hussey": 2968,
      "tattoo": 2969,
      "popular": 2970,
      "scientific": 2971,
      "ax": 2972,
      "bent": 2973,
      "bers": 2974,
      "binn": 2975,
      "coo": 2976,
      "cunning": 2977,
      "dom": 2978,
      "dro": 2979,
      "fal": 2980,
      "fut": 2981,
      "fate": 2982,
      "gas": 2983,
      "hark": 2984,
      "ired": 2985,
      "mould": 2986,
      "marks": 2987,
      "nine": 2988,
      "puff": 2989,
      "rag": 2990,
      "sam": 2991,
      "sman": 2992,
      "tons": 2993,
      "vas": 2994,
      "zen": 2995,
      "inqu": 2996,
      "invisible": 2997,
      "invari": 2998,
      "record": 2999,
      "whar": 3000,
      "escap": 3001,
      "itions": 3002,
      "heat": 3003,
      "hears": 3004,
      "chart": 3005,
      "change": 3006,
      "beaut": 3007,
      "ading": 3008,
      "admir": 3009,
      "bull": 3010,
      "vest": 3011,
      "shri": 3012,
      "shake": 3013,
      "showed": 3014,
      "unic": 3015,
      "uncommon": 3016,
      "butter": 3017,
      "moving": 3018,
      "apt": 3019,
      "boom": 3020,
      "aste": 3021,
      "weary": 3022,
      "memor": 3023,
      "manx": 3024,
      "const": 3025,
      "conven": 3026,
      "consequ": 3027,
      "neither": 3028,
      "locks": 3029,
      "locked": 3030,
      "distr": 3031,
      "plum": 3032,
      "prep": 3033,
      "doing": 3034,
      "flames": 3035,
      "vibr": 3036,
      "prove": 3037,
      "cred": 3038,
      "watching": 3039,
      "opin": 3040,
      "brit": 3041,
      "ints": 3042,
      "monkey": 3043,
      "deser": 3044,
      "actually": 3045,
      "carries": 3046,
      "appall": 3047,
      "heaving": 3048,
      "marble": 3049,
      "breaking": 3050,
      "subtle": 3051,
      "window": 3052,
      "clock": 3053,
      "closed": 3054,
      "render": 3055,
      "asked": 3056,
      "putting": 3057,
      "feels": 3058,
      "double": 3059,
      "spouts": 3060,
      "oceans": 3061,
      "touched": 3062,
      "missing": 3063,
      "excell": 3064,
      "fleet": 3065,
      "occup": 3066,
      "priv": 3067,
      "straits": 3068,
      "commander": 3069,
      "fairly": 3070,
      "slid": 3071,
      "thousands": 3072,
      "paused": 3073,
      "mountain": 3074,
      "crossed": 3075,
      "destroy": 3076,
      "humor": 3077,
      "happened": 3078,
      "numerous": 3079,
      "spray": 3080,
      "narrow": 3081,
      "mariner": 3082,
      "invest": 3083,
      "shadow": 3084,
      "encounter": 3085,
      "encountered": 3086,
      "pulpit": 3087,
      "announ": 3088,
      "horizontal": 3089,
      "troubled": 3090,
      "stroke": 3091,
      "corner": 3092,
      "prophet": 3093,
      "imagin": 3094,
      "lungs": 3095,
      "splinter": 3096,
      "deemed": 3097,
      "folio": 3098,
      "barrels": 3099,
      "unaccountable": 3100,
      "philoso": 3101,
      "binnacle": 3102,
      ").": 3103,
      "17": 3104,
      "awe": 3105,
      "afr": 3106,
      "bab": 3107,
      "bale": 3108,
      "cou": 3109,
      "dish": 3110,
      "dust": 3111,
      "dict": 3112,
      "eat": 3113,
      "faces": 3114,
      "hous": 3115,
      "jah": 3116,
      "mult": 3117,
      "naught": 3118,
      "pill": 3119,
      "pure": 3120,
      "path": 3121,
      "rage": 3122,
      "roman": 3123,
      "squee": 3124,
      "sank": 3125,
      "tit": 3126,
      "tus": 3127,
      "tried": 3128,
      "zing": 3129,
      "zes": 3130,
      "iny": 3131,
      "infall": 3132,
      "attered": 3133,
      "reach": 3134,
      "report": 3135,
      "retre": 3136,
      "sty": 3137,
      "oul": 3138,
      "ender": 3139,
      "arr": 3140,
      "aries": 3141,
      "orious": 3142,
      "hearing": 3143,
      "beard": 3144,
      "bung": 3145,
      "entered": 3146,
      "shir": 3147,
      "abs": 3148,
      "amaz": 3149,
      "aint": 3150,
      "suspect": 3151,
      "lling": 3152,
      "quit": 3153,
      "space": 3154,
      "ided": 3155,
      "boiling": 3156,
      "weld": 3157,
      "iced": 3158,
      "frantic": 3159,
      "mechan": 3160,
      "manned": 3161,
      "ury": 3162,
      "hail": 3163,
      "haust": 3164,
      "concl": 3165,
      "fee": 3166,
      "arest": 3167,
      "save": 3168,
      "thered": 3169,
      "size": 3170,
      "lod": 3171,
      "uses": 3172,
      "blaz": 3173,
      "utmost": 3174,
      "ourselves": 3175,
      "extr": 3176,
      "exhaust": 3177,
      "whenever": 3178,
      "endless": 3179,
      "working": 3180,
      "intoler": 3181,
      "aff": 3182,
      "stru": 3183,
      "coll": 3184,
      "canal": 3185,
      "herd": 3186,
      "host": 3187,
      "grap": 3188,
      "scri": 3189,
      "scrap": 3190,
      "seek": 3191,
      "partic": 3192,
      "prim": 3193,
      "gled": 3194,
      "glimp": 3195,
      "fied": 3196,
      "airs": 3197,
      "monoman": 3198,
      "lighted": 3199,
      "letter": 3200,
      "disappeared": 3201,
      "bucket": 3202,
      "drug": 3203,
      "obed": 3204,
      "ption": 3205,
      "nights": 3206,
      "angel": 3207,
      "ize": 3208,
      "instinct": 3209,
      "broke": 3210,
      "supposed": 3211,
      "helped": 3212,
      "slee": 3213,
      "sleet": 3214,
      "rolls": 3215,
      "waist": 3216,
      "nearer": 3217,
      "bowed": 3218,
      "anean": 3219,
      "opening": 3220,
      "shock": 3221,
      "dress": 3222,
      "silently": 3223,
      "keeping": 3224,
      "lads": 3225,
      "streets": 3226,
      "priest": 3227,
      "covered": 3228,
      "majest": 3229,
      "oarsman": 3230,
      "latter": 3231,
      "latitudes": 3232,
      "mount": 3233,
      "direction": 3234,
      "pains": 3235,
      "perilous": 3236,
      "breakfast": 3237,
      "equal": 3238,
      "rushed": 3239,
      "histor": 3240,
      "officer": 3241,
      "palms": 3242,
      "shadows": 3243,
      "succeed": 3244,
      "temper": 3245,
      "wreck": 3246,
      "deliber": 3247,
      "spoke": 3248,
      "faint": 3249,
      "carrying": 3250,
      "virgin": 3251,
      "events": 3252,
      "exceedingly": 3253,
      "involunt": 3254,
      "exclaimed": 3255,
      "violent": 3256,
      "wrinkled": 3257,
      "wrinkles": 3258,
      "secure": 3259,
      "secured": 3260,
      "probably": 3261,
      "supplied": 3262,
      "pushed": 3263,
      "appearance": 3264,
      "horrible": 3265,
      "employed": 3266,
      "pumps": 3267,
      "marvellous": 3268,
      "suffic": 3269,
      "elijah": 3270,
      "future": 3271,
      "afraid": 3272,
      ");": 3273,
      "10": 3274,
      "bil": 3275,
      "bay": 3276,
      "cub": 3277,
      "craw": 3278,
      "dome": 3279,
      "ech": 3280,
      "egy": 3281,
      "food": 3282,
      "gam": 3283,
      "gained": 3284,
      "hue": 3285,
      "iac": 3286,
      "jum": 3287,
      "nur": 3288,
      "naked": 3289,
      "oa": 3290,
      "oct": 3291,
      "pin": 3292,
      "pall": 3293,
      "piled": 3294,
      "rust": 3295,
      "sne": 3296,
      "send": 3297,
      "sense": 3298,
      "tide": 3299,
      "ught": 3300,
      "ume": 3301,
      "uable": 3302,
      "van": 3303,
      "vation": 3304,
      "vague": 3305,
      "wish": 3306,
      "inv": 3307,
      "returned": 3308,
      "recogn": 3309,
      "ond": 3310,
      "stump": 3311,
      "eds": 3312,
      "alth": 3313,
      "aling": 3314,
      "ensu": 3315,
      "enchant": 3316,
      "orient": 3317,
      "toil": 3318,
      "whip": 3319,
      "itable": 3320,
      "seizing": 3321,
      "bears": 3322,
      "beware": 3323,
      "buried": 3324,
      "lift": 3325,
      "vert": 3326,
      "noo": 3327,
      "forget": 3328,
      "def": 3329,
      "deal": 3330,
      "iring": 3331,
      "shut": 3332,
      "shook": 3333,
      "unseen": 3334,
      "aband": 3335,
      "abound": 3336,
      "rich": 3337,
      "moo": 3338,
      "moved": 3339,
      "quaker": 3340,
      "split": 3341,
      "icious": 3342,
      "polar": 3343,
      "metho": 3344,
      "congreg": 3345,
      "sick": 3346,
      "perceived": 3347,
      "rah": 3348,
      "yea": 3349,
      "commo": 3350,
      "ctic": 3351,
      "foe": 3352,
      "planted": 3353,
      "prey": 3354,
      "geon": 3355,
      "extern": 3356,
      "extra": 3357,
      "ument": 3358,
      "grew": 3359,
      "worn": 3360,
      "worth": 3361,
      "flat": 3362,
      "vial": 3363,
      "struct": 3364,
      "cod": 3365,
      "canvas": 3366,
      "anywhere": 3367,
      "holl": 3368,
      "hospit": 3369,
      "partly": 3370,
      "throw": 3371,
      "glancing": 3372,
      "harm": 3373,
      "lights": 3374,
      "action": 3375,
      "lets": 3376,
      "ashes": 3377,
      "backs": 3378,
      "carved": 3379,
      "apple": 3380,
      "hearted": 3381,
      "engra": 3382,
      "setting": 3383,
      "attend": 3384,
      "commonly": 3385,
      "considered": 3386,
      "slack": 3387,
      "ropes": 3388,
      "points": 3389,
      "crazy": 3390,
      "aneous": 3391,
      "minds": 3392,
      "valuable": 3393,
      "towing": 3394,
      "resting": 3395,
      "conduct": 3396,
      "trees": 3397,
      "silver": 3398,
      "naturally": 3399,
      "lady": 3400,
      "sounds": 3401,
      "sounding": 3402,
      "ordered": 3403,
      "lively": 3404,
      "darting": 3405,
      "liness": 3406,
      "smoo": 3407,
      "colle": 3408,
      "continual": 3409,
      "continued": 3410,
      "closely": 3411,
      "seaman": 3412,
      "mounted": 3413,
      "concern": 3414,
      "incident": 3415,
      "mixed": 3416,
      "gliding": 3417,
      "glided": 3418,
      "tempest": 3419,
      "leaping": 3420,
      "terrific": 3421,
      "spoken": 3422,
      "confident": 3423,
      "potent": 3424,
      "capture": 3425,
      "occasionally": 3426,
      "declared": 3427,
      "ensible": 3428,
      "finger": 3429,
      "fingers": 3430,
      "scores": 3431,
      "tumult": 3432,
      "furi": 3433,
      "stretched": 3434,
      "customary": 3435,
      "arrived": 3436,
      "departed": 3437,
      "significant": 3438,
      "critical": 3439,
      "reference": 3440,
      "boots": 3441,
      "honest": 3442,
      "circles": 3443,
      "comparative": 3444,
      "corpse": 3445,
      "london": 3446,
      "apparent": 3447,
      "simultaneously": 3448,
      "tormented": 3449,
      "opinion": 3450,
      "private": 3451,
      "egypt": 3452,
      ").--": 3453,
      "bis": 3454,
      "bare": 3455,
      "evil": 3456,
      "foun": 3457,
      "fav": 3458,
      "gard": 3459,
      "iently": 3460,
      "kin": 3461,
      "ker": 3462,
      "link": 3463,
      "laz": 3464,
      "mone": 3465,
      "male": 3466,
      "nations": 3467,
      "oe": 3468,
      "oak": 3469,
      "ply": 3470,
      "pine": 3471,
      "pack": 3472,
      "pho": 3473,
      "rain": 3474,
      "sen": 3475,
      "tch": 3476,
      "ties": 3477,
      "tig": 3478,
      "trop": 3479,
      "tied": 3480,
      "uel": 3481,
      "uries": 3482,
      "winter": 3483,
      "inated": 3484,
      "anx": 3485,
      "ref": 3486,
      "resu": 3487,
      "return": 3488,
      "reaching": 3489,
      "relig": 3490,
      "receiving": 3491,
      "stan": 3492,
      "stars": 3493,
      "stagg": 3494,
      "aly": 3495,
      "envelo": 3496,
      "isle": 3497,
      "isol": 3498,
      "tore": 3499,
      "itive": 3500,
      "itated": 3501,
      "itary": 3502,
      "secur": 3503,
      "chanced": 3504,
      "bury": 3505,
      "lived": 3506,
      "force": 3507,
      "dear": 3508,
      "ament": 3509,
      "appreh": 3510,
      "roared": 3511,
      "soo": 3512,
      "quil": 3513,
      "quant": 3514,
      "etic": 3515,
      "bye": 3516,
      "aston": 3517,
      "pocket": 3518,
      "illed": 3519,
      "mankind": 3520,
      "acqu": 3521,
      "conve": 3522,
      "concent": 3523,
      "safe": 3524,
      "perse": 3525,
      "ulated": 3526,
      "emb": 3527,
      "emer": 3528,
      "embr": 3529,
      "ifying": 3530,
      "ishment": 3531,
      "dible": 3532,
      "exist": 3533,
      "theirs": 3534,
      "trows": 3535,
      "indu": 3536,
      "umph": 3537,
      "flank": 3538,
      "vier": 3539,
      "vile": 3540,
      "strained": 3541,
      "stranded": 3542,
      "canst": 3543,
      "prolong": 3544,
      "thank": 3545,
      "clim": 3546,
      "clum": 3547,
      "scen": 3548,
      "lesson": 3549,
      "wherefore": 3550,
      "brim": 3551,
      "greater": 3552,
      "!\"--": 3553,
      "crush": 3554,
      "landed": 3555,
      "steering": 3556,
      "design": 3557,
      "swinging": 3558,
      "mater": 3559,
      "matters": 3560,
      "readily": 3561,
      "serve": 3562,
      "dense": 3563,
      "shoulders": 3564,
      "joined": 3565,
      "merry": 3566,
      "heaved": 3567,
      "wonders": 3568,
      "survi": 3569,
      "passion": 3570,
      "settled": 3571,
      "sooner": 3572,
      "azz": 3573,
      "please": 3574,
      "tiller": 3575,
      "attempt": 3576,
      "singular": 3577,
      "indirectly": 3578,
      "correspon": 3579,
      "crack": 3580,
      "vali": 3581,
      "swear": 3582,
      "central": 3583,
      "tower": 3584,
      "written": 3585,
      "nerv": 3586,
      "fourth": 3587,
      "volume": 3588,
      "ladies": 3589,
      "sounded": 3590,
      "warp": 3591,
      "street": 3592,
      "pulled": 3593,
      "mrs": 3594,
      "milk": 3595,
      "grounds": 3596,
      "triumph": 3597,
      "family": 3598,
      "latitude": 3599,
      "mountains": 3600,
      "straightway": 3601,
      "salt": 3602,
      "painted": 3603,
      "elsewhere": 3604,
      "calmly": 3605,
      "sprang": 3606,
      "leaned": 3607,
      "fellows": 3608,
      "hurry": 3609,
      "names": 3610,
      "doubtless": 3611,
      "ramad": 3612,
      "fitted": 3613,
      "slightly": 3614,
      "leaped": 3615,
      "deliver": 3616,
      "belonged": 3617,
      "twice": 3618,
      "sinking": 3619,
      "social": 3620,
      "descend": 3621,
      "conceit": 3622,
      "necessary": 3623,
      "utterly": 3624,
      "tubs": 3625,
      "moody": 3626,
      "swallowed": 3627,
      "loaded": 3628,
      "resolved": 3629,
      "relieved": 3630,
      "practical": 3631,
      "ponderous": 3632,
      "ambergris": 3633,
      "spanish": 3634,
      "vocation": 3635,
      "remarkable": 3636,
      "fathoms": 3637,
      "dangerous": 3638,
      "connected": 3639,
      "blanket": 3640,
      "subsequent": 3641,
      "prepared": 3642,
      "bunger": 3643,
      "octavo": 3644,
      "money": 3645,
      "quantity": 3646,
      "trowsers": 3647,
      "12": 3648,
      "block": 3649,
      "dip": 3650,
      "dling": 3651,
      "damp": 3652,
      "eating": 3653,
      "foul": 3654,
      "ived": 3655,
      "jam": 3656,
      "mers": 3657,
      "mum": 3658,
      "mured": 3659,
      "nap": 3660,
      "nation": 3661,
      "ox": 3662,
      "oath": 3663,
      "pity": 3664,
      "rous": 3665,
      "taste": 3666,
      "uno": 3667,
      "wan": 3668,
      "wet": 3669,
      "wine": 3670,
      "wrist": 3671,
      "thread": 3672,
      "inno": 3673,
      "ince": 3674,
      "infinite": 3675,
      "reas": 3676,
      "refle": 3677,
      "stoo": 3678,
      "sters": 3679,
      "ingu": 3680,
      "ener": 3681,
      "arg": 3682,
      "arctic": 3683,
      "itch": 3684,
      "leag": 3685,
      "chow": 3686,
      "chip": 3687,
      "changed": 3688,
      "beam": 3689,
      "becomes": 3690,
      "admit": 3691,
      "bum": 3692,
      "buff": 3693,
      "liken": 3694,
      "verte": 3695,
      "noise": 3696,
      "wicked": 3697,
      "cell": 3698,
      "forge": 3699,
      "forgot": 3700,
      "dev": 3701,
      "detail": 3702,
      "shif": 3703,
      "unearthly": 3704,
      "unusual": 3705,
      "amoun": 3706,
      "terms": 3707,
      "road": 3708,
      "rods": 3709,
      "kee": 3710,
      "quad": 3711,
      "spin": 3712,
      "spars": 3713,
      "astic": 3714,
      "outward": 3715,
      "upright": 3716,
      "weigh": 3717,
      "frag": 3718,
      "poles": 3719,
      "meat": 3720,
      "emper": 3721,
      "loat": 3722,
      "rail": 3723,
      "comfort": 3724,
      "usage": 3725,
      "shipped": 3726,
      "shipmate": 3727,
      "plat": 3728,
      "pless": 3729,
      "exas": 3730,
      "explain": 3731,
      "truck": 3732,
      "trump": 3733,
      "greate": 3734,
      "capstan": 3735,
      "afri": 3736,
      "afloat": 3737,
      "timid": 3738,
      "handed": 3739,
      "howling": 3740,
      "clouds": 3741,
      "downwards": 3742,
      "scal": 3743,
      "watches": 3744,
      "seeking": 3745,
      "offered": 3746,
      "prud": 3747,
      "opard": 3748,
      "knowledge": 3749,
      "crim": 3750,
      "ancy": 3751,
      "tooth": 3752,
      "despair": 3753,
      "muf": 3754,
      "discer": 3755,
      "awn": 3756,
      "tenance": 3757,
      "countenance": 3758,
      "serene": 3759,
      "interior": 3760,
      "shoulder": 3761,
      "calls": 3762,
      "calling": 3763,
      "subst": 3764,
      "southern": 3765,
      "barbs": 3766,
      "itual": 3767,
      "distingu": 3768,
      "moments": 3769,
      "begin": 3770,
      "sights": 3771,
      "bowl": 3772,
      "bowels": 3773,
      "singing": 3774,
      "morrow": 3775,
      "slain": 3776,
      "burning": 3777,
      "ension": 3778,
      "forms": 3779,
      "centuries": 3780,
      "spouting": 3781,
      "lengthwise": 3782,
      "ladder": 3783,
      "warning": 3784,
      "hearse": 3785,
      "element": 3786,
      "courage": 3787,
      "simple": 3788,
      "guern": 3789,
      "pressed": 3790,
      "caused": 3791,
      "stock": 3792,
      "famili": 3793,
      "brace": 3794,
      "powder": 3795,
      "impat": 3796,
      "falling": 3797,
      "malice": 3798,
      "murmured": 3799,
      "fearful": 3800,
      "contrary": 3801,
      "happens": 3802,
      "snug": 3803,
      "velled": 3804,
      "america": 3805,
      "hoisting": 3806,
      "freely": 3807,
      "conscience": 3808,
      "grace": 3809,
      "named": 3810,
      "extrem": 3811,
      "catch": 3812,
      "leading": 3813,
      "ramid": 3814,
      "furnish": 3815,
      "iii": 3816,
      "firmly": 3817,
      "discovered": 3818,
      "bursting": 3819,
      "exceeding": 3820,
      "inferior": 3821,
      "lashed": 3822,
      "insult": 3823,
      "meeting": 3824,
      "cannib": 3825,
      "additional": 3826,
      "smells": 3827,
      "...": 3828,
      "sadly": 3829,
      "threat": 3830,
      "possession": 3831,
      "hemp": 3832,
      "experienced": 3833,
      "scrut": 3834,
      "fashion": 3835,
      "fashioned": 3836,
      "vengeance": 3837,
      "sweeping": 3838,
      "tapering": 3839,
      "pyramid": 3840,
      "narrative": 3841,
      "dumb": 3842,
      "osity": 3843,
      "tossing": 3844,
      "drowned": 3845,
      "lonely": 3846,
      "divided": 3847,
      "fleece": 3848,
      "yarn": 3849,
      "comfortable": 3850,
      "indispens": 3851,
      "superstitious": 3852,
      "desperate": 3853,
      "prairie": 3854,
      "gleam": 3855,
      "horror": 3856,
      "manxman": 3857,
      "excellent": 3858,
      "involuntarily": 3859,
      "enchanted": 3860,
      "oriental": 3861,
      "method": 3862,
      "commodo": 3863,
      "external": 3864,
      "favour": 3865,
      "vertebra": 3866,
      "greatest": 3867,
      "guernsey": 3868,
      "familiar": 3869,
      "bast": 3870,
      "bible": 3871,
      "cies": 3872,
      "cence": 3873,
      "cular": 3874,
      "fan": 3875,
      "fil": 3876,
      "frig": 3877,
      "gust": 3878,
      "hap": 3879,
      "hors": 3880,
      "io": 3881,
      "ives": 3882,
      "jets": 3883,
      "loun": 3884,
      "mason": 3885,
      "nin": 3886,
      "non": 3887,
      "nut": 3888,
      "pane": 3889,
      "rus": 3890,
      "rows": 3891,
      "san": 3892,
      "slo": 3893,
      "tan": 3894,
      "til": 3895,
      "tro": 3896,
      "tah": 3897,
      "tink": 3898,
      "tling": 3899,
      "tached": 3900,
      "tamb": 3901,
      "wand": 3902,
      "women": 3903,
      "xter": 3904,
      "yaw": 3905,
      "inous": 3906,
      "included": 3907,
      "anon": 3908,
      "ater": 3909,
      "atom": 3910,
      "repose": 3911,
      "reign": 3912,
      "oning": 3913,
      "stal": 3914,
      "stic": 3915,
      "stiff": 3916,
      "stairs": 3917,
      "ende": 3918,
      "arched": 3919,
      "ascri": 3920,
      "iter": 3921,
      "search": 3922,
      "omit": 3923,
      "chat": 3924,
      "beating": 3925,
      "beholding": 3926,
      "image": 3927,
      "bud": 3928,
      "bust": 3929,
      "verd": 3930,
      "verted": 3931,
      "nois": 3932,
      "ceto": 3933,
      "determin": 3934,
      "detached": 3935,
      "dexter": 3936,
      "ayed": 3937,
      "entit": 3938,
      "ential": 3939,
      "unspeak": 3940,
      "ability": 3941,
      "--'": 3942,
      "subl": 3943,
      "sullen": 3944,
      "suffer": 3945,
      "whalebone": 3946,
      "notice": 3947,
      "noticed": 3948,
      "youth": 3949,
      "icy": 3950,
      "ills": 3951,
      "mead": 3952,
      "accompl": 3953,
      "conv": 3954,
      "constern": 3955,
      "concluding": 3956,
      "sian": 3957,
      "sisted": 3958,
      "peep": 3959,
      "compr": 3960,
      "commotion": 3961,
      "dies": 3962,
      "dived": 3963,
      "divine": 3964,
      "pling": 3965,
      "ution": 3966,
      "ours": 3967,
      "ourine": 3968,
      "trad": 3969,
      "umber": 3970,
      "heading": 3971,
      "gress": 3972,
      "foremost": 3973,
      "mostly": 3974,
      "fling": 3975,
      "flung": 3976,
      "vivid": 3977,
      "string": 3978,
      "coiled": 3979,
      "canoe": 3980,
      "process": 3981,
      "hered": 3982,
      "herds": 3983,
      "clut": 3984,
      "blem": 3985,
      "proud": 3986,
      "throwing": 3987,
      "glit": 3988,
      "spear": 3989,
      "spell": 3990,
      "speech": 3991,
      "fidel": 3992,
      "tings": 3993,
      "turk": 3994,
      "odd": 3995,
      "steer": 3996,
      "desired": 3997,
      "acts": 3998,
      "letters": 3999,
      "disast": 4000,
      "typho": 4001,
      "backed": 4002,
      "tender": 4003,
      "obvious": 4004,
      "service": 4005,
      "cask": 4006,
      "northern": 4007,
      "sheet": 4008,
      "join": 4009,
      "remor": 4010,
      "cuvier": 4011,
      "merged": 4012,
      "sunrise": 4013,
      "genial": 4014,
      "contact": 4015,
      "passeng": 4016,
      "skir": 4017,
      "skill": 4018,
      "news": 4019,
      "clothes": 4020,
      "strip": 4021,
      "stripped": 4022,
      "early": 4023,
      "smaller": 4024,
      "blackness": 4025,
      "wave": 4026,
      "waif": 4027,
      "begins": 4028,
      "communic": 4029,
      "fastened": 4030,
      "slave": 4031,
      "independ": 4032,
      "burgh": 4033,
      "valley": 4034,
      "remaining": 4035,
      "floats": 4036,
      "starting": 4037,
      "mainmast": 4038,
      "woods": 4039,
      "steadily": 4040,
      "peculiarities": 4041,
      "mortals": 4042,
      "naturalists": 4043,
      "charge": 4044,
      "wanting": 4045,
      "cruel": 4046,
      "advanced": 4047,
      "needle": 4048,
      "needles": 4049,
      "carefully": 4050,
      "pacing": 4051,
      "spiritual": 4052,
      "memory": 4053,
      "strongly": 4054,
      "objects": 4055,
      "fifteen": 4056,
      "narwhale": 4057,
      "damn": 4058,
      "helmsman": 4059,
      "tranquil": 4060,
      "observe": 4061,
      "walls": 4062,
      "borne": 4063,
      "remote": 4064,
      "removed": 4065,
      "softly": 4066,
      "temple": 4067,
      "wrecked": 4068,
      "replied": 4069,
      "deliri": 4070,
      "birth": 4071,
      "birds": 4072,
      "symbol": 4073,
      "lovely": 4074,
      "discovery": 4075,
      "picked": 4076,
      "descending": 4077,
      "judgment": 4078,
      "bolts": 4079,
      "smell": 4080,
      "usually": 4081,
      "elephants": 4082,
      "swells": 4083,
      "tackle": 4084,
      "brief": 4085,
      "nailed": 4086,
      "swallow": 4087,
      "demanded": 4088,
      "experience": 4089,
      "trouble": 4090,
      "ignorance": 4091,
      "mysterious": 4092,
      "habit": 4093,
      "tongue": 4094,
      "bund": 4095,
      "unctuous": 4096,
      "features": 4097,
      "pirates": 4098,
      "hoops": 4099,
      "oblique": 4100,
      "spikes": 4101,
      "fowls": 4102,
      "blessed": 4103,
      "fetch": 4104,
      "obey": 4105,
      "temporary": 4106,
      "articles": 4107,
      "monstrous": 4108,
      "whispered": 4109,
      "sacred": 4110,
      "indifferent": 4111,
      "profession": 4112,
      "barbaric": 4113,
      "elevated": 4114,
      "alike": 4115,
      "accident": 4116,
      "samuel": 4117,
      "invariably": 4118,
      "wharf": 4119,
      "escaped": 4120,
      "convenient": 4121,
      "distrust": 4122,
      "baleen": 4123,
      "houses": 4124,
      "infallibly": 4125,
      "welded": 4126,
      "monomaniac": 4127,
      "domestic": 4128,
      "jumped": 4129,
      "congregation": 4130,
      "biscu": 4131,
      "tiger": 4132,
      "perseus": 4133,
      "prolonged": 4134,
      "scenes": 4135,
      "ramadan": 4136,
      "reasons": 4137,
      "cannibals": 4138,
      "indispensable": 4139,
      "horses": 4140,
      "tahit": 4141,
      "tambourine": 4142,
      "13": 4143,
      "ba": 4144,
      "bits": 4145,
      "bade": 4146,
      "braw": 4147,
      "brig": 4148,
      "een": 4149,
      "ghe": 4150,
      "gently": 4151,
      "hom": 4152,
      "ius": 4153,
      "ju": 4154,
      "jav": 4155,
      "langu": 4156,
      "mary": 4157,
      "og": 4158,
      "obo": 4159,
      "oked": 4160,
      "odec": 4161,
      "pound": 4162,
      "pious": 4163,
      "punch": 4164,
      "rings": 4165,
      "song": 4166,
      "tick": 4167,
      "task": 4168,
      "va": 4169,
      "vity": 4170,
      "woman": 4171,
      "thither": 4172,
      "incess": 4173,
      "anatom": 4174,
      "atmo": 4175,
      "reno": 4176,
      "reful": 4177,
      "represent": 4178,
      "revel": 4179,
      "retained": 4180,
      "stun": 4181,
      "stage": 4182,
      "edge": 4183,
      "ouded": 4184,
      "alas": 4185,
      "alter": 4186,
      "albat": 4187,
      "allest": 4188,
      "assa": 4189,
      "item": 4190,
      "sell": 4191,
      "leather": 4192,
      "cha": 4193,
      "chn": 4194,
      "chim": 4195,
      "beget": 4196,
      "belly": 4197,
      "ghter": 4198,
      "ghast": 4199,
      "lip": 4200,
      "lice": 4201,
      "liable": 4202,
      "dece": 4203,
      "irre": 4204,
      "ckets": 4205,
      "unde": 4206,
      "uncertain": 4207,
      "absent": 4208,
      "rip": 4209,
      "ama": 4210,
      "term": 4211,
      "moss": 4212,
      "soil": 4213,
      "soever": 4214,
      "spent": 4215,
      "spark": 4216,
      "spoil": 4217,
      "spades": 4218,
      "bosom": 4219,
      "uplifted": 4220,
      "mel": 4221,
      "methinks": 4222,
      "harem": 4223,
      "acity": 4224,
      "acting": 4225,
      "accursed": 4226,
      "ards": 4227,
      "feast": 4228,
      "neigh": 4229,
      "nearest": 4230,
      "sized": 4231,
      "perch": 4232,
      "peter": 4233,
      "pected": 4234,
      "ultim": 4235,
      "ults": 4236,
      "lot": 4237,
      "yester": 4238,
      "direful": 4239,
      "blank": 4240,
      "prepar": 4241,
      "prevent": 4242,
      "prelim": 4243,
      "george": 4244,
      "everlast": 4245,
      "derived": 4246,
      "exe": 4247,
      "expected": 4248,
      "elu": 4249,
      "elastic": 4250,
      "endure": 4251,
      "tear": 4252,
      "teach": 4253,
      "techn": 4254,
      "affright": 4255,
      "flan": 4256,
      "flour": 4257,
      "venerable": 4258,
      "strang": 4259,
      "coils": 4260,
      "canall": 4261,
      "canoes": 4262,
      "prospect": 4263,
      "anybody": 4264,
      "hog": 4265,
      "growing": 4266,
      "grinning": 4267,
      "handful": 4268,
      "downward": 4269,
      "hereafter": 4270,
      "parted": 4271,
      "bringing": 4272,
      "aud": 4273,
      "file": 4274,
      "afternoon": 4275,
      "istic": 4276,
      "adequ": 4277,
      "compet": 4278,
      "throughout": 4279,
      "smallest": 4280,
      "berth": 4281,
      "count": 4282,
      "counted": 4283,
      "serious": 4284,
      "serpent": 4285,
      "chapel": 4286,
      "phreno": 4287,
      "sheets": 4288,
      "uded": 4289,
      "remind": 4290,
      "angels": 4291,
      "appar": 4292,
      "heathen": 4293,
      "subterr": 4294,
      "sided": 4295,
      "skies": 4296,
      "rents": 4297,
      "renched": 4298,
      "striving": 4299,
      "settle": 4300,
      "founded": 4301,
      "jeopard": 4302,
      "slou": 4303,
      "corrupt": 4304,
      "vision": 4305,
      "ensity": 4306,
      "signed": 4307,
      "headsman": 4308,
      "century": 4309,
      "midst": 4310,
      "freight": 4311,
      "wrapped": 4312,
      "treach": 4313,
      "licable": 4314,
      "flex": 4315,
      "warrant": 4316,
      "prior": 4317,
      "reasonable": 4318,
      "hatches": 4319,
      "devilish": 4320,
      "pitched": 4321,
      "zeal": 4322,
      "logical": 4323,
      "placing": 4324,
      "colum": 4325,
      "coloured": 4326,
      "steadfast": 4327,
      "appears": 4328,
      "savages": 4329,
      "simply": 4330,
      "milky": 4331,
      "magic": 4332,
      "slide": 4333,
      "sliding": 4334,
      "shortly": 4335,
      "curiosity": 4336,
      "driven": 4337,
      "pausing": 4338,
      "duodec": 4339,
      "spirits": 4340,
      "lima": 4341,
      "limbs": 4342,
      "snuff": 4343,
      "penet": 4344,
      "frozen": 4345,
      "gazed": 4346,
      "summit": 4347,
      "pier": 4348,
      "pike": 4349,
      "until": 4350,
      "suspic": 4351,
      "wales": 4352,
      "hurried": 4353,
      "hurrah": 4354,
      "dimin": 4355,
      "pursued": 4356,
      "remotest": 4357,
      "expand": 4358,
      "glist": 4359,
      "mildly": 4360,
      "confess": 4361,
      "knives": 4362,
      "depth": 4363,
      "depths": 4364,
      "blinds": 4365,
      "murderous": 4366,
      "hints": 4367,
      "eastward": 4368,
      "shroud": 4369,
      "bidding": 4370,
      "fortun": 4371,
      "landsmen": 4372,
      "vigil": 4373,
      "glasses": 4374,
      "vital": 4375,
      "velocity": 4376,
      "boldly": 4377,
      "nantucketers": 4378,
      "thrusting": 4379,
      "threw": 4380,
      "crotch": 4381,
      "crooked": 4382,
      "gaining": 4383,
      "hills": 4384,
      "compasses": 4385,
      "ignorant": 4386,
      "breadth": 4387,
      "grief": 4388,
      "approaching": 4389,
      "feeding": 4390,
      "____": 4391,
      "jerobo": 4392,
      "polite": 4393,
      "bony": 4394,
      "halloa": 4395,
      "imperial": 4396,
      "contriv": 4397,
      "publ": 4398,
      "surprise": 4399,
      "fowl": 4400,
      "hovering": 4401,
      "tremend": 4402,
      "revolving": 4403,
      "papers": 4404,
      "impressions": 4405,
      "ableness": 4406,
      "hideous": 4407,
      "occurred": 4408,
      "japanese": 4409,
      "dilig": 4410,
      "comrades": 4411,
      "combined": 4412,
      "projecting": 4413,
      "organ": 4414,
      "gradually": 4415,
      "attention": 4416,
      "appalling": 4417,
      "destroyed": 4418,
      "baby": 4419,
      "lodged": 4420,
      "glimpse": 4421,
      "obedience": 4422,
      "snee": 4423,
      "engraving": 4424,
      "smooth": 4425,
      "scoresby": 4426,
      "clumsy": 4427,
      "valiant": 4428,
      "leagues": 4429,
      "buffalo": 4430,
      "amount": 4431,
      "exasper": 4432,
      "muffled": 4433,
      "commodore": 4434,
      "cetology": 4435,
      "entitled": 4436,
      "consternation": 4437,
      "remorseless": 4438,
      "atmosp": 4439,
      "albatross": 4440,
      "yesterday": 4441,
      "prelimin": 4442,
      "duodecim": 4443,
      "jeroboam": 4444,
      ",--\"": 4445,
      "16": 4446,
      "abund": 4447,
      "bred": 4448,
      "bank": 4449,
      "brid": 4450,
      "bbing": 4451,
      "cli": 4452,
      "cere": 4453,
      "cip": 4454,
      "dra": 4455,
      "duck": 4456,
      "dancing": 4457,
      "dawn": 4458,
      "ee": 4459,
      "ease": 4460,
      "eyed": 4461,
      "fits": 4462,
      "fted": 4463,
      "flight": 4464,
      "gw": 4465,
      "gate": 4466,
      "gged": 4467,
      "gather": 4468,
      "hate": 4469,
      "hilar": 4470,
      "ib": 4471,
      "iot": 4472,
      "jun": 4473,
      "mace": 4474,
      "miz": 4475,
      "mapple": 4476,
      "oted": 4477,
      "pad": 4478,
      "page": 4479,
      "pist": 4480,
      "padd": 4481,
      "rim": 4482,
      "rises": 4483,
      "scream": 4484,
      "sensible": 4485,
      "tin": 4486,
      "tes": 4487,
      "tight": 4488,
      "tched": 4489,
      "uvi": 4490,
      "uated": 4491,
      "uously": 4492,
      "vish": 4493,
      "ws": 4494,
      "win": 4495,
      "woo": 4496,
      "wilt": 4497,
      "thri": 4498,
      "thigh": 4499,
      "indol": 4500,
      "inscrut": 4501,
      "ano": 4502,
      "eries": 4503,
      "reserved": 4504,
      "revenge": 4505,
      "sting": 4506,
      "stor": 4507,
      "stif": 4508,
      "stark": 4509,
      "stuck": 4510,
      "stave": 4511,
      "alle": 4512,
      "whel": 4513,
      "ites": 4514,
      "sect": 4515,
      "sebast": 4516,
      "levelled": 4517,
      "hew": 4518,
      "heel": 4519,
      "omon": 4520,
      "chron": 4521,
      "beast": 4522,
      "beings": 4523,
      "bethink": 4524,
      "ado": 4525,
      "aded": 4526,
      "adam": 4527,
      "imput": 4528,
      "immemor": 4529,
      "hish": 4530,
      "allied": 4531,
      "ligent": 4532,
      "verb": 4533,
      "nod": 4534,
      "nostr": 4535,
      "wigw": 4536,
      "ceas": 4537,
      "celer": 4538,
      "defin": 4539,
      "entr": 4540,
      "shame": 4541,
      "shaking": 4542,
      "withstand": 4543,
      "unlike": 4544,
      "unted": 4545,
      "unched": 4546,
      "united": 4547,
      "button": 4548,
      "amped": 4549,
      "roc": 4550,
      "roaring": 4551,
      "sust": 4552,
      "spar": 4553,
      "spic": 4554,
      "spend": 4555,
      "note": 4556,
      "weaving": 4557,
      "weeks": 4558,
      "frail": 4559,
      "illum": 4560,
      "meets": 4561,
      "mani": 4562,
      "ounce": 4563,
      "acon": 4564,
      "accompan": 4565,
      "conqu": 4566,
      "connex": 4567,
      "consist": 4568,
      "sieur": 4569,
      "perfect": 4570,
      "peering": 4571,
      "ulars": 4572,
      "loving": 4573,
      "rack": 4574,
      "raise": 4575,
      "commen": 4576,
      "commer": 4577,
      "foss": 4578,
      "usions": 4579,
      "ples": 4580,
      "pregn": 4581,
      "presumed": 4582,
      "doll": 4583,
      "capable": 4584,
      "affor": 4585,
      "afford": 4586,
      "strug": 4587,
      "coin": 4588,
      "coal": 4589,
      "coil": 4590,
      "cock": 4591,
      "seemingly": 4592,
      "prote": 4593,
      "proport": 4594,
      "holes": 4595,
      "clust": 4596,
      "clinging": 4597,
      "scorn": 4598,
      "scattered": 4599,
      "offer": 4600,
      "office": 4601,
      "hereby": 4602,
      "party": 4603,
      "whereby": 4604,
      "throne": 4605,
      "gles": 4606,
      "iousness": 4607,
      "intently": 4608,
      "intended": 4609,
      "fiend": 4610,
      "didst": 4611,
      "daylight": 4612,
      "yours": 4613,
      "steers": 4614,
      "steep": 4615,
      "month": 4616,
      "monsters": 4617,
      "monsieur": 4618,
      "desol": 4619,
      "active": 4620,
      "activ": 4621,
      "awa": 4622,
      "awake": 4623,
      "angle": 4624,
      "angular": 4625,
      "match": 4626,
      "reading": 4627,
      "backward": 4628,
      "obsc": 4629,
      "hunting": 4630,
      "phil": 4631,
      "jove": 4632,
      "uding": 4633,
      "mercy": 4634,
      "heavi": 4635,
      "wont": 4636,
      "breast": 4637,
      "breach": 4638,
      "sunset": 4639,
      "surgeon": 4640,
      "cloth": 4641,
      "larboard": 4642,
      "larger": 4643,
      "ports": 4644,
      "portent": 4645,
      "fury": 4646,
      "sleeper": 4647,
      "plement": 4648,
      "pleased": 4649,
      "hardy": 4650,
      "cheese": 4651,
      "apsed": 4652,
      "attended": 4653,
      "runs": 4654,
      "opened": 4655,
      "swept": 4656,
      "wildly": 4657,
      "miserable": 4658,
      "float": 4659,
      "rowing": 4660,
      "bloody": 4661,
      "mouths": 4662,
      "aggy": 4663,
      "considerably": 4664,
      "slipper": 4665,
      "accounted": 4666,
      "accounts": 4667,
      "finds": 4668,
      "tribe": 4669,
      "charity": 4670,
      "driving": 4671,
      "dripping": 4672,
      "paul": 4673,
      "wants": 4674,
      "wanted": 4675,
      "cruise": 4676,
      "avor": 4677,
      "directions": 4678,
      "duke": 4679,
      "malicious": 4680,
      "paced": 4681,
      "happy": 4682,
      "happen": 4683,
      "easily": 4684,
      "supernatural": 4685,
      "walking": 4686,
      "transpare": 4687,
      "specific": 4688,
      "stopping": 4689,
      "properly": 4690,
      "dimly": 4691,
      "lifting": 4692,
      "mistake": 4693,
      "leader": 4694,
      "measured": 4695,
      "fancied": 4696,
      "wretched": 4697,
      "confid": 4698,
      "greek": 4699,
      "keels": 4700,
      "laws": 4701,
      "twisted": 4702,
      "bodies": 4703,
      "crowd": 4704,
      "society": 4705,
      "heeded": 4706,
      "lashing": 4707,
      "involved": 4708,
      "judge": 4709,
      "lurks": 4710,
      "bellies": 4711,
      "vigorous": 4712,
      "occasional": 4713,
      "declare": 4714,
      "exclam": 4715,
      "violently": 4716,
      "incredible": 4717,
      "mystical": 4718,
      "distinctly": 4719,
      "navig": 4720,
      "score": 4721,
      "listen": 4722,
      "wounded": 4723,
      "iloqu": 4724,
      "demand": 4725,
      "expression": 4726,
      "avoid": 4727,
      "kicked": 4728,
      "vineyard": 4729,
      "erranean": 4730,
      "quohog": 4731,
      "mystery": 4732,
      "cherish": 4733,
      "tongs": 4734,
      "seventh": 4735,
      "hauled": 4736,
      "intellig": 4737,
      "intelligent": 4738,
      "candles": 4739,
      "washing": 4740,
      "contrasting": 4741,
      "snatching": 4742,
      "inclined": 4743,
      "movement": 4744,
      "scarcely": 4745,
      "shuddering": 4746,
      "temporarily": 4747,
      "excited": 4748,
      "china": 4749,
      "universal": 4750,
      "comrade": 4751,
      "provided": 4752,
      "principle": 4753,
      "influence": 4754,
      "plunged": 4755,
      "affection": 4756,
      "mediterranean": 4757,
      "traveller": 4758,
      "bachel": 4759,
      "weapon": 4760,
      "satisfact": 4761,
      "false": 4762,
      "constant": 4763,
      "occupied": 4764,
      "squeeze": 4765,
      "shirt": 4766,
      "intolerable": 4767,
      "particulars": 4768,
      "succeeded": 4769,
      "sufficiently": 4770,
      "recognised": 4771,
      "abounding": 4772,
      "moored": 4773,
      "confidential": 4774,
      "tumultuous": 4775,
      "apparently": 4776,
      "fountain": 4777,
      "anxious": 4778,
      "embark": 4779,
      "material": 4780,
      "nervous": 4781,
      "unob": 4782,
      "chowder": 4783,
      "forgotten": 4784,
      "extremity": 4785,
      "noiseless": 4786,
      "unspeakable": 4787,
      "independent": 4788,
      "biscuit": 4789,
      "ghest": 4790,
      "homage": 4791,
      "chimney": 4792,
      "sparkling": 4793,
      "everlasting": 4794,
      "apparition": 4795,
      "freighted": 4796,
      "published": 4797,
      "tremendous": 4798,
      "sebastian": 4799,
      "wigwam": 4800,
      "activity": 4801,
      "transparent": 4802,
      "50": 4803,
      "afore": 4804,
      "bout": 4805,
      "bish": 4806,
      "bors": 4807,
      "blocks": 4808,
      "cif": 4809,
      "cable": 4810,
      "dain": 4811,
      "dus": 4812,
      "dried": 4813,
      "daring": 4814,
      "fy": 4815,
      "flies": 4816,
      "gor": 4817,
      "gers": 4818,
      "gang": 4819,
      "gorge": 4820,
      "hing": 4821,
      "hil": 4822,
      "hip": 4823,
      "hang": 4824,
      "iveness": 4825,
      "jop": 4826,
      "kers": 4827,
      "lun": 4828,
      "lings": 4829,
      "lburgh": 4830,
      "mend": 4831,
      "nes": 4832,
      "pes": 4833,
      "pour": 4834,
      "pau": 4835,
      "pig": 4836,
      "ptom": 4837,
      "pool": 4838,
      "rated": 4839,
      "ranged": 4840,
      "sab": 4841,
      "sens": 4842,
      "sending": 4843,
      "scho": 4844,
      "tab": 4845,
      "tid": 4846,
      "taf": 4847,
      "tars": 4848,
      "vict": 4849,
      "wakes": 4850,
      "xion": 4851,
      "xic": 4852,
      "yor": 4853,
      "inj": 4854,
      "inas": 4855,
      "ination": 4856,
      "inland": 4857,
      "incar": 4858,
      "invent": 4859,
      "including": 4860,
      "anni": 4861,
      "anvil": 4862,
      "erog": 4863,
      "ret": 4864,
      "recl": 4865,
      "resc": 4866,
      "returning": 4867,
      "receive": 4868,
      "onoun": 4869,
      "alt": 4870,
      "alarm": 4871,
      "andes": 4872,
      "ision": 4873,
      "assi": 4874,
      "seals": 4875,
      "seize": 4876,
      "hey": 4877,
      "heide": 4878,
      "health": 4879,
      "lyph": 4880,
      "chair": 4881,
      "charm": 4882,
      "chances": 4883,
      "chasing": 4884,
      "beer": 4885,
      "adm": 4886,
      "address": 4887,
      "impe": 4888,
      "busy": 4889,
      "built": 4890,
      "liber": 4891,
      "noah": 4892,
      "dee": 4893,
      "demon": 4894,
      "entering": 4895,
      "entry": 4896,
      "withdrawing": 4897,
      "unity": 4898,
      "unnatural": 4899,
      "abled": 4900,
      "bute": 4901,
      "apo": 4902,
      "aped": 4903,
      "rocking": 4904,
      "sug": 4905,
      "sober": 4906,
      "qual": 4907,
      "quality": 4908,
      "spur": 4909,
      "spilled": 4910,
      "ools": 4911,
      "agent": 4912,
      "bolt": 4913,
      "weep": 4914,
      "western": 4915,
      "fron": 4916,
      "pockets": 4917,
      "illing": 4918,
      "melan": 4919,
      "manag": 4920,
      "haz": 4921,
      "haven": 4922,
      "ache": 4923,
      "containing": 4924,
      "conspic": 4925,
      "feather": 4926,
      "neg": 4927,
      "nels": 4928,
      "sio": 4929,
      "perched": 4930,
      "permit": 4931,
      "perceive": 4932,
      "ulpt": 4933,
      "lose": 4934,
      "gover": 4935,
      "div": 4936,
      "dive": 4937,
      "blance": 4938,
      "blade": 4939,
      "blades": 4940,
      "blasted": 4941,
      "ahoy": 4942,
      "plate": 4943,
      "plane": 4944,
      "pliny": 4945,
      "preter": 4946,
      "preach": 4947,
      "uted": 4948,
      "utions": 4949,
      "thence": 4950,
      "exper": 4951,
      "exhi": 4952,
      "expect": 4953,
      "doct": 4954,
      "doors": 4955,
      "akers": 4956,
      "akened": 4957,
      "indic": 4958,
      "worked": 4959,
      "capit": 4960,
      "foreign": 4961,
      "flound": 4962,
      "vide": 4963,
      "colt": 4964,
      "copper": 4965,
      "seeming": 4966,
      "cane": 4967,
      "progress": 4968,
      "wouldn": 4969,
      "handled": 4970,
      "cloud": 4971,
      "blew": 4972,
      "sculpt": 4973,
      "woven": 4974,
      "wherein": 4975,
      "pronoun": 4976,
      "brown": 4977,
      "brute": 4978,
      "intric": 4979,
      "intensity": 4980,
      "spears": 4981,
      "specially": 4982,
      "august": 4983,
      "landish": 4984,
      "steered": 4985,
      "lowly": 4986,
      "stubborn": 4987,
      "desire": 4988,
      "desert": 4989,
      "mayhew": 4990,
      "dismal": 4991,
      "swings": 4992,
      "compared": 4993,
      "estim": 4994,
      "establ": 4995,
      "highest": 4996,
      "hierog": 4997,
      "couldn": 4998,
      "smack": 4999,
      "berg": 5000,
      "seren": 5001,
      "interl": 5002,
      "carpet": 5003,
      "kington": 5004,
      "shel": 5005,
      "sheep": 5006,
      "joke": 5007,
      "applied": 5008,
      "chapters": 5009,
      "marvels": 5010,
      "submerged": 5011,
      "sunk": 5012,
      "winding": 5013,
      "lingly": 5014,
      "lingering": 5015,
      "tells": 5016,
      "closer": 5017,
      "hearty": 5018,
      "helpless": 5019,
      "currents": 5020,
      "pipes": 5021,
      "tomb": 5022,
      "waving": 5023,
      "leviathanic": 5024,
      "bowspr": 5025,
      "burden": 5026,
      "lays": 5027,
      "layer": 5028,
      "laying": 5029,
      "cracked": 5030,
      "huzz": 5031,
      "largely": 5032,
      "plaint": 5033,
      "bulkington": 5034,
      "towed": 5035,
      "shoal": 5036,
      "shoes": 5037,
      "shoals": 5038,
      "mission": 5039,
      "wrong": 5040,
      "seasons": 5041,
      "treated": 5042,
      "keeps": 5043,
      "doubted": 5044,
      "rigged": 5045,
      "pride": 5046,
      "harpooned": 5047,
      "bestowed": 5048,
      "hearth": 5049,
      "sleepy": 5050,
      "colon": 5051,
      "fluid": 5052,
      "elements": 5053,
      "guard": 5054,
      "consideration": 5055,
      "caut": 5056,
      "slipped": 5057,
      "finding": 5058,
      "trace": 5059,
      "grandeur": 5060,
      "paid": 5061,
      "homeward": 5062,
      "needed": 5063,
      "solomon": 5064,
      "concerned": 5065,
      "fallen": 5066,
      "duly": 5067,
      "fearless": 5068,
      "bowsman": 5069,
      "humorous": 5070,
      "swims": 5071,
      "hundreds": 5072,
      "quiver": 5073,
      "sixteen": 5074,
      "snap": 5075,
      "snapped": 5076,
      "particularly": 5077,
      "frost": 5078,
      "archangel": 5079,
      "choly": 5080,
      "equally": 5081,
      "walk": 5082,
      "hopeless": 5083,
      "specim": 5084,
      "observing": 5085,
      "stopped": 5086,
      "masses": 5087,
      "consciously": 5088,
      "evange": 5089,
      "stepped": 5090,
      "sively": 5091,
      "extending": 5092,
      "mistaken": 5093,
      "viciss": 5094,
      "respects": 5095,
      "brains": 5096,
      "belief": 5097,
      "horns": 5098,
      "motionless": 5099,
      "dashing": 5100,
      "gunwales": 5101,
      "learn": 5102,
      "belongs": 5103,
      "belonging": 5104,
      "hammered": 5105,
      "snowy": 5106,
      "storms": 5107,
      "symptom": 5108,
      "musket": 5109,
      "proceeds": 5110,
      "radi": 5111,
      "eventually": 5112,
      "accordingly": 5113,
      "shrouds": 5114,
      "hypo": 5115,
      "infernal": 5116,
      "landsman": 5117,
      "dreams": 5118,
      "insul": 5119,
      "lurked": 5120,
      "undul": 5121,
      "girl": 5122,
      "girls": 5123,
      "schools": 5124,
      "vitality": 5125,
      "dogs": 5126,
      "ensiveness": 5127,
      "shaped": 5128,
      "interesting": 5129,
      "folded": 5130,
      "pitchpo": 5131,
      "eagerly": 5132,
      "eagerness": 5133,
      "measureless": 5134,
      "balls": 5135,
      "lucky": 5136,
      "strove": 5137,
      "knee": 5138,
      "knees": 5139,
      "daily": 5140,
      "panic": 5141,
      "rule": 5142,
      "bubbles": 5143,
      "authority": 5144,
      "rumors": 5145,
      "screwed": 5146,
      "intention": 5147,
      "fields": 5148,
      "described": 5149,
      "operation": 5150,
      "puzz": 5151,
      "squares": 5152,
      "solemnly": 5153,
      "phantoms": 5154,
      "gathered": 5155,
      "witness": 5156,
      "anguish": 5157,
      "physio": 5158,
      "gulf": 5159,
      "assured": 5160,
      "widow": 5161,
      "moonlight": 5162,
      "perpendicularly": 5163,
      "affected": 5164,
      "hatchway": 5165,
      "nett": 5166,
      "issued": 5167,
      "shooting": 5168,
      "weapons": 5169,
      "surrounded": 5170,
      "tattooed": 5171,
      "popularly": 5172,
      "droop": 5173,
      "recorded": 5174,
      "beauty": 5175,
      "beautiful": 5176,
      "philosoph": 5177,
      "diction": 5178,
      "enderby": 5179,
      "mechanically": 5180,
      "conclude": 5181,
      "struction": 5182,
      "script": 5183,
      "historical": 5184,
      "deliberately": 5185,
      "abandoned": 5186,
      "holland": 5187,
      "comparatively": 5188,
      "religion": 5189,
      "securing": 5190,
      "crushed": 5191,
      "quadrant": 5192,
      "spinal": 5193,
      "africa": 5194,
      "vertebrae": 5195,
      "sublime": 5196,
      "traditions": 5197,
      "glittering": 5198,
      "typhoon": 5199,
      "obliquely": 5200,
      "irresist": 5201,
      "canallers": 5202,
      "adequately": 5203,
      "slouched": 5204,
      "zealand": 5205,
      "column": 5206,
      "contrivances": 5207,
      "sneezes": 5208,
      "preliminary": 5209,
      "duodecimo": 5210,
      "draught": 5211,
      "macey": 5212,
      "vishnoo": 5213,
      "thrice": 5214,
      "inscrutable": 5215,
      "manife": 5216,
      "accompanied": 5217,
      "connexion": 5218,
      "intelligence": 5219,
      "bachelor": 5220,
      "joppa": 5221,
      "taffrail": 5222,
      "inasmuch": 5223,
      "heidelburgh": 5224,
      "melancholy": 5225,
      "hieroglyph": 5226,
      "bowsprit": 5227,
      "huzza": 5228,
      ".,": 5229,
      "5th": 5230,
      "bi": 5231,
      "cz": 5232,
      "cad": 5233,
      "cus": 5234,
      "cash": 5235,
      "dent": 5236,
      "dur": 5237,
      "dull": 5238,
      "due": 5239,
      "dled": 5240,
      "eve": 5241,
      "este": 5242,
      "fac": 5243,
      "fum": 5244,
      "fety": 5245,
      "fond": 5246,
      "gif": 5247,
      "gue": 5248,
      "gush": 5249,
      "games": 5250,
      "hen": 5251,
      "hated": 5252,
      "jour": 5253,
      "jug": 5254,
      "ko": 5255,
      "lou": 5256,
      "lor": 5257,
      "lap": 5258,
      "lust": 5259,
      "lace": 5260,
      "lbs": 5261,
      "mow": 5262,
      "mac": 5263,
      "mart": 5264,
      "maz": 5265,
      "ners": 5266,
      "ore": 5267,
      "ots": 5268,
      "osts": 5269,
      "pant": 5270,
      "pace": 5271,
      "pud": 5272,
      "punct": 5273,
      "ras": 5274,
      "rout": 5275,
      "rac": 5276,
      "rubb": 5277,
      "raged": 5278,
      "rude": 5279,
      "ranging": 5280,
      "sour": 5281,
      "sine": 5282,
      "sical": 5283,
      "swore": 5284,
      "ta": 5285,
      "tion": 5286,
      "tip": 5287,
      "tart": 5288,
      "tted": 5289,
      "tough": 5290,
      "vable": 5291,
      "vail": 5292,
      "vult": 5293,
      "wings": 5294,
      "inf": 5295,
      "invo": 5296,
      "insur": 5297,
      "inhal": 5298,
      "inexp": 5299,
      "infidel": 5300,
      "inhabit": 5301,
      "ature": 5302,
      "atically": 5303,
      "repl": 5304,
      "retain": 5305,
      "resur": 5306,
      "reput": 5307,
      "repent": 5308,
      "reality": 5309,
      "stom": 5310,
      "stab": 5311,
      "station": 5312,
      "states": 5313,
      "stories": 5314,
      "alleg": 5315,
      "althy": 5316,
      "altern": 5317,
      "alarmed": 5318,
      "enem": 5319,
      "enjoy": 5320,
      "ander": 5321,
      "toes": 5322,
      "tored": 5323,
      "toler": 5324,
      "assail": 5325,
      "assure": 5326,
      "associ": 5327,
      "asmod": 5328,
      "seal": 5329,
      "sear": 5330,
      "secut": 5331,
      "omni": 5332,
      "beale": 5333,
      "addressed": 5334,
      "ghosts": 5335,
      "allow": 5336,
      "allusions": 5337,
      "lions": 5338,
      "wives": 5339,
      "dey": 5340,
      "develo": 5341,
      "destruction": 5342,
      "veh": 5343,
      "vet": 5344,
      "veil": 5345,
      "irregular": 5346,
      "entan": 5347,
      "entat": 5348,
      "entre": 5349,
      "share": 5350,
      "shop": 5351,
      "shade": 5352,
      "shows": 5353,
      "shaving": 5354,
      "shuttle": 5355,
      "shaggy": 5356,
      "withstanding": 5357,
      "uni": 5358,
      "unhar": 5359,
      "unconscious": 5360,
      "uncommonly": 5361,
      "unconsciously": 5362,
      "absol": 5363,
      "absor": 5364,
      "rian": 5365,
      "river": 5366,
      "mole": 5367,
      "rot": 5368,
      "roar": 5369,
      "rodu": 5370,
      "kest": 5371,
      "suit": 5372,
      "sume": 5373,
      "supre": 5374,
      "sold": 5375,
      "socket": 5376,
      "lla": 5377,
      "quity": 5378,
      "spep": 5379,
      "spire": 5380,
      "spouter": 5381,
      "splice": 5382,
      "spasmod": 5383,
      "oop": 5384,
      "aggreg": 5385,
      "idly": 5386,
      "idents": 5387,
      "eties": 5388,
      "boil": 5389,
      "outside": 5390,
      "outlandish": 5391,
      "yous": 5392,
      "wears": 5393,
      "week": 5394,
      "icted": 5395,
      "frank": 5396,
      "poison": 5397,
      "manu": 5398,
      "oundest": 5399,
      "hailing": 5400,
      "accompany": 5401,
      "confin": 5402,
      "convers": 5403,
      "congenial": 5404,
      "safety": 5405,
      "sister": 5406,
      "perv": 5407,
      "persu": 5408,
      "empl": 5409,
      "ements": 5410,
      "embal": 5411,
      "loved": 5412,
      "artific": 5413,
      "comment": 5414,
      "ctions": 5415,
      "diver": 5416,
      "diving": 5417,
      "digest": 5418,
      "blending": 5419,
      "plates": 5420,
      "prevail": 5421,
      "geo": 5422,
      "expen": 5423,
      "dod": 5424,
      "aks": 5425,
      "trap": 5426,
      "trades": 5427,
      "headlong": 5428,
      "foremast": 5429,
      "flam": 5430,
      "flowing": 5431,
      "flinging": 5432,
      "timber": 5433,
      "cob": 5434,
      "cot": 5435,
      "cost": 5436,
      "coiling": 5437,
      "coloss": 5438,
      "propri": 5439,
      "problem": 5440,
      "herself": 5441,
      "hercul": 5442,
      "creation": 5443,
      "created": 5444,
      "grin": 5445,
      "willing": 5446,
      "cles": 5447,
      "class": 5448,
      "claim": 5449,
      "ublic": 5450,
      "scent": 5451,
      "science": 5452,
      "woof": 5453,
      "vot": 5454,
      "voices": 5455,
      "arsac": 5456,
      "prime": 5457,
      "glances": 5458,
      "bran": 5459,
      "introdu": 5460,
      "liter": 5461,
      "abouts": 5462,
      "cris": 5463,
      "crying": 5464,
      "sidelong": 5465,
      "yourselves": 5466,
      "odor": 5467,
      "steed": 5468,
      "everywhere": 5469,
      "everybody": 5470,
      "lightly": 5471,
      "gnom": 5472,
      "swer": 5473,
      "compare": 5474,
      "awed": 5475,
      "aware": 5476,
      "smitten": 5477,
      "obst": 5478,
      "obtained": 5479,
      "carri": 5480,
      "casual": 5481,
      "poses": 5482,
      "joint": 5483,
      "joyous": 5484,
      "worlds": 5485,
      "holds": 5486,
      "feroc": 5487,
      "marsh": 5488,
      "market": 5489,
      "wonted": 5490,
      "sunday": 5491,
      "dyspep": 5492,
      "surmis": 5493,
      "surrender": 5494,
      "contents": 5495,
      "nible": 5496,
      "iceland": 5497,
      "presents": 5498,
      "highly": 5499,
      "barb": 5500,
      "baron": 5501,
      "barrow": 5502,
      "justice": 5503,
      "purse": 5504,
      "curling": 5505,
      "cheeks": 5506,
      "cheek": 5507,
      "paralle": 5508,
      "attitude": 5509,
      "wait": 5510,
      "slumber": 5511,
      "indefinite": 5512,
      "burnt": 5513,
      "coron": 5514,
      "coral": 5515,
      "correct": 5516,
      "hug": 5517,
      "visited": 5518,
      "ensions": 5519,
      "signal": 5520,
      "minded": 5521,
      "value": 5522,
      "drawers": 5523,
      "tails": 5524,
      "shoe": 5525,
      "shores": 5526,
      "spoutings": 5527,
      "castaway": 5528,
      "hammers": 5529,
      "condition": 5530,
      "tress": 5531,
      "lication": 5532,
      "spectacle": 5533,
      "laden": 5534,
      "warri": 5535,
      "benevol": 5536,
      "prick": 5537,
      "privile": 5538,
      "startled": 5539,
      "rowed": 5540,
      "reasoning": 5541,
      "sleeps": 5542,
      "satur": 5543,
      "logger": 5544,
      "fluke": 5545,
      "profane": 5546,
      "peculiarity": 5547,
      "tablets": 5548,
      "completed": 5549,
      "circumfer": 5550,
      "circumnavig": 5551,
      "maul": 5552,
      "squid": 5553,
      "bottle": 5554,
      "millions": 5555,
      "surely": 5556,
      "caul": 5557,
      "cords": 5558,
      "curiously": 5559,
      "facts": 5560,
      "anticip": 5561,
      "track": 5562,
      "madden": 5563,
      "seams": 5564,
      "furthermore": 5565,
      "advant": 5566,
      "powers": 5567,
      "soliloqu": 5568,
      "avy": 5569,
      "ernal": 5570,
      "malign": 5571,
      "destined": 5572,
      "bottomless": 5573,
      "coffins": 5574,
      "spiracle": 5575,
      "questions": 5576,
      "limit": 5577,
      "contracting": 5578,
      "widely": 5579,
      "sprink": 5580,
      "summon": 5581,
      "fatality": 5582,
      "fifth": 5583,
      "pile": 5584,
      "pivot": 5585,
      "identical": 5586,
      "breakers": 5587,
      "magnetic": 5588,
      "coasts": 5589,
      "dragging": 5590,
      "patched": 5591,
      "conscient": 5592,
      "property": 5593,
      "thickness": 5594,
      "stepping": 5595,
      "personal": 5596,
      "catching": 5597,
      "explo": 5598,
      "animated": 5599,
      "reply": 5600,
      "christians": 5601,
      "blindly": 5602,
      "murderer": 5603,
      "separately": 5604,
      "eighteen": 5605,
      "musk": 5606,
      "pretend": 5607,
      "fisherman": 5608,
      "rupted": 5609,
      "honourable": 5610,
      "eternally": 5611,
      "shrouded": 5612,
      "promise": 5613,
      "thorough": 5614,
      "lurking": 5615,
      "laughed": 5616,
      "innermost": 5617,
      "bolted": 5618,
      "anchors": 5619,
      "decided": 5620,
      "welcome": 5621,
      "frenchman": 5622,
      "incred": 5623,
      "increased": 5624,
      "necessity": 5625,
      "figures": 5626,
      "nails": 5627,
      "buoyant": 5628,
      "probable": 5629,
      "possessed": 5630,
      "banks": 5631,
      "hempen": 5632,
      "supply": 5633,
      "funny": 5634,
      "mothers": 5635,
      "transfer": 5636,
      "breaths": 5637,
      "stretch": 5638,
      "stretching": 5639,
      "182": 5640,
      "coolly": 5641,
      "agony": 5642,
      "straining": 5643,
      "doubloons": 5644,
      "feeder": 5645,
      "porpoises": 5646,
      "faithful": 5647,
      "kneel": 5648,
      "bunch": 5649,
      "intellect": 5650,
      "candle": 5651,
      "jerking": 5652,
      "immediate": 5653,
      "bubble": 5654,
      "polished": 5655,
      "knocking": 5656,
      "reckoning": 5657,
      "ribbed": 5658,
      "grasping": 5659,
      "description": 5660,
      "wilful": 5661,
      "stayed": 5662,
      "spike": 5663,
      "surprising": 5664,
      "employ": 5665,
      "hooded": 5666,
      "ascending": 5667,
      "shivering": 5668,
      "dividing": 5669,
      "paper": 5670,
      "delicate": 5671,
      "delicacy": 5672,
      "strictly": 5673,
      "earnestly": 5674,
      "labor": 5675,
      "loudly": 5676,
      "yarman": 5677,
      "whirl": 5678,
      "whirling": 5679,
      "adventure": 5680,
      "indifference": 5681,
      "counterpane": 5682,
      "europe": 5683,
      "influences": 5684,
      "requires": 5685,
      "study": 5686,
      "calculated": 5687,
      "equatorial": 5688,
      "flip": 5689,
      "romantic": 5690,
      "dolph": 5691,
      "cooper": 5692,
      "inquir": 5693,
      "charts": 5694,
      "consequence": 5695,
      "investig": 5696,
      "splintered": 5697,
      "177": 5698,
      "pillow": 5699,
      "title": 5700,
      "suspected": 5701,
      "mechanical": 5702,
      "blazing": 5703,
      "structed": 5704,
      "drugged": 5705,
      "majestic": 5706,
      "extraordinary": 5707,
      "structure": 5708,
      "collected": 5709,
      "incidentally": 5710,
      "furious": 5711,
      "egyptian": 5712,
      "garden": 5713,
      "existence": 5714,
      "induce": 5715,
      "corresponding": 5716,
      "waning": 5717,
      "threads": 5718,
      "energy": 5719,
      "argument": 5720,
      "bump": 5721,
      "likeness": 5722,
      "trumpet": 5723,
      "prudent": 5724,
      "discernible": 5725,
      "distinguished": 5726,
      "ninety": 5727,
      "sanct": 5728,
      "verdure": 5729,
      "accomplished": 5730,
      "hereditary": 5731,
      "java": 5732,
      "representing": 5733,
      "ultimate": 5734,
      "execut": 5735,
      "technically": 5736,
      "flanks": 5737,
      "strangers": 5738,
      "competent": 5739,
      "phrenolog": 5740,
      "glistening": 5741,
      "vigilance": 5742,
      "diligently": 5743,
      "ceremon": 5744,
      "uvian": 5745,
      "woollen": 5746,
      "immemorial": 5747,
      "nostrils": 5748,
      "commenced": 5749,
      "dollars": 5750,
      "steersman": 5751,
      "heavily": 5752,
      "bishop": 5753,
      "pause": 5754,
      "tarshish": 5755,
      "york": 5756,
      "annihil": 5757,
      "conspicuous": 5758,
      "vicissitudes": 5759,
      "physiognom": 5760,
      "drooping": 5761,
      "czar": 5762,
      "inexplicable": 5763,
      "replen": 5764,
      "resurrect": 5765,
      "stomach": 5766,
      "shavings": 5767,
      "absolute": 5768,
      "colossal": 5769,
      "privilege": 5770,
      "\";": 5771,
      "11": 5772,
      ";\"": 5773,
      "aved": 5774,
      "awhile": 5775,
      "bin": 5776,
      "boun": 5777,
      "bath": 5778,
      "bbed": 5779,
      "cof": 5780,
      "cit": 5781,
      "cil": 5782,
      "cart": 5783,
      "cure": 5784,
      "caw": 5785,
      "cently": 5786,
      "cave": 5787,
      "din": 5788,
      "dar": 5789,
      "dor": 5790,
      "dif": 5791,
      "dance": 5792,
      "daugh": 5793,
      "domin": 5794,
      "emotions": 5795,
      "fug": 5796,
      "fates": 5797,
      "gur": 5798,
      "hangs": 5799,
      "iate": 5800,
      "ials": 5801,
      "iety": 5802,
      "iences": 5803,
      "jac": 5804,
      "jung": 5805,
      "kins": 5806,
      "lers": 5807,
      "leness": 5808,
      "map": 5809,
      "mess": 5810,
      "mpt": 5811,
      "mber": 5812,
      "mund": 5813,
      "macy": 5814,
      "nomin": 5815,
      "odi": 5816,
      "pun": 5817,
      "pere": 5818,
      "pable": 5819,
      "parm": 5820,
      "public": 5821,
      "rat": 5822,
      "rand": 5823,
      "rul": 5824,
      "ratt": 5825,
      "rase": 5826,
      "rays": 5827,
      "sap": 5828,
      "scan": 5829,
      "sally": 5830,
      "sons": 5831,
      "situ": 5832,
      "scept": 5833,
      "tone": 5834,
      "tant": 5835,
      "tame": 5836,
      "tace": 5837,
      "tides": 5838,
      "tti": 5839,
      "useless": 5840,
      "vind": 5841,
      "vary": 5842,
      "wra": 5843,
      "wail": 5844,
      "waking": 5845,
      "wrest": 5846,
      "wrenched": 5847,
      "xes": 5848,
      "thest": 5849,
      "inex": 5850,
      "inte": 5851,
      "inction": 5852,
      "inverted": 5853,
      "anom": 5854,
      "anity": 5855,
      "analo": 5856,
      "attr": 5857,
      "ators": 5858,
      "revi": 5859,
      "reser": 5860,
      "recall": 5861,
      "recalled": 5862,
      "recover": 5863,
      "reti": 5864,
      "refu": 5865,
      "resumed": 5866,
      "reliable": 5867,
      "ony": 5868,
      "onset": 5869,
      "stum": 5870,
      "stones": 5871,
      "stays": 5872,
      "staff": 5873,
      "eddy": 5874,
      "ouch": 5875,
      "alab": 5876,
      "altar": 5877,
      "ena": 5878,
      "enomen": 5879,
      "encies": 5880,
      "enraged": 5881,
      "isk": 5882,
      "arian": 5883,
      "tobac": 5884,
      "asp": 5885,
      "asle": 5886,
      "assist": 5887,
      "itement": 5888,
      "sele": 5889,
      "sets": 5890,
      "semi": 5891,
      "hee": 5892,
      "owen": 5893,
      "chi": 5894,
      "chas": 5895,
      "betr": 5896,
      "beheaded": 5897,
      "betoken": 5898,
      "illi": 5899,
      "ilight": 5900,
      "adri": 5901,
      "admon": 5902,
      "adie": 5903,
      "adoes": 5904,
      "advice": 5905,
      "immin": 5906,
      "iments": 5907,
      "impregn": 5908,
      "build": 5909,
      "allies": 5910,
      "allowed": 5911,
      "alluded": 5912,
      "lier": 5913,
      "wight": 5914,
      "ceiling": 5915,
      "cetace": 5916,
      "forged": 5917,
      "forked": 5918,
      "forbear": 5919,
      "deed": 5920,
      "demo": 5921,
      "deaf": 5922,
      "devo": 5923,
      "decent": 5924,
      "depress": 5925,
      "veins": 5926,
      "entimes": 5927,
      "shun": 5928,
      "shown": 5929,
      "shred": 5930,
      "shakes": 5931,
      "shades": 5932,
      "shattered": 5933,
      "withdrawn": 5934,
      "unto": 5935,
      "unite": 5936,
      "unimagin": 5937,
      "unnecessary": 5938,
      "unwarrant": 5939,
      "abated": 5940,
      "abhor": 5941,
      "abomin": 5942,
      "abroad": 5943,
      "ripe": 5944,
      "riot": 5945,
      "mogul": 5946,
      "appointed": 5947,
      "robust": 5948,
      "kets": 5949,
      "suck": 5950,
      "sumat": 5951,
      "sult": 5952,
      "sucking": 5953,
      "solic": 5954,
      "llation": 5955,
      "quill": 5956,
      "quitting": 5957,
      "spending": 5958,
      "spires": 5959,
      "oose": 5960,
      "agre": 5961,
      "boli": 5962,
      "aster": 5963,
      "notwithstanding": 5964,
      "upward": 5965,
      "uprising": 5966,
      "weed": 5967,
      "weaver": 5968,
      "fru": 5969,
      "polit": 5970,
      "poten": 5971,
      "poster": 5972,
      "popul": 5973,
      "illust": 5974,
      "meals": 5975,
      "manill": 5976,
      "hath": 5977,
      "haught": 5978,
      "aco": 5979,
      "acles": 5980,
      "accur": 5981,
      "accustom": 5982,
      "acceler": 5983,
      "contains": 5984,
      "condem": 5985,
      "consumed": 5986,
      "fever": 5987,
      "fears": 5988,
      "femin": 5989,
      "nel": 5990,
      "saved": 5991,
      "therein": 5992,
      "ipel": 5993,
      "ante": 5994,
      "antial": 5995,
      "sists": 5996,
      "whist": 5997,
      "perman": 5998,
      "perished": 5999,
      "persian": 6000,
      "pear": 6001,
      "ulate": 6002,
      "emin": 6003,
      "raz": 6004,
      "raising": 6005,
      "raises": 6006,
      "yelled": 6007,
      "cts": 6008,
      "owner": 6009,
      "owned": 6010,
      "divers": 6011,
      "district": 6012,
      "foes": 6013,
      "usages": 6014,
      "usants": 6015,
      "bler": 6016,
      "blown": 6017,
      "blowing": 6018,
      "shipping": 6019,
      "plant": 6020,
      "plings": 6021,
      "plague": 6022,
      "preser": 6023,
      "uttering": 6024,
      "derive": 6025,
      "exhal": 6026,
      "akin": 6027,
      "overhead": 6028,
      "tram": 6029,
      "trust": 6030,
      "elab": 6031,
      "ums": 6032,
      "header": 6033,
      "urely": 6034,
      "tears": 6035,
      "inevit": 6036,
      "flitting": 6037,
      "strand": 6038,
      "cop": 6039,
      "cope": 6040,
      "copy": 6041,
      "cannon": 6042,
      "prov": 6043,
      "proced": 6044,
      "proverb": 6045,
      "hero": 6046,
      "longitude": 6047,
      "hob": 6048,
      "hogs": 6049,
      "grate": 6050,
      "gracious": 6051,
      "handspikes": 6052,
      "clen": 6053,
      "clay": 6054,
      "scud": 6055,
      "seeks": 6056,
      "wol": 6057,
      "hereabouts": 6058,
      "assert": 6059,
      "wherever": 6060,
      "pry": 6061,
      "prise": 6062,
      "prince": 6063,
      "glanced": 6064,
      "inking": 6065,
      "opport": 6066,
      "brand": 6067,
      "brush": 6068,
      "braces": 6069,
      "brilli": 6070,
      "knowest": 6071,
      "intrep": 6072,
      "speck": 6073,
      "achie": 6074,
      "greatly": 6075,
      "aux": 6076,
      "cran": 6077,
      "fibre": 6078,
      "landlady": 6079,
      "istical": 6080,
      "odds": 6081,
      "steam": 6082,
      "standers": 6083,
      "desist": 6084,
      "?\"--": 6085,
      "dismast": 6086,
      "disput": 6087,
      "display": 6088,
      "swing": 6089,
      "swarm": 6090,
      "ucked": 6091,
      "rights": 6092,
      "mightiest": 6093,
      "ashing": 6094,
      "staring": 6095,
      "drab": 6096,
      "smiting": 6097,
      "denomin": 6098,
      "interrupted": 6099,
      "carving": 6100,
      "carcase": 6101,
      "phrase": 6102,
      "phenomen": 6103,
      "jot": 6104,
      "sentiment": 6105,
      "godly": 6106,
      "appet": 6107,
      "application": 6108,
      "merid": 6109,
      "marching": 6110,
      "margin": 6111,
      "brew": 6112,
      "breed": 6113,
      "substit": 6114,
      "sunlight": 6115,
      "sunken": 6116,
      "sunda": 6117,
      "siding": 6118,
      "contempt": 6119,
      "contempl": 6120,
      "brood": 6121,
      "skil": 6122,
      "newly": 6123,
      "finished": 6124,
      "boarded": 6125,
      "jewell": 6126,
      "supplement": 6127,
      "azure": 6128,
      "circular": 6129,
      "barn": 6130,
      "barbed": 6131,
      "purple": 6132,
      "curse": 6133,
      "curled": 6134,
      "chet": 6135,
      "parlor": 6136,
      "begone": 6137,
      "generations": 6138,
      "bowing": 6139,
      "ffs": 6140,
      "fasten": 6141,
      "rung": 6142,
      "slender": 6143,
      "oftentimes": 6144,
      "burned": 6145,
      "ideas": 6146,
      "corpo": 6147,
      "feelings": 6148,
      "cabaco": 6149,
      "darker": 6150,
      "spouted": 6151,
      "casting": 6152,
      "dreary": 6153,
      "miser": 6154,
      "wrought": 6155,
      "treat": 6156,
      "treas": 6157,
      "licated": 6158,
      "silvery": 6159,
      "doubts": 6160,
      "soundings": 6161,
      "persons": 6162,
      "mouthed": 6163,
      "bestir": 6164,
      "hatchet": 6165,
      "killer": 6166,
      "killing": 6167,
      "commanders": 6168,
      "pitching": 6169,
      "deeply": 6170,
      "collect": 6171,
      "beside": 6172,
      "empire": 6173,
      "profund": 6174,
      "earthqu": 6175,
      "peculiarly": 6176,
      "appearing": 6177,
      "covering": 6178,
      "drops": 6179,
      "complexion": 6180,
      "courses": 6181,
      "maid": 6182,
      "mathem": 6183,
      "mouthful": 6184,
      "guine": 6185,
      "military": 6186,
      "considerations": 6187,
      "heavenly": 6188,
      "continent": 6189,
      "insanity": 6190,
      "stole": 6191,
      "travel": 6192,
      "tales": 6193,
      "talking": 6194,
      "finest": 6195,
      "rooms": 6196,
      "cruis": 6197,
      "biting": 6198,
      "cooked": 6199,
      "avail": 6200,
      "impet": 6201,
      "directed": 6202,
      "crip": 6203,
      "salted": 6204,
      "paint": 6205,
      "painting": 6206,
      "bald": 6207,
      "spiral": 6208,
      "battering": 6209,
      "hindoo": 6210,
      "limb": 6211,
      "contrad": 6212,
      "numbers": 6213,
      "groo": 6214,
      "globu": 6215,
      "launched": 6216,
      "membr": 6217,
      "archipel": 6218,
      "chocks": 6219,
      "magnet": 6220,
      "americans": 6221,
      "damned": 6222,
      "playing": 6223,
      "helmet": 6224,
      "walked": 6225,
      "transport": 6226,
      "hurled": 6227,
      "dragon": 6228,
      "patient": 6229,
      "patagon": 6230,
      "agoes": 6231,
      "swiftness": 6232,
      "boundless": 6233,
      "mile": 6234,
      "steps": 6235,
      "ridge": 6236,
      "browne": 6237,
      "personally": 6238,
      "cattle": 6239,
      "vices": 6240,
      "respective": 6241,
      "removing": 6242,
      "believed": 6243,
      "expan": 6244,
      "fabul": 6245,
      "repair": 6246,
      "encountering": 6247,
      "learning": 6248,
      "blinding": 6249,
      "murdered": 6250,
      "separated": 6251,
      "solely": 6252,
      "symmet": 6253,
      "proceeded": 6254,
      "crowding": 6255,
      "ordinate": 6256,
      "eternity": 6257,
      "vainly": 6258,
      "secrets": 6259,
      "bidden": 6260,
      "twin": 6261,
      "twain": 6262,
      "twine": 6263,
      "twilight": 6264,
      "heedful": 6265,
      "promised": 6266,
      "promont": 6267,
      "dreaming": 6268,
      "frightened": 6269,
      "insuffer": 6270,
      "involve": 6271,
      "lurk": 6272,
      "pagans": 6273,
      "churning": 6274,
      "churches": 6275,
      "girth": 6276,
      "reveries": 6277,
      "whiskers": 6278,
      "violence": 6279,
      "skulls": 6280,
      "swelled": 6281,
      "importance": 6282,
      "bride": 6283,
      "tumbled": 6284,
      "related": 6285,
      "folds": 6286,
      "probability": 6287,
      "frequented": 6288,
      "sorry": 6289,
      "sorrow": 6290,
      "heightened": 6291,
      "pushing": 6292,
      "wedding": 6293,
      "wedded": 6294,
      "scrat": 6295,
      "subjects": 6296,
      "183": 6297,
      "approach": 6298,
      "iffs": 6299,
      "dreadful": 6300,
      "ostentat": 6301,
      "opposing": 6302,
      "companies": 6303,
      "tapers": 6304,
      "remembered": 6305,
      "leaky": 6306,
      "significance": 6307,
      "successful": 6308,
      "relief": 6309,
      "presence": 6310,
      "pressive": 6311,
      "worshipping": 6312,
      "dumplings": 6313,
      "knocked": 6314,
      "recklessly": 6315,
      "peaceful": 6316,
      "affairs": 6317,
      "grasped": 6318,
      "prayers": 6319,
      "cowards": 6320,
      "honey": 6321,
      "wilder": 6322,
      "apartment": 6323,
      "hovered": 6324,
      "reeled": 6325,
      "shivered": 6326,
      "scorched": 6327,
      "comparison": 6328,
      "consciousness": 6329,
      "superiority": 6330,
      "garn": 6331,
      "massa": 6332,
      "obeying": 6333,
      "sagacious": 6334,
      "tube": 6335,
      "village": 6336,
      "excitement": 6337,
      "produced": 6338,
      "producing": 6339,
      "breathing": 6340,
      "breathes": 6341,
      "corpusants": 6342,
      "schoolmaster": 6343,
      "lucif": 6344,
      "resemblance": 6345,
      "assuming": 6346,
      "adventures": 6347,
      "universe": 6348,
      "sticking": 6349,
      "plunging": 6350,
      "prairies": 6351,
      "swaying": 6352,
      "accidents": 6353,
      "preceding": 6354,
      "fiercely": 6355,
      "tattooing": 6356,
      "axis": 6357,
      "nineveh": 6358,
      "shrieks": 6359,
      "vibrating": 6360,
      "credit": 6361,
      "announced": 6362,
      "couple": 6363,
      "bearded": 6364,
      "amazing": 6365,
      "amazement": 6366,
      "conclusion": 6367,
      "extracts": 6368,
      "exhausted": 6369,
      "scrape": 6370,
      "sleepers": 6371,
      "majesty": 6372,
      "crawl": 6373,
      "crawling": 6374,
      "pallor": 6375,
      "pallid": 6376,
      "invited": 6377,
      "hospitable": 6378,
      "harmless": 6379,
      "slackened": 6380,
      "furiously": 6381,
      "links": 6382,
      "refuse": 6383,
      "resuming": 6384,
      "isolated": 6385,
      "astonishment": 6386,
      "wrists": 6387,
      "innocent": 6388,
      "reflection": 6389,
      "stooping": 6390,
      "beams": 6391,
      "devout": 6392,
      "keepers": 6393,
      "fragrant": 6394,
      "emperor": 6395,
      "scales": 6396,
      "crimin": 6397,
      "frigate": 6398,
      "lounging": 6399,
      "masonry": 6400,
      "reigned": 6401,
      "determined": 6402,
      "dexterous": 6403,
      "meadow": 6404,
      "speechless": 6405,
      "turkish": 6406,
      "passenger": 6407,
      "skirts": 6408,
      "professional": 6409,
      "tahiti": 6410,
      "brawny": 6411,
      "language": 6412,
      "neighbor": 6413,
      "affrighted": 6414,
      "audacious": 6415,
      "heathenish": 6416,
      "subterranean": 6417,
      "jeopardy": 6418,
      "treacherous": 6419,
      "steadfastly": 6420,
      "diminished": 6421,
      "engravings": 6422,
      "exasperated": 6423,
      "pistol": 6424,
      "screaming": 6425,
      "indolent": 6426,
      "entrance": 6427,
      "perfectly": 6428,
      "commerce": 6429,
      "fossil": 6430,
      "awaiting": 6431,
      "portentous": 6432,
      "slippery": 6433,
      "confidence": 6434,
      "bouton": 6435,
      "gangway": 6436,
      "schoon": 6437,
      "tables": 6438,
      "deepest": 6439,
      "management": 6440,
      "preternatural": 6441,
      "serenity": 6442,
      "plaintiffs": 6443,
      "symptoms": 6444,
      "pitchpoling": 6445,
      "esteem": 6446,
      "louis": 6447,
      "pudding": 6448,
      "rascal": 6449,
      "rachel": 6450,
      "source": 6451,
      "entreat": 6452,
      "pervading": 6453,
      "embalmed": 6454,
      "artificial": 6455,
      "hercules": 6456,
      "introduced": 6457,
      "swerve": 6458,
      "parallel": 6459,
      "coronation": 6460,
      "loggerhead": 6461,
      "circumference": 6462,
      "advantage": 6463,
      "conscientious": 6464,
      "resurrection": 6465,
      "coffee": 6466,
      "diffic": 6467,
      "fugitive": 6468,
      "perempt": 6469,
      "vindict": 6470,
      "varying": 6471,
      "wrath": 6472,
      "retired": 6473,
      "refuge": 6474,
      "alabama": 6475,
      "tobacco": 6476,
      "asleep": 6477,
      "betrayed": 6478,
      "adrift": 6479,
      "adieu": 6480,
      "democr": 6481,
      "shreds": 6482,
      "sumatra": 6483,
      "accustomed": 6484,
      "fibres": 6485,
      "archipelagoes": 6486,
      "insufferable": 6487,
      "27": 6488,
      "aust": 6489,
      "athed": 6490,
      "bb": 6491,
      "bli": 6492,
      "bend": 6493,
      "bite": 6494,
      "bility": 6495,
      "cin": 6496,
      "cid": 6497,
      "cist": 6498,
      "censu": 6499,
      "dings": 6500,
      "dents": 6501,
      "diff": 6502,
      "dazz": 6503,
      "eag": 6504,
      "eous": 6505,
      "eus": 6506,
      "eff": 6507,
      "eked": 6508,
      "echo": 6509,
      "emotion": 6510,
      "fid": 6511,
      "fable": 6512,
      "facing": 6513,
      "faced": 6514,
      "faded": 6515,
      "gap": 6516,
      "gies": 6517,
      "gaff": 6518,
      "hs": 6519,
      "hay": 6520,
      "hush": 6521,
      "iable": 6522,
      "iatic": 6523,
      "iency": 6524,
      "jing": 6525,
      "junk": 6526,
      "junct": 6527,
      "jib": 6528,
      "kn": 6529,
      "kine": 6530,
      "lain": 6531,
      "lorn": 6532,
      "lav": 6533,
      "langs": 6534,
      "mic": 6535,
      "maker": 6536,
      "nip": 6537,
      "nour": 6538,
      "nons": 6539,
      "navy": 6540,
      "ois": 6541,
      "obl": 6542,
      "oaken": 6543,
      "ores": 6544,
      "ology": 6545,
      "pas": 6546,
      "pom": 6547,
      "poo": 6548,
      "pid": 6549,
      "pup": 6550,
      "pard": 6551,
      "pher": 6552,
      "pting": 6553,
      "plight": 6554,
      "paw": 6555,
      "pans": 6556,
      "psal": 6557,
      "poured": 6558,
      "rin": 6559,
      "ray": 6560,
      "rome": 6561,
      "rally": 6562,
      "ration": 6563,
      "rough": 6564,
      "rud": 6565,
      "rating": 6566,
      "sof": 6567,
      "sits": 6568,
      "serm": 6569,
      "sallied": 6570,
      "tas": 6571,
      "tent": 6572,
      "tel": 6573,
      "tread": 6574,
      "tles": 6575,
      "tones": 6576,
      "tically": 6577,
      "text": 6578,
      "uf": 6579,
      "vag": 6580,
      "wis": 6581,
      "wter": 6582,
      "wast": 6583,
      "wrig": 6584,
      "wasted": 6585,
      "xy": 6586,
      "zone": 6587,
      "zber": 6588,
      "zodi": 6589,
      "thum": 6590,
      "thump": 6591,
      "thedr": 6592,
      "theory": 6593,
      "intim": 6594,
      "inward": 6595,
      "incor": 6596,
      "ancho": 6597,
      "erc": 6598,
      "eral": 6599,
      "erie": 6600,
      "atory": 6601,
      "atical": 6602,
      "ress": 6603,
      "rearing": 6604,
      "remonstr": 6605,
      "recently": 6606,
      "stack": 6607,
      "stately": 6608,
      "stained": 6609,
      "stamped": 6610,
      "alous": 6611,
      "enlight": 6612,
      "enjo": 6613,
      "ensive": 6614,
      "arom": 6615,
      "arus": 6616,
      "aright": 6617,
      "arrow": 6618,
      "argu": 6619,
      "orus": 6620,
      "orph": 6621,
      "orily": 6622,
      "toman": 6623,
      "toiled": 6624,
      "whim": 6625,
      "assumed": 6626,
      "asia": 6627,
      "asiatic": 6628,
      "iture": 6629,
      "itted": 6630,
      "select": 6631,
      "leis": 6632,
      "lebr": 6633,
      "leaps": 6634,
      "lexic": 6635,
      "heaps": 6636,
      "healthy": 6637,
      "omb": 6638,
      "omy": 6639,
      "lydon": 6640,
      "chain": 6641,
      "chace": 6642,
      "charmed": 6643,
      "choose": 6644,
      "chorus": 6645,
      "belt": 6646,
      "befell": 6647,
      "iles": 6648,
      "ilty": 6649,
      "ilian": 6650,
      "ador": 6651,
      "adop": 6652,
      "adise": 6653,
      "adays": 6654,
      "impart": 6655,
      "hissed": 6656,
      "allusion": 6657,
      "liard": 6658,
      "lical": 6659,
      "lighter": 6660,
      "vere": 6661,
      "nowhere": 6662,
      "celest": 6663,
      "celebr": 6664,
      "forwards": 6665,
      "forbade": 6666,
      "forlorn": 6667,
      "degre": 6668,
      "demi": 6669,
      "deacon": 6670,
      "veted": 6671,
      "enters": 6672,
      "entially": 6673,
      "shed": 6674,
      "shab": 6675,
      "shire": 6676,
      "showing": 6677,
      "shazz": 6678,
      "unex": 6679,
      "unts": 6680,
      "uncond": 6681,
      "unfathom": 6682,
      "unusually": 6683,
      "unconqu": 6684,
      "unwonted": 6685,
      "abash": 6686,
      "aboriginal": 6687,
      "butt": 6688,
      "butch": 6689,
      "butts": 6690,
      "rial": 6691,
      "rical": 6692,
      "riveted": 6693,
      "amput": 6694,
      "mob": 6695,
      "movable": 6696,
      "roof": 6697,
      "robe": 6698,
      "robes": 6699,
      "rocked": 6700,
      "roses": 6701,
      "rooted": 6702,
      "wasn": 6703,
      "sore": 6704,
      "soap": 6705,
      "sovere": 6706,
      "erected": 6707,
      "spain": 6708,
      "spaces": 6709,
      "sprung": 6710,
      "ags": 6711,
      "agree": 6712,
      "agged": 6713,
      "iding": 6714,
      "idity": 6715,
      "idiot": 6716,
      "etian": 6717,
      "etime": 6718,
      "boast": 6719,
      "outrage": 6720,
      "web": 6721,
      "weak": 6722,
      "wealth": 6723,
      "icir": 6724,
      "iculous": 6725,
      "fry": 6726,
      "frame": 6727,
      "france": 6728,
      "frau": 6729,
      "pod": 6730,
      "poly": 6731,
      "poet": 6732,
      "polic": 6733,
      "illes": 6734,
      "nowadays": 6735,
      "urous": 6736,
      "hav": 6737,
      "accum": 6738,
      "access": 6739,
      "contain": 6740,
      "concre": 6741,
      "consort": 6742,
      "constit": 6743,
      "contained": 6744,
      "confounded": 6745,
      "consists": 6746,
      "fected": 6747,
      "festo": 6748,
      "neared": 6749,
      "saith": 6750,
      "antarctic": 6751,
      "sia": 6752,
      "sigh": 6753,
      "siam": 6754,
      "sible": 6755,
      "perish": 6756,
      "pertaining": 6757,
      "percept": 6758,
      "pel": 6759,
      "peel": 6760,
      "pewter": 6761,
      "ulty": 6762,
      "ulged": 6763,
      "loath": 6764,
      "local": 6765,
      "somebody": 6766,
      "arts": 6767,
      "goin": 6768,
      "goble": 6769,
      "comical": 6770,
      "cting": 6771,
      "divide": 6772,
      "fol": 6773,
      "bland": 6774,
      "blended": 6775,
      "blasp": 6776,
      "pla": 6777,
      "plug": 6778,
      "whatsoever": 6779,
      "queens": 6780,
      "predest": 6781,
      "preserved": 6782,
      "preserve": 6783,
      "exposed": 6784,
      "exert": 6785,
      "docks": 6786,
      "doze": 6787,
      "dotted": 6788,
      "whoever": 6789,
      "train": 6790,
      "trag": 6791,
      "trance": 6792,
      "traged": 6793,
      "endants": 6794,
      "worm": 6795,
      "caps": 6796,
      "capric": 6797,
      "forebo": 6798,
      "forests": 6799,
      "tea": 6800,
      "afar": 6801,
      "affect": 6802,
      "ineer": 6803,
      "flowed": 6804,
      "flavor": 6805,
      "vies": 6806,
      "viating": 6807,
      "timbers": 6808,
      "venetian": 6809,
      "coco": 6810,
      "coach": 6811,
      "coals": 6812,
      "cosy": 6813,
      "colog": 6814,
      "coins": 6815,
      "protr": 6816,
      "herring": 6817,
      "heroes": 6818,
      "hoof": 6819,
      "hosea": 6820,
      "crescent": 6821,
      "gram": 6822,
      "grant": 6823,
      "gramp": 6824,
      "handker": 6825,
      "howled": 6826,
      "club": 6827,
      "climes": 6828,
      "classi": 6829,
      "downright": 6830,
      "scold": 6831,
      "watched": 6832,
      "volit": 6833,
      "reef": 6834,
      "parties": 6835,
      "whereupon": 6836,
      "prison": 6837,
      "prints": 6838,
      "glim": 6839,
      "glorious": 6840,
      "timely": 6841,
      "bru": 6842,
      "harris": 6843,
      "harvest": 6844,
      "harbors": 6845,
      "augment": 6846,
      "fix": 6847,
      "fiends": 6848,
      ",\"--": 6849,
      "ister": 6850,
      "istics": 6851,
      "fishes": 6852,
      "turban": 6853,
      "rounded": 6854,
      "dismay": 6855,
      "dischar": 6856,
      "disordered": 6857,
      "swart": 6858,
      "compact": 6859,
      "complicated": 6860,
      "matical": 6861,
      "maternal": 6862,
      "pedro": 6863,
      "pedest": 6864,
      "reader": 6865,
      "readiness": 6866,
      "legend": 6867,
      "buckets": 6868,
      "drom": 6869,
      "dram": 6870,
      "goodness": 6871,
      "backwards": 6872,
      "smile": 6873,
      "counsel": 6874,
      "series": 6875,
      "interven": 6876,
      "interrupt": 6877,
      "internal": 6878,
      "chaps": 6879,
      "fts": 6880,
      "phren": 6881,
      "sheath": 6882,
      "joints": 6883,
      "march": 6884,
      "marling": 6885,
      "marchant": 6886,
      "ieth": 6887,
      "subsided": 6888,
      "sunny": 6889,
      "windows": 6890,
      "surf": 6891,
      "surve": 6892,
      "surpass": 6893,
      "lingered": 6894,
      "skrim": 6895,
      "bedfellow": 6896,
      "medic": 6897,
      "nice": 6898,
      "rent": 6899,
      "strikes": 6900,
      "boarding": 6901,
      "cedar": 6902,
      "iceberg": 6903,
      "portra": 6904,
      "portents": 6905,
      "ottoman": 6906,
      "earlier": 6907,
      "supposing": 6908,
      "circul": 6909,
      "helping": 6910,
      "barren": 6911,
      "barrel": 6912,
      "furthest": 6913,
      "voyag": 6914,
      "curses": 6915,
      "cheering": 6916,
      "chewed": 6917,
      "parce": 6918,
      "paradise": 6919,
      "calves": 6920,
      "momentous": 6921,
      "clearing": 6922,
      "cleared": 6923,
      "waved": 6924,
      "begun": 6925,
      "generous": 6926,
      "wheels": 6927,
      "maketh": 6928,
      "slabs": 6929,
      "region": 6930,
      "venture": 6931,
      "india": 6932,
      "indign": 6933,
      "corro": 6934,
      "cracks": 6935,
      "anew": 6936,
      "instantaneous": 6937,
      "shallow": 6938,
      "headsmen": 6939,
      "formation": 6940,
      "sweat": 6941,
      "swears": 6942,
      "swearing": 6943,
      "midway": 6944,
      "topmost": 6945,
      "frederick": 6946,
      "mincer": 6947,
      "miss": 6948,
      "misgiving": 6949,
      "miscell": 6950,
      "rested": 6951,
      "writ": 6952,
      "write": 6953,
      "licity": 6954,
      "silly": 6955,
      "excepting": 6956,
      "maintain": 6957,
      "maintained": 6958,
      "possibility": 6959,
      "commanding": 6960,
      "linna": 6961,
      "smote": 6962,
      "smoked": 6963,
      "profit": 6964,
      "profile": 6965,
      "profoundest": 6966,
      "oftener": 6967,
      "savory": 6968,
      "guilty": 6969,
      "agger": 6970,
      "cavity": 6971,
      "cathedr": 6972,
      "namely": 6973,
      "slipping": 6974,
      "continue": 6975,
      "continuous": 6976,
      "tries": 6977,
      "trick": 6978,
      "triangular": 6979,
      "factured": 6980,
      "thirds": 6981,
      "latin": 6982,
      "lative": 6983,
      "talked": 6984,
      "advances": 6985,
      "goney": 6986,
      "impen": 6987,
      "impul": 6988,
      "quarters": 6989,
      "straightened": 6990,
      "males": 6991,
      "salut": 6992,
      "salvation": 6993,
      "tierce": 6994,
      "humming": 6995,
      "kindred": 6996,
      "severe": 6997,
      "limber": 6998,
      "quired": 6999,
      "viewed": 7000,
      "mute": 7001,
      "mutual": 7002,
      "snort": 7003,
      "groan": 7004,
      "groves": 7005,
      "pencil": 7006,
      "islanders": 7007,
      "archy": 7008,
      "archite": 7009,
      "strongest": 7010,
      "englishman": 7011,
      "identity": 7012,
      "carpenters": 7013,
      "choice": 7014,
      "breaks": 7015,
      "magnanim": 7016,
      "useful": 7017,
      "walks": 7018,
      "tranque": 7019,
      "tranquo": 7020,
      "observ": 7021,
      "observation": 7022,
      "skew": 7023,
      "gallows": 7024,
      "gallons": 7025,
      "thickly": 7026,
      "pursuing": 7027,
      "pursuers": 7028,
      "filling": 7029,
      "jackets": 7030,
      "lifetime": 7031,
      "ridiculous": 7032,
      "extent": 7033,
      "extended": 7034,
      "official": 7035,
      "palm": 7036,
      "invests": 7037,
      "fixedly": 7038,
      "remove": 7039,
      "ontally": 7040,
      "expanded": 7041,
      "mildness": 7042,
      "wrecks": 7043,
      "animals": 7044,
      "furniture": 7045,
      "regarding": 7046,
      "aspects": 7047,
      "springing": 7048,
      "christmas": 7049,
      "depend": 7050,
      "shower": 7051,
      "towns": 7052,
      "murderers": 7053,
      "horizontally": 7054,
      "hinting": 7055,
      "proceeding": 7056,
      "proceedings": 7057,
      "occasions": 7058,
      "skeletons": 7059,
      "lawy": 7060,
      "twisting": 7061,
      "crowds": 7062,
      "quietude": 7063,
      "hulls": 7064,
      "mirr": 7065,
      "miracle": 7066,
      "friendly": 7067,
      "inference": 7068,
      "fortitude": 7069,
      "billow": 7070,
      "pickle": 7071,
      "hairs": 7072,
      "descended": 7073,
      "semicir": 7074,
      "belshazz": 7075,
      "posture": 7076,
      "vigor": 7077,
      "reverend": 7078,
      "reverence": 7079,
      "numberless": 7080,
      "increasing": 7081,
      "spotted": 7082,
      "figured": 7083,
      "naut": 7084,
      "navies": 7085,
      "uttermost": 7086,
      "frequent": 7087,
      "hooks": 7088,
      "hooked": 7089,
      "tarpaul": 7090,
      "moods": 7091,
      "periodical": 7092,
      "funeral": 7093,
      "revealing": 7094,
      "shouting": 7095,
      "experiences": 7096,
      "expressed": 7097,
      "transom": 7098,
      "transition": 7099,
      "fighting": 7100,
      "kicking": 7101,
      "errand": 7102,
      "arrive": 7103,
      "arrival": 7104,
      "mysteries": 7105,
      "vengeful": 7106,
      "companion": 7107,
      "companions": 7108,
      "colours": 7109,
      "tokens": 7110,
      "boxes": 7111,
      "feature": 7112,
      "drinking": 7113,
      "cheerful": 7114,
      "squalls": 7115,
      "successive": 7116,
      "candid": 7117,
      "pirate": 7118,
      "ruin": 7119,
      "stuffed": 7120,
      "rocky": 7121,
      "authorities": 7122,
      "critters": 7123,
      "varieties": 7124,
      "narrated": 7125,
      "pondering": 7126,
      "vapoury": 7127,
      "knock": 7128,
      "reckless": 7129,
      "sulph": 7130,
      "spani": 7131,
      "grasp": 7132,
      "obliged": 7133,
      "basket": 7134,
      "vacant": 7135,
      "washed": 7136,
      "comprehend": 7137,
      "flashing": 7138,
      "flashes": 7139,
      "surprised": 7140,
      "circling": 7141,
      "snatched": 7142,
      "trembling": 7143,
      "include": 7144,
      "revolved": 7145,
      "ascended": 7146,
      "spitzber": 7147,
      "wearied": 7148,
      "antique": 7149,
      "antiquity": 7150,
      "scorching": 7151,
      "gloomy": 7152,
      "gaunt": 7153,
      "massive": 7154,
      "impression": 7155,
      "article": 7156,
      "produce": 7157,
      "breathe": 7158,
      "sacri": 7159,
      "throat": 7160,
      "resembling": 7161,
      "stirred": 7162,
      "stirring": 7163,
      "chinese": 7164,
      "modified": 7165,
      "loomed": 7166,
      "speedy": 7167,
      "wheeled": 7168,
      "wheeling": 7169,
      "superstitions": 7170,
      "euroc": 7171,
      "require": 7172,
      "sticks": 7173,
      "creamy": 7174,
      "calculating": 7175,
      "travelled": 7176,
      "knotted": 7177,
      "risk": 7178,
      "swayed": 7179,
      "alien": 7180,
      "shoot": 7181,
      "attentively": 7182,
      "horrors": 7183,
      "satisfied": 7184,
      "lanterns": 7185,
      "axe": 7186,
      "gasp": 7187,
      "mouldy": 7188,
      "puffs": 7189,
      "raging": 7190,
      "inquiring": 7191,
      "wharves": 7192,
      "admirable": 7193,
      "unicorn": 7194,
      "vibration": 7195,
      "credulous": 7196,
      "deserted": 7197,
      "appalled": 7198,
      "humorously": 7199,
      "announcing": 7200,
      "imagination": 7201,
      "splinters": 7202,
      "multip": 7203,
      "retreat": 7204,
      "style": 7205,
      "absence": 7206,
      "extracted": 7207,
      "intolerably": 7208,
      "scraping": 7209,
      "glimpses": 7210,
      "drugg": 7211,
      "instinctively": 7212,
      "sleeves": 7213,
      "priests": 7214,
      "deliberate": 7215,
      "sufficient": 7216,
      "billiard": 7217,
      "vertical": 7218,
      "defy": 7219,
      "defendants": 7220,
      "abandon": 7221,
      "tempestuous": 7222,
      "linked": 7223,
      "lazily": 7224,
      "lazarus": 7225,
      "oakum": 7226,
      "packed": 7227,
      "tropic": 7228,
      "result": 7229,
      "apprehension": 7230,
      "astonished": 7231,
      "convey": 7232,
      "safely": 7233,
      "emerged": 7234,
      "embraces": 7235,
      "induced": 7236,
      "designated": 7237,
      "survive": 7238,
      "deliverance": 7239,
      "mumbling": 7240,
      "oaths": 7241,
      "stooped": 7242,
      "chips": 7243,
      "shifted": 7244,
      "emperors": 7245,
      "platon": 7246,
      "trucks": 7247,
      "substanti": 7248,
      "impatient": 7249,
      "yarns": 7250,
      "gleamed": 7251,
      "methodically": 7252,
      "familiarly": 7253,
      "ascribed": 7254,
      "omitted": 7255,
      "sullenly": 7256,
      "suffering": 7257,
      "clutch": 7258,
      "passengers": 7259,
      "valleys": 7260,
      "tranquilly": 7261,
      "delirium": 7262,
      "incessant": 7263,
      "anatomical": 7264,
      "revelry": 7265,
      "assaults": 7266,
      "items": 7267,
      "leathern": 7268,
      "ghastly": 7269,
      "undeviating": 7270,
      "melted": 7271,
      "elucid": 7272,
      "flourish": 7273,
      "countless": 7274,
      "flexible": 7275,
      "snuffed": 7276,
      "suspicions": 7277,
      "atmospher": 7278,
      "atmosphere": 7279,
      "mizen": 7280,
      "paddles": 7281,
      "whelmed": 7282,
      "chronic": 7283,
      "beasts": 7284,
      "definition": 7285,
      "afforded": 7286,
      "struggling": 7287,
      "proportion": 7288,
      "breaches": 7289,
      "exclamation": 7290,
      "washington": 7291,
      "satisfaction": 7292,
      "dusky": 7293,
      "reclining": 7294,
      "rescue": 7295,
      "impelled": 7296,
      "suggest": 7297,
      "qualities": 7298,
      "permitted": 7299,
      "governor": 7300,
      "experiment": 7301,
      "pronounced": 7302,
      "shelf": 7303,
      "specimen": 7304,
      "philosophers": 7305,
      "dictionary": 7306,
      "irresistible": 7307,
      "manifested": 7308,
      "hieroglyphics": 7309,
      "gamesome": 7310,
      "journey": 7311,
      "infants": 7312,
      "enemy": 7313,
      "tolerable": 7314,
      "associations": 7315,
      "omnipotent": 7316,
      "entangled": 7317,
      "uniform": 7318,
      "unharmed": 7319,
      "manufactured": 7320,
      "accompanying": 7321,
      "conversation": 7322,
      "geological": 7323,
      "expense": 7324,
      "flaming": 7325,
      "propriet": 7326,
      "branches": 7327,
      "literally": 7328,
      "benevolent": 7329,
      "saturday": 7330,
      "incredulous": 7331,
      "kneeling": 7332,
      "laborers": 7333,
      "inquiry": 7334,
      "replenished": 7335,
      "dorff": 7336,
      "jungfrau": 7337,
      "parmace": 7338,
      "random": 7339,
      "situation": 7340,
      "imminent": 7341,
      "unimaginable": 7342,
      "sultan": 7343,
      "potency": 7344,
      "manilla": 7345,
      "haughty": 7346,
      "procedure": 7347,
      "grateful": 7348,
      "clenched": 7349,
      "opportunity": 7350,
      "achieved": 7351,
      "dismasted": 7352,
      "swarming": 7353,
      "phenomenon": 7354,
      "guinea": 7355,
      "contradict": 7356,
      "transported": 7357,
      "fabulous": 7358,
      "promontory": 7359,
      "schooner": 7360,
      "cistern": 7361,
      "census": 7362,
      "eagle": 7363,
      "langsdorff": 7364,
      "pardon": 7365,
      "sermon": 7366,
      "wisdom": 7367,
      "zodiac": 7368,
      "anchored": 7369,
      "orphans": 7370,
      "celestial": 7371,
      "degrees": 7372,
      "unconditional": 7373,
      "policy": 7374,
      "cologne": 7375,
      "grampus": 7376,
      "handkerchief": 7377,
      "volition": 7378,
      "linnaeus": 7379,
      "belshazzar": 7380,
      "spitzbergen": 7381,
      "euroclydon": 7382,
      "!)": 7383,
      ")--": 7384,
      "1st": 7385,
      "40": 7386,
      "51": 7387,
      ";'": 7388,
      "ai": 7389,
      "aven": 7390,
      "aunt": 7391,
      "aghast": 7392,
      "bough": 7393,
      "baw": 7394,
      "batt": 7395,
      "brist": 7396,
      "bann": 7397,
      "bamb": 7398,
      "bloom": 7399,
      "bapt": 7400,
      "cam": 7401,
      "card": 7402,
      "cant": 7403,
      "cation": 7404,
      "cated": 7405,
      "cach": 7406,
      "cary": 7407,
      "ccas": 7408,
      "cult": 7409,
      "clif": 7410,
      "cards": 7411,
      "dand": 7412,
      "dup": 7413,
      "dub": 7414,
      "dint": 7415,
      "dared": 7416,
      "dug": 7417,
      "dined": 7418,
      "dler": 7419,
      "dented": 7420,
      "ditch": 7421,
      "ethe": 7422,
      "econ": 7423,
      "eel": 7424,
      "ebony": 7425,
      "fought": 7426,
      "gal": 7427,
      "gom": 7428,
      "gable": 7429,
      "gull": 7430,
      "gash": 7431,
      "gging": 7432,
      "ggy": 7433,
      "gills": 7434,
      "hes": 7435,
      "iel": 7436,
      "iated": 7437,
      "ilet": 7438,
      "jar": 7439,
      "jup": 7440,
      "jub": 7441,
      "jig": 7442,
      "jave": 7443,
      "kent": 7444,
      "kid": 7445,
      "knight": 7446,
      "knights": 7447,
      "kitch": 7448,
      "l1": 7449,
      "lli": 7450,
      "lard": 7451,
      "lack": 7452,
      "lull": 7453,
      "loft": 7454,
      "lump": 7455,
      "luff": 7456,
      "lubber": 7457,
      "lumber": 7458,
      "mill": 7459,
      "mong": 7460,
      "mish": 7461,
      "mah": 7462,
      "mits": 7463,
      "nim": 7464,
      "nate": 7465,
      "nue": 7466,
      "ote": 7467,
      "oily": 7468,
      "pare": 7469,
      "pars": 7470,
      "pages": 7471,
      "panting": 7472,
      "rue": 7473,
      "rug": 7474,
      "sar": 7475,
      "sable": 7476,
      "sings": 7477,
      "sane": 7478,
      "twas": 7479,
      "ture": 7480,
      "tally": 7481,
      "taw": 7482,
      "tale": 7483,
      "tured": 7484,
      "tasted": 7485,
      "trod": 7486,
      "uing": 7487,
      "uter": 7488,
      "usur": 7489,
      "usive": 7490,
      "uitions": 7491,
      "utored": 7492,
      "vow": 7493,
      "wad": 7494,
      "wert": 7495,
      "xim": 7496,
      "yan": 7497,
      "tha": 7498,
      "thar": 7499,
      "thom": 7500,
      "thic": 7501,
      "thors": 7502,
      "thames": 7503,
      "theus": 7504,
      "thetically": 7505,
      "inis": 7506,
      "inate": 7507,
      "inher": 7508,
      "insure": 7509,
      "inces": 7510,
      "infat": 7511,
      "informed": 7512,
      "inert": 7513,
      "infancy": 7514,
      "infli": 7515,
      "insisted": 7516,
      "insect": 7517,
      "anth": 7518,
      "analy": 7519,
      "angles": 7520,
      "erted": 7521,
      "erring": 7522,
      "attaining": 7523,
      "refr": 7524,
      "resi": 7525,
      "reward": 7526,
      "rept": 7527,
      "rejo": 7528,
      "resent": 7529,
      "resort": 7530,
      "recur": 7531,
      "relic": 7532,
      "rela": 7533,
      "replaced": 7534,
      "rebel": 7535,
      "rehears": 7536,
      "recovered": 7537,
      "research": 7538,
      "recip": 7539,
      "onomy": 7540,
      "stu": 7541,
      "stall": 7542,
      "stated": 7543,
      "stig": 7544,
      "stroll": 7545,
      "stition": 7546,
      "stool": 7547,
      "stages": 7548,
      "stamp": 7549,
      "eda": 7550,
      "edary": 7551,
      "eddying": 7552,
      "alex": 7553,
      "alot": 7554,
      "alian": 7555,
      "altering": 7556,
      "ingen": 7557,
      "enh": 7558,
      "enable": 7559,
      "androm": 7560,
      "arising": 7561,
      "orate": 7562,
      "total": 7563,
      "toiling": 7564,
      "assem": 7565,
      "itud": 7566,
      "itors": 7567,
      "itating": 7568,
      "itime": 7569,
      "italian": 7570,
      "sex": 7571,
      "sees": 7572,
      "sepul": 7573,
      "heap": 7574,
      "heark": 7575,
      "hement": 7576,
      "chal": 7577,
      "chop": 7578,
      "chment": 7579,
      "chancing": 7580,
      "changing": 7581,
      "bec": 7582,
      "bee": 7583,
      "bead": 7584,
      "beli": 7585,
      "becal": 7586,
      "becoming": 7587,
      "bethinking": 7588,
      "beaver": 7589,
      "beloved": 7590,
      "ilies": 7591,
      "ilities": 7592,
      "adap": 7593,
      "adro": 7594,
      "adher": 7595,
      "imparts": 7596,
      "imposing": 7597,
      "bug": 7598,
      "bus": 7599,
      "burial": 7600,
      "hissing": 7601,
      "alled": 7602,
      "liver": 7603,
      "liam": 7604,
      "lists": 7605,
      "verse": 7606,
      "verily": 7607,
      "veritable": 7608,
      "noses": 7609,
      "nobler": 7610,
      "wield": 7611,
      "cement": 7612,
      "forman": 7613,
      "fortress": 7614,
      "deer": 7615,
      "dete": 7616,
      "decan": 7617,
      "decre": 7618,
      "deity": 7619,
      "defi": 7620,
      "detest": 7621,
      "defic": 7622,
      "decept": 7623,
      "defile": 7624,
      "deuter": 7625,
      "veter": 7626,
      "vehement": 7627,
      "irs": 7628,
      "shin": 7629,
      "shold": 7630,
      "shine": 7631,
      "shaken": 7632,
      "withdraw": 7633,
      "unw": 7634,
      "untering": 7635,
      "unworthy": 7636,
      "unpreced": 7637,
      "unsounded": 7638,
      "unalter": 7639,
      "unhing": 7640,
      "unrecorded": 7641,
      "unmole": 7642,
      "absur": 7643,
      "buttons": 7644,
      "rifle": 7645,
      "aments": 7646,
      "aining": 7647,
      "ainted": 7648,
      "tery": 7649,
      "terra": 7650,
      "terti": 7651,
      "moth": 7652,
      "mode": 7653,
      "moves": 7654,
      "moist": 7655,
      "model": 7656,
      "--(": 7657,
      "ape": 7658,
      "appr": 7659,
      "apople": 7660,
      "rover": 7661,
      "root": 7662,
      "suming": 7663,
      "sucked": 7664,
      "socks": 7665,
      "erest": 7666,
      "llows": 7667,
      "quid": 7668,
      "quet": 7669,
      "queness": 7670,
      "spinning": 7671,
      "agitated": 7672,
      "agencies": 7673,
      "whaleboats": 7674,
      "byter": 7675,
      "astrop": 7676,
      "outline": 7677,
      "outstretched": 7678,
      "notion": 7679,
      "wearing": 7680,
      "icing": 7681,
      "icable": 7682,
      "essence": 7683,
      "poll": 7684,
      "pods": 7685,
      "meal": 7686,
      "mealy": 7687,
      "ometheus": 7688,
      "urable": 7689,
      "havoc": 7690,
      "haired": 7691,
      "haunted": 7692,
      "acre": 7693,
      "accom": 7694,
      "acco": 7695,
      "acies": 7696,
      "aculous": 7697,
      "conj": 7698,
      "convi": 7699,
      "conting": 7700,
      "conste": 7701,
      "converted": 7702,
      "fest": 7703,
      "neat": 7704,
      "necks": 7705,
      "area": 7706,
      "sauntering": 7707,
      "sire": 7708,
      "sies": 7709,
      "sily": 7710,
      "peru": 7711,
      "perchance": 7712,
      "perishing": 7713,
      "performan": 7714,
      "peaking": 7715,
      "peered": 7716,
      "ulations": 7717,
      "embell": 7718,
      "emblaz": 7719,
      "ifies": 7720,
      "iferous": 7721,
      "losing": 7722,
      "loses": 7723,
      "artist": 7724,
      "goat": 7725,
      "gothic": 7726,
      "composing": 7727,
      "ishly": 7728,
      "diam": 7729,
      "diet": 7730,
      "diabo": 7731,
      "follows": 7732,
      "blu": 7733,
      "blend": 7734,
      "blunder": 7735,
      "bluff": 7736,
      "erskine": 7737,
      "plough": 7738,
      "plump": 7739,
      "planting": 7740,
      "premat": 7741,
      "premis": 7742,
      "presum": 7743,
      "prejud": 7744,
      "presume": 7745,
      "gee": 7746,
      "thentic": 7747,
      "ouring": 7748,
      "exped": 7749,
      "exten": 7750,
      "expose": 7751,
      "exists": 7752,
      "exerc": 7753,
      "overheard": 7754,
      "overbearing": 7755,
      "whosoever": 7756,
      "tracing": 7757,
      "elapsed": 7758,
      "indust": 7759,
      "umbre": 7760,
      "uments": 7761,
      "headway": 7762,
      "endom": 7763,
      "endent": 7764,
      "capsi": 7765,
      "capting": 7766,
      "tested": 7767,
      "ortions": 7768,
      "ineff": 7769,
      "flows": 7770,
      "flail": 7771,
      "viv": 7772,
      "stry": 7773,
      "strom": 7774,
      "straps": 7775,
      "cogent": 7776,
      "coats": 7777,
      "canon": 7778,
      "proph": 7779,
      "progen": 7780,
      "propose": 7781,
      "prosecut": 7782,
      "longing": 7783,
      "hoe": 7784,
      "holi": 7785,
      "hopes": 7786,
      "creep": 7787,
      "grou": 7788,
      "grating": 7789,
      "granting": 7790,
      "handling": 7791,
      "howl": 7792,
      "arking": 7793,
      "willingly": 7794,
      "warden": 7795,
      "cler": 7796,
      "cling": 7797,
      "clap": 7798,
      "claps": 7799,
      "clung": 7800,
      "clapped": 7801,
      "clapping": 7802,
      "bleed": 7803,
      "bleak": 7804,
      "sche": 7805,
      "scrup": 7806,
      "offing": 7807,
      "offering": 7808,
      "herein": 7809,
      "partially": 7810,
      "whereon": 7811,
      "whereof": 7812,
      "prometheus": 7813,
      "glar": 7814,
      "glow": 7815,
      "glared": 7816,
      "glowing": 7817,
      "glued": 7818,
      "glories": 7819,
      "brine": 7820,
      "branded": 7821,
      "branch": 7822,
      "bracing": 7823,
      "brisk": 7824,
      "fullest": 7825,
      "intensi": 7826,
      "intuitions": 7827,
      "authors": 7828,
      "authentic": 7829,
      "crou": 7830,
      "crater": 7831,
      "fice": 7832,
      "lander": 7833,
      "redness": 7834,
      "redden": 7835,
      "istically": 7836,
      "hasn": 7837,
      "tingu": 7838,
      "fishy": 7839,
      "fishers": 7840,
      "turks": 7841,
      "rounding": 7842,
      "oda": 7843,
      "tools": 7844,
      "lighting": 7845,
      "desk": 7846,
      "desir": 7847,
      "desires": 7848,
      "mug": 7849,
      "discre": 7850,
      "dismember": 7851,
      "disposed": 7852,
      "disengaged": 7853,
      "discip": 7854,
      "disdain": 7855,
      "swoo": 7856,
      "swamp": 7857,
      "awakened": 7858,
      "righteous": 7859,
      "peddling": 7860,
      "legant": 7861,
      "buckle": 7862,
      "armies": 7863,
      "masters": 7864,
      "backing": 7865,
      "tens": 7866,
      "tenth": 7867,
      "bern": 7868,
      "bert": 7869,
      "berry": 7870,
      "counting": 7871,
      "countries": 7872,
      "deny": 7873,
      "denied": 7874,
      "interchange": 7875,
      "carav": 7876,
      "understanding": 7877,
      "shet": 7878,
      "shell": 7879,
      "shells": 7880,
      "udge": 7881,
      "reminis": 7882,
      "nating": 7883,
      "lifeless": 7884,
      "martha": 7885,
      "maritime": 7886,
      "ization": 7887,
      "subdu": 7888,
      "gene": 7889,
      "genu": 7890,
      "contempor": 7891,
      "broo": 7892,
      "skip": 7893,
      "bedded": 7894,
      "cian": 7895,
      "cible": 7896,
      "halting": 7897,
      "clothed": 7898,
      "sinners": 7899,
      "renching": 7900,
      "striding": 7901,
      "heartless": 7902,
      "hearties": 7903,
      "heartily": 7904,
      "gets": 7905,
      "boarders": 7906,
      "foundations": 7907,
      "portly": 7908,
      "portion": 7909,
      "portable": 7910,
      "portug": 7911,
      "facet": 7912,
      "suppress": 7913,
      "supposition": 7914,
      "barric": 7915,
      "slept": 7916,
      "pleated": 7917,
      "harder": 7918,
      "purchased": 7919,
      "voyager": 7920,
      "strangest": 7921,
      "curved": 7922,
      "cheap": 7923,
      "cheers": 7924,
      "parchment": 7925,
      "distended": 7926,
      "distinction": 7927,
      "attending": 7928,
      "attitudes": 7929,
      "wax": 7930,
      "begged": 7931,
      "begging": 7932,
      "horrid": 7933,
      "generic": 7934,
      "generated": 7935,
      "faster": 7936,
      "fasting": 7937,
      "fastening": 7938,
      "morbid": 7939,
      "slay": 7940,
      "slaugh": 7941,
      "slanting": 7942,
      "sloop": 7943,
      "regal": 7944,
      "regions": 7945,
      "burtons": 7946,
      "idean": 7947,
      "indians": 7948,
      "cork": 7949,
      "correctly": 7950,
      "craven": 7951,
      "cracking": 7952,
      "crazed": 7953,
      "visits": 7954,
      "visions": 7955,
      "visual": 7956,
      "visibly": 7957,
      "ifications": 7958,
      "cables": 7959,
      "darkly": 7960,
      "drawings": 7961,
      "towers": 7962,
      "hams": 7963,
      "ringed": 7964,
      "ringing": 7965,
      "oldest": 7966,
      "tops": 7967,
      "freed": 7968,
      "mini": 7969,
      "mischief": 7970,
      "restless": 7971,
      "meanings": 7972,
      "meanest": 7973,
      "wrap": 7974,
      "spectacles": 7975,
      "lengths": 7976,
      "dedic": 7977,
      "warped": 7978,
      "streaked": 7979,
      "fires": 7980,
      "fireside": 7981,
      "benefit": 7982,
      "starts": 7983,
      "reasonably": 7984,
      "hats": 7985,
      "ugg": 7986,
      "ugly": 7987,
      "darts": 7988,
      "linen": 7989,
      "satan": 7990,
      "deeps": 7991,
      "colnett": 7992,
      "fluent": 7993,
      "precip": 7994,
      "marking": 7995,
      "savor": 7996,
      "ivable": 7997,
      "mortar": 7998,
      "courtes": 7999,
      "maim": 8000,
      "efful": 8001,
      "guise": 8002,
      "million": 8003,
      "workman": 8004,
      "slip": 8005,
      "motives": 8006,
      "naturalist": 8007,
      "trip": 8008,
      "charitable": 8009,
      "wondering": 8010,
      "store": 8011,
      "stocks": 8012,
      "stolid": 8013,
      "drif": 8014,
      "driver": 8015,
      "latent": 8016,
      "madly": 8017,
      "speaks": 8018,
      "cruet": 8019,
      "ceives": 8020,
      "mounts": 8021,
      "solve": 8022,
      "solved": 8023,
      "avors": 8024,
      "career": 8025,
      "careless": 8026,
      "impious": 8027,
      "quarto": 8028,
      "crosswise": 8029,
      "malays": 8030,
      "tile": 8031,
      "humped": 8032,
      "paintings": 8033,
      "severest": 8034,
      "forthwith": 8035,
      "contracted": 8036,
      "happily": 8037,
      "happening": 8038,
      "muttering": 8039,
      "snapping": 8040,
      "planet": 8041,
      "grove": 8042,
      "groping": 8043,
      "gloss": 8044,
      "penny": 8045,
      "frock": 8046,
      "frosty": 8047,
      "sharper": 8048,
      "sharpen": 8049,
      "stronger": 8050,
      "household": 8051,
      "untutored": 8052,
      "suspend": 8053,
      "suspicious": 8054,
      "superflu": 8055,
      "superstition": 8056,
      "magnific": 8057,
      "bearer": 8058,
      "velvet": 8059,
      "walrus": 8060,
      "transc": 8061,
      "hopelessly": 8062,
      "footed": 8063,
      "drags": 8064,
      "patch": 8065,
      "patent": 8066,
      "patience": 8067,
      "dimensions": 8068,
      "gravity": 8069,
      "walled": 8070,
      "thickest": 8071,
      "crystal": 8072,
      "humane": 8073,
      "bounds": 8074,
      "riddle": 8075,
      "borrowed": 8076,
      "catastrop": 8077,
      "palace": 8078,
      "palpable": 8079,
      "respectfully": 8080,
      "respectively": 8081,
      "ontis": 8082,
      "furnishing": 8083,
      "guns": 8084,
      "metro": 8085,
      "encounters": 8086,
      "christendom": 8087,
      "deplo": 8088,
      "depicted": 8089,
      "separable": 8090,
      "sympa": 8091,
      "sympath": 8092,
      "symboli": 8093,
      "eighty": 8094,
      "music": 8095,
      "muscles": 8096,
      "muskets": 8097,
      "fisheries": 8098,
      "eastern": 8099,
      "pilgrim": 8100,
      "twist": 8101,
      "rically": 8102,
      "crowded": 8103,
      "miraculous": 8104,
      "sociable": 8105,
      "uppermost": 8106,
      "questionable": 8107,
      "captive": 8108,
      "twit": 8109,
      "inferred": 8110,
      "heedless": 8111,
      "promising": 8112,
      "hugest": 8113,
      "dreamy": 8114,
      "cups": 8115,
      "fathers": 8116,
      "picking": 8117,
      "torments": 8118,
      "insular": 8119,
      "fication": 8120,
      "ficial": 8121,
      "lamps": 8122,
      "laughing": 8123,
      "pagoda": 8124,
      "churned": 8125,
      "spreading": 8126,
      "conceits": 8127,
      "conceivable": 8128,
      "propontis": 8129,
      "glassy": 8130,
      "tallow": 8131,
      "reversed": 8132,
      "beaten": 8133,
      "locker": 8134,
      "shapes": 8135,
      "examine": 8136,
      "examples": 8137,
      "brick": 8138,
      "saddest": 8139,
      "tumble": 8140,
      "tumbling": 8141,
      "threshold": 8142,
      "relish": 8143,
      "buoyancy": 8144,
      "listening": 8145,
      "folding": 8146,
      "banquet": 8147,
      "breezes": 8148,
      "pasture": 8149,
      "swallows": 8150,
      "pleasure": 8151,
      "measurement": 8152,
      "bennett": 8153,
      "fuel": 8154,
      "luckless": 8155,
      "yoked": 8156,
      "reveal": 8157,
      "loading": 8158,
      "scraps": 8159,
      "ignorantly": 8160,
      "180": 8161,
      "badly": 8162,
      "grizz": 8163,
      "vinegar": 8164,
      "dreaded": 8165,
      "inserting": 8166,
      "cherries": 8167,
      "feeds": 8168,
      "bands": 8169,
      "corners": 8170,
      "habits": 8171,
      "resolution": 8172,
      "leaks": 8173,
      "hauling": 8174,
      "cheerily": 8175,
      "significantly": 8176,
      "appearances": 8177,
      "succession": 8178,
      "successfully": 8179,
      "prophecy": 8180,
      "failed": 8181,
      "jerk": 8182,
      "panthe": 8183,
      "yielding": 8184,
      "bubbling": 8185,
      "pressure": 8186,
      "presbyter": 8187,
      "practicable": 8188,
      "maelstrom": 8189,
      "pondered": 8190,
      "vapours": 8191,
      "hooped": 8192,
      "referred": 8193,
      "issip": 8194,
      "sulk": 8195,
      "sulky": 8196,
      "peaceable": 8197,
      "gestures": 8198,
      "grimly": 8199,
      "prayer": 8200,
      "intensely": 8201,
      "oblivious": 8202,
      "merchantmen": 8203,
      "contribut": 8204,
      "contrived": 8205,
      "contribute": 8206,
      "operated": 8207,
      "william": 8208,
      "imagine": 8209,
      "sporting": 8210,
      "comprehended": 8211,
      "northward": 8212,
      "systematically": 8213,
      "snatch": 8214,
      "reeling": 8215,
      "revolve": 8216,
      "ascend": 8217,
      "marvelled": 8218,
      "streams": 8219,
      "danish": 8220,
      "fetching": 8221,
      "tufted": 8222,
      "villages": 8223,
      "impressed": 8224,
      "physical": 8225,
      "laborious": 8226,
      "tendons": 8227,
      "tendency": 8228,
      "tendinous": 8229,
      "stirs": 8230,
      "whirled": 8231,
      "assume": 8232,
      "adventurous": 8233,
      "widows": 8234,
      "enterprise": 8235,
      "universally": 8236,
      "ifully": 8237,
      "gladly": 8238,
      "johnson": 8239,
      "professor": 8240,
      "principal": 8241,
      "principles": 8242,
      "farewell": 8243,
      "winged": 8244,
      "statement": 8245,
      "statements": 8246,
      "studying": 8247,
      "flowers": 8248,
      "meditation": 8249,
      "attacked": 8250,
      "issue": 8251,
      "organs": 8252,
      "shoots": 8253,
      "subsequently": 8254,
      "surrounding": 8255,
      "burns": 8256,
      "bitterest": 8257,
      "faltering": 8258,
      "gasping": 8259,
      "puffing": 8260,
      "ragged": 8261,
      "invariable": 8262,
      "escaping": 8263,
      "hearses": 8264,
      "admiral": 8265,
      "memories": 8266,
      "constantly": 8267,
      "consequently": 8268,
      "distracted": 8269,
      "plumage": 8270,
      "rendering": 8271,
      "announcement": 8272,
      "philosophy": 8273,
      "philosopher": 8274,
      "multitude": 8275,
      "multitud": 8276,
      "squeezing": 8277,
      "tusks": 8278,
      "infallible": 8279,
      "reported": 8280,
      "retreated": 8281,
      "beards": 8282,
      "shirr": 8283,
      "quitted": 8284,
      "collapsed": 8285,
      "hostile": 8286,
      "graph": 8287,
      "grapes": 8288,
      "primal": 8289,
      "monomania": 8290,
      "mounttop": 8291,
      "tempered": 8292,
      "virginia": 8293,
      "nurtured": 8294,
      "vaguely": 8295,
      "ensued": 8296,
      "hospital": 8297,
      "collection": 8298,
      "egyptians": 8299,
      "fountains": 8300,
      "tropical": 8301,
      "tropics": 8302,
      "refused": 8303,
      "stagger": 8304,
      "staggering": 8305,
      "envelope": 8306,
      "enveloped": 8307,
      "apprehensiveness": 8308,
      "soothing": 8309,
      "soothed": 8310,
      "acquaint": 8311,
      "acquainted": 8312,
      "conveyed": 8313,
      "concentrated": 8314,
      "embracing": 8315,
      "embraced": 8316,
      "climb": 8317,
      "brimming": 8318,
      "attempts": 8319,
      "singularly": 8320,
      "correspond": 8321,
      "hurrying": 8322,
      "jamming": 8323,
      "innocence": 8324,
      "infinitely": 8325,
      "reflections": 8326,
      "admitted": 8327,
      "likened": 8328,
      "devouring": 8329,
      "detailed": 8330,
      "shifting": 8331,
      "quadrup": 8332,
      "explained": 8333,
      "african": 8334,
      "timidity": 8335,
      "scalding": 8336,
      "crimson": 8337,
      "serenely": 8338,
      "substantial": 8339,
      "distinguish": 8340,
      "warnings": 8341,
      "impatience": 8342,
      "snugly": 8343,
      "graceful": 8344,
      "threatened": 8345,
      "gleams": 8346,
      "favourite": 8347,
      "ninet": 8348,
      "nuts": 8349,
      "russian": 8350,
      "sloping": 8351,
      "tinker": 8352,
      "wandering": 8353,
      "endeavor": 8354,
      "endeavors": 8355,
      "ascribe": 8356,
      "budge": 8357,
      "sufferable": 8358,
      "convul": 8359,
      "convinced": 8360,
      "comprising": 8361,
      "fidelity": 8362,
      "disaster": 8363,
      "disasters": 8364,
      "unctuousness": 8365,
      "accidentally": 8366,
      "distrusted": 8367,
      "distrustful": 8368,
      "pounds": 8369,
      "punchbowl": 8370,
      "vaults": 8371,
      "incessantly": 8372,
      "anatomy": 8373,
      "alternating": 8374,
      "assault": 8375,
      "chaos": 8376,
      "december": 8377,
      "rippling": 8378,
      "spoiled": 8379,
      "prospects": 8380,
      "handfuls": 8381,
      "serpents": 8382,
      "reminds": 8383,
      "reminded": 8384,
      "penetrate": 8385,
      "pierced": 8386,
      "piercing": 8387,
      "suspicion": 8388,
      "diminish": 8389,
      "fortunes": 8390,
      "________": 8391,
      "politely": 8392,
      "remorselessly": 8393,
      "abundance": 8394,
      "bankrupt": 8395,
      "bridal": 8396,
      "cliffs": 8397,
      "ducking": 8398,
      "mizzen": 8399,
      "paddle": 8400,
      "anoint": 8401,
      "storied": 8402,
      "stiffly": 8403,
      "ceaseless": 8404,
      "defined": 8405,
      "illuminated": 8406,
      "protection": 8407,
      "cluster": 8408,
      "desolate": 8409,
      "desolation": 8410,
      "exclamations": 8411,
      "affectionate": 8412,
      "unobstructed": 8413,
      "gorgeous": 8414,
      "sabbath": 8415,
      "sabbee": 8416,
      "tidings": 8417,
      "victor": 8418,
      "injured": 8419,
      "addressing": 8420,
      "apothe": 8421,
      "hazard": 8422,
      "preacher": 8423,
      "exhibit": 8424,
      "doctors": 8425,
      "intricacies": 8426,
      "interlude": 8427,
      "helplessly": 8428,
      "missionary": 8429,
      "cautious": 8430,
      "quivering": 8431,
      "cadiz": 8432,
      "guests": 8433,
      "lustre": 8434,
      "mowers": 8435,
      "pantalo": 8436,
      "rubbing": 8437,
      "tartar": 8438,
      "vulture": 8439,
      "invoking": 8440,
      "insurance": 8441,
      "inhabitants": 8442,
      "reputation": 8443,
      "stationary": 8444,
      "alleged": 8445,
      "searches": 8446,
      "absorbed": 8447,
      "supreme": 8448,
      "spasmodically": 8449,
      "arsacidean": 8450,
      "ferocity": 8451,
      "dyspepsia": 8452,
      "warrior": 8453,
      "caulking": 8454,
      "maddened": 8455,
      "soliloquized": 8456,
      "sprinkled": 8457,
      "summoned": 8458,
      "intellectual": 8459,
      "dolphin": 8460,
      "bumpkin": 8461,
      "ceremony": 8462,
      "daughters": 8463,
      "nominally": 8464,
      "rattling": 8465,
      "tantal": 8466,
      "integr": 8467,
      "attracted": 8468,
      "reservo": 8469,
      "chicha": 8470,
      "betokened": 8471,
      "impregnable": 8472,
      "riotous": 8473,
      "fruit": 8474,
      "posterity": 8475,
      "condemned": 8476,
      "permanent": 8477,
      "razor": 8478,
      "inevitably": 8479,
      "intrepid": 8480,
      "denominated": 8481,
      "meridians": 8482,
      "contemptible": 8483,
      "supplementary": 8484,
      "corporeal": 8485,
      "profundities": 8486,
      "earthquake": 8487,
      "grooves": 8488,
      "globular": 8489,
      "patagonian": 8490,
      "ostentatiously": 8491,
      "wilderness": 8492,
      "garnery": 8493,
      "lucifers": 8494,
      "neighboring": 8495,
      "difficulty": 8496,
      "peremptorily": 8497,
      "275th": 8498,
      "blister": 8499,
      "juncture": 8500,
      "nonsense": 8501,
      "oblong": 8502,
      "uffling": 8503,
      "wriggling": 8504,
      "thumb": 8505,
      "incorpor": 8506,
      "enlightened": 8507,
      "argued": 8508,
      "unconquerable": 8509,
      "butchers": 8510,
      "sovereign": 8511,
      "webster": 8512,
      "polynes": 8513,
      "constitution": 8514,
      "peeled": 8515,
      "blasphe": 8516,
      "plaited": 8517,
      "predestinated": 8518,
      "tragic": 8519,
      "crescentic": 8520,
      "classification": 8521,
      "scolding": 8522,
      "glimmer": 8523,
      "dromedary": 8524,
      "skrimsh": 8525,
      "portrait": 8526,
      "parcel": 8527,
      "mississip": 8528,
      "miscellaneous": 8529,
      "magnanimous": 8530,
      "mirror": 8531,
      "vigorously": 8532,
      "nautical": 8533,
      "sulphur": 8534,
      "atmospheric": 8535,
      "bamboo": 8536,
      "cachalot": 8537,
      "clifford": 8538,
      "duplic": 8539,
      "econom": 8540,
      "jupiter": 8541,
      "javelin": 8542,
      "kitchen": 8543,
      "loftiest": 8544,
      "nuee": 8545,
      "tawny": 8546,
      "thomas": 8547,
      "refrained": 8548,
      "resistance": 8549,
      "reptile": 8550,
      "relics": 8551,
      "relaxed": 8552,
      "andromeda": 8553,
      "sepulch": 8554,
      "becalmed": 8555,
      "adapted": 8556,
      "adhering": 8557,
      "defiance": 8558,
      "deuteronomy": 8559,
      "veteran": 8560,
      "unprecedented": 8561,
      "unalterable": 8562,
      "unmolested": 8563,
      "absurd": 8564,
      "tertiary": 8565,
      "moisture": 8566,
      "apprised": 8567,
      "accommod": 8568,
      "accosted": 8569,
      "convivial": 8570,
      "prophes": 8571,
      "contemporary": 8572,
      "barricade": 8573,
      "courtesy": 8574,
      "',": 8575,
      "'-": 8576,
      ",*": 8577,
      "14": 8578,
      "20": 8579,
      "550": 8580,
      "71": 8581,
      "800": 8582,
      "90": 8583,
      "ae": 8584,
      "athe": 8585,
      "bour": 8586,
      "bind": 8587,
      "baf": 8588,
      "bable": 8589,
      "bted": 8590,
      "bark": 8591,
      "bies": 8592,
      "bber": 8593,
      "bended": 8594,
      "bened": 8595,
      "border": 8596,
      "based": 8597,
      "baked": 8598,
      "bison": 8599,
      "bbles": 8600,
      "bbald": 8601,
      "cough": 8602,
      "cull": 8603,
      "cig": 8604,
      "cures": 8605,
      "cared": 8606,
      "cakes": 8607,
      "cured": 8608,
      "cities": 8609,
      "camp": 8610,
      "canted": 8611,
      "dir": 8612,
      "dun": 8613,
      "dong": 8614,
      "dair": 8615,
      "dwell": 8616,
      "dons": 8617,
      "dition": 8618,
      "danced": 8619,
      "daft": 8620,
      "dining": 8621,
      "drenched": 8622,
      "eth": 8623,
      "elo": 8624,
      "eved": 8625,
      "eber": 8626,
      "eking": 8627,
      "evol": 8628,
      "eats": 8629,
      "ella": 8630,
      "ejac": 8631,
      "fis": 8632,
      "fab": 8633,
      "fant": 8634,
      "fren": 8635,
      "filed": 8636,
      "fangs": 8637,
      "fading": 8638,
      "flights": 8639,
      "gou": 8640,
      "gown": 8641,
      "gut": 8642,
      "gning": 8643,
      "gild": 8644,
      "grope": 8645,
      "hin": 8646,
      "han": 8647,
      "hart": 8648,
      "hval": 8649,
      "hides": 8650,
      "iam": 8651,
      "iers": 8652,
      "ige": 8653,
      "ium": 8654,
      "ibid": 8655,
      "jen": 8656,
      "jor": 8657,
      "jail": 8658,
      "jones": 8659,
      "krus": 8660,
      "lish": 8661,
      "lakes": 8662,
      "llies": 8663,
      "luding": 8664,
      "larking": 8665,
      "mand": 8666,
      "mes": 8667,
      "mam": 8668,
      "mout": 8669,
      "mour": 8670,
      "mack": 8671,
      "mach": 8672,
      "merm": 8673,
      "mise": 8674,
      "maw": 8675,
      "mask": 8676,
      "mending": 8677,
      "mitting": 8678,
      "nis": 8679,
      "nad": 8680,
      "nder": 8681,
      "nment": 8682,
      "napping": 8683,
      "ose": 8684,
      "ole": 8685,
      "och": 8686,
      "ored": 8687,
      "ohi": 8688,
      "olive": 8689,
      "oeu": 8690,
      "pout": 8691,
      "pits": 8692,
      "pite": 8693,
      "pation": 8694,
      "phere": 8695,
      "pint": 8696,
      "pays": 8697,
      "plying": 8698,
      "pines": 8699,
      "pshire": 8700,
      "rhe": 8701,
      "ril": 8702,
      "rab": 8703,
      "rable": 8704,
      "rhy": 8705,
      "rallied": 8706,
      "sis": 8707,
      "sow": 8708,
      "sno": 8709,
      "sic": 8710,
      "sart": 8711,
      "sity": 8712,
      "slit": 8713,
      "slic": 8714,
      "swords": 8715,
      "sledge": 8716,
      "saint": 8717,
      "sworn": 8718,
      "snod": 8719,
      "smug": 8720,
      "tast": 8721,
      "tage": 8722,
      "tug": 8723,
      "tending": 8724,
      "tents": 8725,
      "taught": 8726,
      "tapping": 8727,
      "tucked": 8728,
      "ule": 8729,
      "uri": 8730,
      "usi": 8731,
      "uity": 8732,
      "ugn": 8733,
      "udes": 8734,
      "uset": 8735,
      "uates": 8736,
      "uese": 8737,
      "vor": 8738,
      "vort": 8739,
      "vint": 8740,
      "vale": 8741,
      "vane": 8742,
      "vowed": 8743,
      "vines": 8744,
      "wri": 8745,
      "wro": 8746,
      "wart": 8747,
      "wade": 8748,
      "wages": 8749,
      "wrench": 8750,
      "waste": 8751,
      "wrenching": 8752,
      "xity": 8753,
      "xuri": 8754,
      "yt": 8755,
      "ythes": 8756,
      "yrin": 8757,
      "za": 8758,
      "zet": 8759,
      "zones": 8760,
      "thless": 8761,
      "thie": 8762,
      "thund": 8763,
      "theme": 8764,
      "thetic": 8765,
      "ina": 8766,
      "iner": 8767,
      "init": 8768,
      "instr": 8769,
      "inence": 8770,
      "incomp": 8771,
      "inwards": 8772,
      "inating": 8773,
      "insin": 8774,
      "inboard": 8775,
      "inched": 8776,
      "inations": 8777,
      "inspect": 8778,
      "ineness": 8779,
      "inmates": 8780,
      "inople": 8781,
      "inconsiderable": 8782,
      "inhab": 8783,
      "inlaid": 8784,
      "inclosed": 8785,
      "invaluable": 8786,
      "insignificant": 8787,
      "infil": 8788,
      "incommunic": 8789,
      "incorrupt": 8790,
      "incapable": 8791,
      "inscript": 8792,
      "injustice": 8793,
      "inordinate": 8794,
      "inois": 8795,
      "inseparable": 8796,
      "ana": 8797,
      "anut": 8798,
      "anite": 8799,
      "era": 8800,
      "erman": 8801,
      "erated": 8802,
      "erud": 8803,
      "erously": 8804,
      "ato": 8805,
      "atter": 8806,
      "attain": 8807,
      "attained": 8808,
      "atoes": 8809,
      "rev": 8810,
      "reli": 8811,
      "resh": 8812,
      "reap": 8813,
      "reast": 8814,
      "resid": 8815,
      "restri": 8816,
      "reced": 8817,
      "recomm": 8818,
      "reject": 8819,
      "recent": 8820,
      "relin": 8821,
      "retri": 8822,
      "respir": 8823,
      "request": 8824,
      "refill": 8825,
      "resides": 8826,
      "restrain": 8827,
      "resul": 8828,
      "recept": 8829,
      "represented": 8830,
      "rejoined": 8831,
      "replacing": 8832,
      "recoil": 8833,
      "reaped": 8834,
      "remembr": 8835,
      "receives": 8836,
      "researches": 8837,
      "stow": 8838,
      "stil": 8839,
      "stam": 8840,
      "stup": 8841,
      "stur": 8842,
      "stare": 8843,
      "stash": 8844,
      "stating": 8845,
      "straw": 8846,
      "stol": 8847,
      "stowed": 8848,
      "staves": 8849,
      "edition": 8850,
      "edict": 8851,
      "edges": 8852,
      "eddies": 8853,
      "edmund": 8854,
      "ouder": 8855,
      "alow": 8856,
      "alman": 8857,
      "alted": 8858,
      "alously": 8859,
      "altered": 8860,
      "aloud": 8861,
      "almighty": 8862,
      "alps": 8863,
      "albin": 8864,
      "inged": 8865,
      "engen": 8866,
      "enlar": 8867,
      "enlarge": 8868,
      "enstern": 8869,
      "enrolled": 8870,
      "enlist": 8871,
      "enabled": 8872,
      "isel": 8873,
      "isite": 8874,
      "isms": 8875,
      "ara": 8876,
      "aris": 8877,
      "argo": 8878,
      "arious": 8879,
      "arrested": 8880,
      "arose": 8881,
      "orange": 8882,
      "orrah": 8883,
      "toed": 8884,
      "toilet": 8885,
      "whet": 8886,
      "asher": 8887,
      "assigned": 8888,
      "escope": 8889,
      "essex": 8890,
      "itters": 8891,
      "itates": 8892,
      "seap": 8893,
      "seque": 8894,
      "seiz": 8895,
      "secluded": 8896,
      "leo": 8897,
      "lees": 8898,
      "levels": 8899,
      "hebrew": 8900,
      "omet": 8901,
      "omeness": 8902,
      "omnis": 8903,
      "cham": 8904,
      "chise": 8905,
      "chuck": 8906,
      "chol": 8907,
      "chamb": 8908,
      "chamber": 8909,
      "chairs": 8910,
      "chuset": 8911,
      "chisel": 8912,
      "bees": 8913,
      "beck": 8914,
      "belike": 8915,
      "beak": 8916,
      "beats": 8917,
      "belled": 8918,
      "bells": 8919,
      "behoo": 8920,
      "befallen": 8921,
      "ilit": 8922,
      "iless": 8923,
      "ilitude": 8924,
      "ileries": 8925,
      "iluvian": 8926,
      "ada": 8927,
      "ady": 8928,
      "ader": 8929,
      "adem": 8930,
      "adings": 8931,
      "adding": 8932,
      "advoc": 8933,
      "imple": 8934,
      "imprec": 8935,
      "imming": 8936,
      "immut": 8937,
      "impot": 8938,
      "improve": 8939,
      "implement": 8940,
      "immac": 8941,
      "impersonal": 8942,
      "imony": 8943,
      "immovable": 8944,
      "ghan": 8945,
      "buy": 8946,
      "bulls": 8947,
      "busily": 8948,
      "hiss": 8949,
      "allured": 8950,
      "lione": 8951,
      "libr": 8952,
      "lids": 8953,
      "livid": 8954,
      "likes": 8955,
      "livers": 8956,
      "liament": 8957,
      "versed": 8958,
      "verbal": 8959,
      "wich": 8960,
      "cease": 8961,
      "ceti": 8962,
      "cells": 8963,
      "ceasing": 8964,
      "cetus": 8965,
      "fork": 8966,
      "forks": 8967,
      "forci": 8968,
      "forging": 8969,
      "forces": 8970,
      "forbidding": 8971,
      "dew": 8972,
      "decap": 8973,
      "deline": 8974,
      "delay": 8975,
      "devious": 8976,
      "deformed": 8977,
      "deified": 8978,
      "demonstr": 8979,
      "devices": 8980,
      "degenerated": 8981,
      "vexed": 8982,
      "iro": 8983,
      "irst": 8984,
      "shy": 8985,
      "shone": 8986,
      "shorn": 8987,
      "sharing": 8988,
      "shank": 8989,
      "shaft": 8990,
      "shalt": 8991,
      "cklu": 8992,
      "withal": 8993,
      "withdrew": 8994,
      "unri": 8995,
      "uncom": 8996,
      "uncl": 8997,
      "uninter": 8998,
      "unching": 8999,
      "unken": 9000,
      "unmind": 9001,
      "unrest": 9002,
      "unbroken": 9003,
      "unmist": 9004,
      "unerr": 9005,
      "unpleasant": 9006,
      "uncivilized": 9007,
      "undressed": 9008,
      "unfrequently": 9009,
      "untouched": 9010,
      "unsupplied": 9011,
      "unrelieved": 9012,
      "uncomfortable": 9013,
      "unexpected": 9014,
      "uncounted": 9015,
      "unceas": 9016,
      "unattended": 9017,
      "unheeded": 9018,
      "unavoid": 9019,
      "unprovided": 9020,
      "undoubted": 9021,
      "unreasoning": 9022,
      "unwaning": 9023,
      "unabated": 9024,
      "ungodly": 9025,
      "unbidden": 9026,
      "unsavory": 9027,
      "unmanufactured": 9028,
      "unerring": 9029,
      "unquestionable": 9030,
      "abed": 9031,
      "abra": 9032,
      "abstr": 9033,
      "abide": 9034,
      "abilities": 9035,
      "abreast": 9036,
      "bution": 9037,
      "rio": 9038,
      "rily": 9039,
      "ride": 9040,
      "rider": 9041,
      "rival": 9042,
      "riding": 9043,
      "rivers": 9044,
      "ricane": 9045,
      "amster": 9046,
      "ample": 9047,
      "ambit": 9048,
      "amented": 9049,
      "teries": 9050,
      "terior": 9051,
      "moor": 9052,
      "mody": 9053,
      "aphy": 9054,
      "april": 9055,
      "roast": 9056,
      "roko": 9057,
      "roots": 9058,
      "kees": 9059,
      "kels": 9060,
      "suf": 9061,
      "sus": 9062,
      "sob": 9063,
      "soot": 9064,
      "soaked": 9065,
      "quish": 9066,
      "quies": 9067,
      "quaint": 9068,
      "quakers": 9069,
      "spat": 9070,
      "sped": 9071,
      "spind": 9072,
      "spher": 9073,
      "spake": 9074,
      "spans": 9075,
      "spacious": 9076,
      "spices": 9077,
      "oneer": 9078,
      "onest": 9079,
      "aging": 9080,
      "agents": 9081,
      "agency": 9082,
      "idle": 9083,
      "idleness": 9084,
      "etc": 9085,
      "etrable": 9086,
      "boist": 9087,
      "bodim": 9088,
      "boasted": 9089,
      "astir": 9090,
      "astron": 9091,
      "outright": 9092,
      "outset": 9093,
      "noted": 9094,
      "notes": 9095,
      "notorious": 9096,
      "himmale": 9097,
      "wee": 9098,
      "weave": 9099,
      "icic": 9100,
      "iciously": 9101,
      "icism": 9102,
      "essays": 9103,
      "essential": 9104,
      "fritters": 9105,
      "poke": 9106,
      "poise": 9107,
      "poets": 9108,
      "posted": 9109,
      "poised": 9110,
      "poky": 9111,
      "poetic": 9112,
      "police": 9113,
      "illinois": 9114,
      "mexic": 9115,
      "ometer": 9116,
      "manip": 9117,
      "manif": 9118,
      "manage": 9119,
      "manhandle": 9120,
      "manoeu": 9121,
      "urus": 9122,
      "urry": 9123,
      "urged": 9124,
      "haunts": 9125,
      "hacklu": 9126,
      "accomp": 9127,
      "acings": 9128,
      "acled": 9129,
      "aciously": 9130,
      "acres": 9131,
      "acier": 9132,
      "conc": 9133,
      "conge": 9134,
      "conco": 9135,
      "conden": 9136,
      "confound": 9137,
      "contest": 9138,
      "conceived": 9139,
      "constrain": 9140,
      "convert": 9141,
      "consecut": 9142,
      "consume": 9143,
      "consuming": 9144,
      "confluent": 9145,
      "conversed": 9146,
      "feje": 9147,
      "fearing": 9148,
      "female": 9149,
      "neut": 9150,
      "neath": 9151,
      "sau": 9152,
      "antilles": 9153,
      "sied": 9154,
      "siber": 9155,
      "sibbald": 9156,
      "signing": 9157,
      "perry": 9158,
      "perple": 9159,
      "perform": 9160,
      "perches": 9161,
      "persist": 9162,
      "perpet": 9163,
      "performing": 9164,
      "perceiving": 9165,
      "peruvian": 9166,
      "perdition": 9167,
      "peas": 9168,
      "pell": 9169,
      "peak": 9170,
      "pelt": 9171,
      "pecks": 9172,
      "peaked": 9173,
      "pepper": 9174,
      "peaks": 9175,
      "ulted": 9176,
      "ulting": 9177,
      "emi": 9178,
      "emir": 9179,
      "embrace": 9180,
      "embodim": 9181,
      "onged": 9182,
      "ify": 9183,
      "loit": 9184,
      "lovers": 9185,
      "gore": 9186,
      "raven": 9187,
      "yell": 9188,
      "yelling": 9189,
      "complain": 9190,
      "composed": 9191,
      "combing": 9192,
      "ishments": 9193,
      "dial": 9194,
      "dily": 9195,
      "dious": 9196,
      "diame": 9197,
      "dives": 9198,
      "direst": 9199,
      "fog": 9200,
      "blame": 9201,
      "blings": 9202,
      "bliss": 9203,
      "shipwrecked": 9204,
      "plag": 9205,
      "plish": 9206,
      "plus": 9207,
      "plaster": 9208,
      "plucked": 9209,
      "queerest": 9210,
      "prefer": 9211,
      "preaching": 9212,
      "preluding": 9213,
      "gested": 9214,
      "uting": 9215,
      "uten": 9216,
      "utest": 9217,
      "uttered": 9218,
      "evermore": 9219,
      "dering": 9220,
      "excess": 9221,
      "exca": 9222,
      "expat": 9223,
      "extermin": 9224,
      "expressive": 9225,
      "extingu": 9226,
      "exalted": 9227,
      "exterior": 9228,
      "exulting": 9229,
      "dox": 9230,
      "aky": 9231,
      "overtake": 9232,
      "trated": 9233,
      "trade": 9234,
      "tract": 9235,
[...]
