{
  "version": "1.0",
  "truncation": null,
  "padding": null,
  "added_tokens": [
    {
      "id": 0,
      "content": "[UNK]",
      "single_word": false,
      "lstrip": false,
      "rstrip": false,
      "normalized": false,
      "special": true
    },
    {
      "id": 1,
      "content": "[CLS]",
      "single_word": false,
      "lstrip": false,
      "rstrip": false,
      "normalized": false,
      "special": true
    },
    {
      "id": 2,
      "content": "[SEP]",
      "single_word": false,
      "lstrip": false,
      "rstrip": false,
      "normalized": false,
      "special": true
    },
    {
      "id": 3,
      "content": "[PAD]",
      "single_word": false,
      "lstrip": false,
      "rstrip": false,
      "normalized": false,
      "special": true
    },
    {
      "id": 4,
      "content": "[MASK]",
      "single_word": false,
      "lstrip": false,
      "rstrip": false,
      "normalized": false,
      "special": true
    }
  ],
  "normalizer": {
    "type": "Lowercase"
  },
  "pre_tokenizer": {
    "type": "Whitespace"
  },
  "post_processor": null,
  "decoder": null,
  "model": {
    "type": "WordPiece",
    "unk_token": "[UNK]",
    "continuing_subword_prefix": "##",
    "max_input_chars_per_word": 100,
    "vocab": {
      "[UNK]": 0,
      "[CLS]": 1,
      "[SEP]": 2,
      "[PAD]": 3,
      "[MASK]": 4,
      "!": 5,
      "\"": 6,
      "$": 7,
      "&": 8,
      "'": 9,
      "(": 10,
      ")": 11,
      "*": 12,
      ",": 13,
      "-": 14,
      ".": 15,
      "0": 16,
      "1": 17,
      "2": 18,
      "3": 19,
      "4": 20,
      "5": 21,
      "6": 22,
      "7": 23,
      "8": 24,
      "9": 25,
      ":": 26,
      ";": 27,
      "?": 28,
      "[": 29,
      "]": 30,
      "_": 31,
      "a": 32,
      "b": 33,
      "c": 34,
      "d": 35,
      "e": 36,
      "f": 37,
      "g": 38,
      "h": 39,
      "i": 40,
      "j": 41,
      "k": 42,
      "l": 43,
      "m": 44,
      "n": 45,
      "o": 46,
      "p": 47,
      "q": 48,
      "r": 49,
      "s": 50,
      "t": 51,
      "u": 52,
      "v": 53,
      "w": 54,
      "x": 55,
      "y": 56,
      "z": 57,
      "##o": 58,
      "##l": 59,
      "##d": 60,
      "##n": 61,
      "##e": 62,
      "##s": 63,
      "##y": 64,
      "##t": 65,
      "##m": 66,
      "##i": 67,
      "##z": 68,
      "##u": 69,
      "##c": 70,
      "##p": 71,
      "##a": 72,
      "##g": 73,
      "##r": 74,
      "##k": 75,
      "##h": 76,
      "##w": 77,
      "##v": 78,
      "##b": 79,
      "##q": 80,
      "##x": 81,
      "##f": 82,
      "##3": 83,
      "##j": 84,
      "##2": 85,
      "##-": 86,
      "##8": 87,
      "##1": 88,
      "##6": 89,
      "##5": 90,
      "##)": 91,
      "##\"": 92,
      "##0": 93,
      "##7": 94,
      "##'": 95,
      "##9": 96,
      "##4": 97,
      "##,": 98,
      "##_": 99,
      "##;": 100,
      "##:": 101,
      "##]": 102,
      "##*": 103,
      "##.": 104,
      "##(": 105,
      "th": 106,
      "the": 107,
      "##er": 108,
      "##in": 109,
      "##nd": 110,
      "##ed": 111,
      "##at": 112,
      "##ing": 113,
      "##es": 114,
      "##ou": 115,
      "##en": 116,
      "of": 117,
      "##or": 118,
      "##ar": 119,
      "##is": 120,
      "and": 121,
      "##on": 122,
      "in": 123,
      "##ll": 124,
      "##an": 125,
      "wh": 126,
      "to": 127,
      "##as": 128,
      "##re": 129,
      "##it": 130,
      "##le": 131,
      "##om": 132,
      "##ow": 133,
      "he": 134,
      "##ut": 135,
      "be": 136,
      "that": 137,
      "st": 138,
      "##ly": 139,
      "it": 140,
      "##ad": 141,
      "##al": 142,
      "##ch": 143,
      "##gh": 144,
      "##st": 145,
      "##et": 146,
      "his": 147,
      "on": 148,
      "##ot": 149,
      "##im": 150,
      "##se": 151,
      "##ld": 152,
      "for": 153,
      "se": 154,
      "##ith": 155,
      "##ce": 156,
      "##id": 157,
      "##ck": 158,
      "##ir": 159,
      "sh": 160,
      "as": 161,
      "##ur": 162,
      "##ent": 163,
      "with": 164,
      "##ve": 165,
      "##ay": 166,
      "##ver": 167,
      "is": 168,
      "but": 169,
      "##ain": 170,
      "##ght": 171,
      "was": 172,
      "ha": 173,
      "##ter": 174,
      "##il": 175,
      "all": 176,
      "##oo": 177,
      "##ale": 178,
      "so": 179,
      "at": 180,
      "##ere": 181,
      "an": 182,
      "##ic": 183,
      "##ab": 184,
      "fr": 185,
      "##th": 186,
      "this": 187,
      "##ion": 188,
      "##ap": 189,
      "re": 190,
      "li": 191,
      "su": 192,
      "##ess": 193,
      "whale": 194,
      "##ke": 195,
      "##am": 196,
      "not": 197,
      "##all": 198,
      "you": 199,
      "him": 200,
      "sp": 201,
      "by": 202,
      "##ill": 203,
      "de": 204,
      "up": 205,
      "##ast": 206,
      "--": 207,
      "##ous": 208,
      "##ight": 209,
      "##ip": 210,
      "##ro": 211,
      "##ore": 212,
      "from": 213,
      "##ard": 214,
      "##est": 215,
      "##ct": 216,
      "##and": 217,
      "##ul": 218,
      "##ome": 219,
      "me": 220,
      "bo": 221,
      "ch": 222,
      "sa": 223,
      "there": 224,
      "##ri": 225,
      "##ant": 226,
      "##ue": 227,
      "##ag": 228,
      "we": 229,
      "one": 230,
      "con": 231,
      "whi": 232,
      "##ould": 233,
      "##ers": 234,
      "or": 235,
      "##ong": 236,
      "le": 237,
      "thou": 238,
      "##em": 239,
      "man": 240,
      "al": 241,
      "now": 242,
      "##el": 243,
      "un": 244,
      "had": 245,
      "##ound": 246,
      "##art": 247,
      "have": 248,
      "##ra": 249,
      "no": 250,
      "ne": 251,
      "##ish": 252,
      "##um": 253,
      "##ost": 254,
      "my": 255,
      "some": 256,
      "##un": 257,
      "were": 258,
      "com": 259,
      "##us": 260,
      "int": 261,
      "##out": 262,
      "ship": 263,
      "like": 264,
      "what": 265,
      "they": 266,
      "##own": 267,
      "out": 268,
      "ye": 269,
      "which": 270,
      "##ak": 271,
      "##ath": 272,
      "when": 273,
      "then": 274,
      "their": 275,
      "go": 276,
      "who": 277,
      "##sel": 278,
      "##ust": 279,
      "ex": 280,
      "are": 281,
      "##tain": 282,
      "fe": 283,
      "en": 284,
      "po": 285,
      "do": 286,
      "##ook": 287,
      "bl": 288,
      "pl": 289,
      "##ood": 290,
      "ah": 291,
      "##po": 292,
      "##ig": 293,
      "##ist": 294,
      "fl": 295,
      "upon": 296,
      "##ort": 297,
      "##ind": 298,
      "##pe": 299,
      "ab": 300,
      "##if": 301,
      "##ther": 302,
      "##one": 303,
      "into": 304,
      "them": 305,
      "ag": 306,
      "co": 307,
      "##--": 308,
      "more": 309,
      "##qu": 310,
      "##ack": 311,
      "##ate": 312,
      "over": 313,
      "ahab": 314,
      "wor": 315,
      "head": 316,
      "##ame": 317,
      "gre": 318,
      "##ac": 319,
      "cap": 320,
      "##ep": 321,
      "ro": 322,
      "##ious": 323,
      "##able": 324,
      "##ine": 325,
      "##ery": 326,
      ".\"": 327,
      "ever": 328,
      "##uck": 329,
      "ho": 330,
      "boat": 331,
      "af": 332,
      "if": 333,
      "tr": 334,
      "##ide": 335,
      "pe": 336,
      "tim": 337,
      "pro": 338,
      "##ge": 339,
      "seem": 340,
      "str": 341,
      "kn": 342,
      "sea": 343,
      "##ally": 344,
      "ar": 345,
      "old": 346,
      "##ite": 347,
      "pr": 348,
      "##our": 349,
      "sw": 350,
      "##ven": 351,
      "would": 352,
      "whal": 353,
      "other": 354,
      "can": 355,
      "##ub": 356,
      "tw": 357,
      "##ies": 358,
      "##ance": 359,
      "##ation": 360,
      "##ie": 361,
      "##ings": 362,
      "##ive": 363,
      "##erm": 364,
      "##eth": 365,
      "##ity": 366,
      "##ted": 367,
      "hand": 368,
      "##self": 369,
      "been": 370,
      "will": 371,
      "##ark": 372,
      "down": 373,
      "##ib": 374,
      "am": 375,
      "##ull": 376,
      "her": 377,
      "these": 378,
      "##ward": 379,
      "any": 380,
      "qu": 381,
      "again": 382,
      "##per": 383,
      "wat": 384,
      "##ose": 385,
      "##ake": 386,
      "though": 387,
      "##od": 388,
      "##ud": 389,
      "##ass": 390,
      "##fore": 391,
      "##ree": 392,
      "##ving": 393,
      "its": 394,
      "only": 395,
      "how": 396,
      "##oth": 397,
      "##ough": 398,
      "long": 399,
      "##ol": 400,
      "look": 401,
      "gr": 402,
      "##nder": 403,
      "such": 404,
      "per": 405,
      "##ning": 406,
      "cl": 407,
      "br": 408,
      "##ure": 409,
      "##ace": 410,
      "##way": 411,
      "##ars": 412,
      "##tle": 413,
      "here": 414,
      "##ated": 415,
      "sail": 416,
      "thr": 417,
      "##oun": 418,
      "captain": 419,
      "##ick": 420,
      "sc": 421,
      "cr": 422,
      "yet": 423,
      "##ach": 424,
      "see": 425,
      "##wn": 426,
      "##ell": 427,
      "##ink": 428,
      "##ubb": 429,
      "##ness": 430,
      "great": 431,
      "time": 432,
      "##ss": 433,
      "im": 434,
      "us": 435,
      "har": 436,
      "say": 437,
      "##age": 438,
      "que": 439,
      "##ved": 440,
      "than": 441,
      "very": 442,
      "sl": 443,
      "!\"": 444,
      "still": 445,
      "part": 446,
      "##pp": 447,
      "gl": 448,
      "ind": 449,
      "off": 450,
      "about": 451,
      "##ves": 452,
      "##ft": 453,
      ",\"": 454,
      "##que": 455,
      "those": 456,
      "after": 457,
      "pre": 458,
      "sm": 459,
      "said": 460,
      "did": 461,
      "##ire": 462,
      "two": 463,
      "before": 464,
      "has": 465,
      "##ff": 466,
      "must": 467,
      "##arb": 468,
      "most": 469,
      "way": 470,
      "##anc": 471,
      "your": 472,
      "fish": 473,
      "where": 474,
      "##cc": 475,
      "##ord": 476,
      "ey": 477,
      "fir": 478,
      "last": 479,
      "white": 480,
      "seemed": 481,
      "##ise": 482,
      "##ild": 483,
      "cre": 484,
      "##urn": 485,
      "ad": 486,
      "##ence": 487,
      "##ting": 488,
      "whales": 489,
      "stubb": 490,
      "comp": 491,
      "lit": 492,
      "sperm": 493,
      "car": 494,
      "day": 495,
      "##ang": 496,
      "every": 497,
      "round": 498,
      "##led": 499,
      "lo": 500,
      "##ows": 501,
      "?\"": 502,
      "may": 503,
      "never": 504,
      "harpo": 505,
      "##ade": 506,
      "##eque": 507,
      "queeque": 508,
      "queequeg": 509,
      "men": 510,
      "##ful": 511,
      "##ried": 512,
      "little": 513,
      "dis": 514,
      "mu": 515,
      "##ect": 516,
      "##less": 517,
      "while": 518,
      "##au": 519,
      "three": 520,
      "through": 521,
      "might": 522,
      "side": 523,
      "own": 524,
      "##oy": 525,
      "##ling": 526,
      "##les": 527,
      "##man": 528,
      "##igh": 529,
      "too": 530,
      "ste": 531,
      "first": 532,
      "##ans": 533,
      "##ash": 534,
      "well": 535,
      "##ail": 536,
      "stand": 537,
      "cont": 538,
      "mo": 539,
      "##ary": 540,
      "spe": 541,
      "our": 542,
      "could": 543,
      "good": 544,
      "##most": 545,
      "being": 546,
      "rem": 547,
      "##te": 548,
      "much": 549,
      "fo": 550,
      "##vi": 551,
      "##iz": 552,
      "back": 553,
      "ob": 554,
      "deck": 555,
      "##ied": 556,
      "starb": 557,
      "comm": 558,
      "som": 559,
      "same": 560,
      "chap": 561,
      "even": 562,
      "should": 563,
      "dr": 564,
      "##ty": 565,
      "##ions": 566,
      "em": 567,
      "##ern": 568,
      "himself": 569,
      "des": 570,
      "cons": 571,
      "##fe": 572,
      "bet": 573,
      "inst": 574,
      "call": 575,
      "##ons": 576,
      "##ory": 577,
      "starbuck": 578,
      "##ering": 579,
      "##ors": 580,
      "##ase": 581,
      "water": 582,
      "##aw": 583,
      "almost": 584,
      "mat": 585,
      "##men": 586,
      "##ks": 587,
      "nor": 588,
      "##wards": 589,
      "##ered": 590,
      "pres": 591,
      "res": 592,
      "##ry": 593,
      "thought": 594,
      "let": 595,
      "##op": 596,
      "##cl": 597,
      "##ular": 598,
      "know": 599,
      "far": 600,
      "thing": 601,
      "sub": 602,
      "god": 603,
      "##ign": 604,
      "##ether": 605,
      "##ible": 606,
      "world": 607,
      "away": 608,
      "##ci": 609,
      "##ens": 610,
      "##ment": 611,
      "bre": 612,
      "##orn": 613,
      "chapter": 614,
      "come": 615,
      "##ah": 616,
      "made": 617,
      "sir": 618,
      "##int": 619,
      "##pt": 620,
      "ke": 621,
      "inter": 622,
      "##ical": 623,
      "end": 624,
      "##ever": 625,
      "acc": 626,
      "wo": 627,
      "##ped": 628,
      "think": 629,
      "life": 630,
      "##llow": 631,
      "##quod": 632,
      "pequod": 633,
      "sou": 634,
      "##ian": 635,
      "##ating": 636,
      "she": 637,
      "##aking": 638,
      "sort": 639,
      "##ily": 640,
      "##co": 641,
      "wind": 642,
      "hea": 643,
      "##ph": 644,
      "among": 645,
      "land": 646,
      "night": 647,
      "pass": 648,
      "##land": 649,
      "many": 650,
      "right": 651,
      "tell": 652,
      "bel": 653,
      "seen": 654,
      "turn": 655,
      "bec": 656,
      "sk": 657,
      "line": 658,
      "op": 659,
      "##iv": 660,
      "ay": 661,
      "low": 662,
      "mast": 663,
      "oh": 664,
      "under": 665,
      "sun": 666,
      "##red": 667,
      "##ble": 668,
      "crew": 669,
      "fa": 670,
      "without": 671,
      "eyes": 672,
      "cried": 673,
      "##hing": 674,
      "heart": 675,
      "aye": 676,
      "high": 677,
      "light": 678,
      "##ber": 679,
      "##ock": 680,
      "##atur": 681,
      "##other": 682,
      "##der": 683,
      "##als": 684,
      "##ched": 685,
      "bod": 686,
      "dist": 687,
      "##ced": 688,
      "##we": 689,
      "inv": 690,
      "arm": 691,
      "##ount": 692,
      "small": 693,
      "##den": 694,
      "##by": 695,
      "once": 696,
      "##ently": 697,
      "##ather": 698,
      "imp": 699,
      "sur": 700,
      "##ask": 701,
      "##ucket": 702,
      "boats": 703,
      "air": 704,
      "full": 705,
      "hal": 706,
      "##ange": 707,
      "hold": 708,
      "cur": 709,
      "##ener": 710,
      "##ung": 711,
      "##ice": 712,
      "!--": 713,
      "##og": 714,
      "soon": 715,
      "don": 716,
      "sle": 717,
      "mon": 718,
      "te": 719,
      "##he": 720,
      "##ching": 721,
      "##irc": 722,
      "sn": 723,
      "hands": 724,
      "##ene": 725,
      "##are": 726,
      "hum": 727,
      "ins": 728,
      "##pect": 729,
      "bro": 730,
      "jo": 731,
      "mar": 732,
      "##eng": 733,
      "ir": 734,
      "take": 735,
      "thy": 736,
      "along": 737,
      "near": 738,
      "whole": 739,
      "ent": 740,
      "black": 741,
      "harpoone": 742,
      "half": 743,
      "##az": 744,
      "leg": 745,
      "found": 746,
      "till": 747,
      "wr": 748,
      "##wh": 749,
      "beg": 750,
      "circ": 751,
      "pur": 752,
      "##pl": 753,
      "##ertain": 754,
      "against": 755,
      "hard": 756,
      "##ial": 757,
      "##ged": 758,
      "##king": 759,
      "##fer": 760,
      "thus": 761,
      "##ix": 762,
      "things": 763,
      "##ances": 764,
      "voy": 765,
      "thee": 766,
      "whaling": 767,
      "came": 768,
      "just": 769,
      "##ations": 770,
      "nant": 771,
      "form": 772,
      "##aps": 773,
      "each": 774,
      "get": 775,
      "nantucket": 776,
      "ear": 777,
      "##mm": 778,
      "##oment": 779,
      "feet": 780,
      "strange": 781,
      "moment": 782,
      "##ething": 783,
      "pip": 784,
      "wa": 785,
      "app": 786,
      "both": 787,
      "el": 788,
      "fore": 789,
      "fin": 790,
      "something": 791,
      "cra": 792,
      "certain": 793,
      "hel": 794,
      "##ady": 795,
      "##ters": 796,
      "levi": 797,
      "new": 798,
      "leviath": 799,
      "set": 800,
      "sight": 801,
      "dead": 802,
      "##ause": 803,
      "##ingly": 804,
      "betwe": 805,
      "##ength": 806,
      "between": 807,
      "gener": 808,
      "hu": 809,
      "##ress": 810,
      "why": 811,
      "##ason": 812,
      "saw": 813,
      "##eless": 814,
      "eng": 815,
      "place": 816,
      "##ways": 817,
      "lar": 818,
      "##ping": 819,
      "##aring": 820,
      "consid": 821,
      "bed": 822,
      "##ying": 823,
      "##iness": 824,
      "inc": 825,
      "##itud": 826,
      "nothing": 827,
      "poor": 828,
      "called": 829,
      "hor": 830,
      "another": 831,
      "inde": 832,
      "eye": 833,
      "ll": 834,
      "##ken": 835,
      "towards": 836,
      "##ict": 837,
      "present": 838,
      "##ten": 839,
      "roll": 840,
      "make": 841,
      "times": 842,
      "##ds": 843,
      "##so": 844,
      "##oub": 845,
      "##lish": 846,
      "heard": 847,
      "##ides": 848,
      "feel": 849,
      "cann": 850,
      "##arks": 851,
      "body": 852,
      "run": 853,
      "##cul": 854,
      "##ject": 855,
      "##ific": 856,
      "hun": 857,
      "war": 858,
      "##av": 859,
      "flask": 860,
      "fur": 861,
      "##orm": 862,
      "reg": 863,
      "dev": 864,
      "deep": 865,
      "##ross": 866,
      "instant": 867,
      "##ps": 868,
      "inf": 869,
      "##ained": 870,
      "ere": 871,
      "##ts": 872,
      "##ug": 873,
      "##ition": 874,
      "soul": 875,
      "leviathan": 876,
      "dark": 877,
      "lay": 878,
      "##vent": 879,
      "##ane": 880,
      "shall": 881,
      "open": 882,
      "wild": 883,
      "##alm": 884,
      "##tern": 885,
      "sup": 886,
      "##pose": 887,
      "voyage": 888,
      "cab": 889,
      "mor": 890,
      "mind": 891,
      "##ile": 892,
      "##ature": 893,
      "sleep": 894,
      "bur": 895,
      "##spe": 896,
      "##vel": 897,
      "spout": 898,
      "del": 899,
      "boy": 900,
      "##pos": 901,
      "heads": 902,
      "green": 903,
      "cut": 904,
      "mid": 905,
      "ter": 906,
      "##ates": 907,
      "##ets": 908,
      "bow": 909,
      "##its": 910,
      "##imes": 911,
      "##ither": 912,
      "##ured": 913,
      "oce": 914,
      "ph": 915,
      "##os": 916,
      "##ared": 917,
      "does": 918,
      ",--": 919,
      "went": 920,
      "##ual": 921,
      "##ank": 922,
      "##akes": 923,
      "length": 924,
      "##dden": 925,
      "years": 926,
      "poss": 927,
      "dra": 928,
      "face": 929,
      "ret": 930,
      "##iar": 931,
      "stri": 932,
      "seas": 933,
      "spr": 934,
      "--\"": 935,
      "few": 936,
      "however": 937,
      "keep": 938,
      "id": 939,
      "##ened": 940,
      "##ising": 941,
      "att": 942,
      "sudden": 943,
      "mean": 944,
      "cor": 945,
      "oil": 946,
      "tou": 947,
      "##ches": 948,
      "##ult": 949,
      "exce": 950,
      "cle": 951,
      "jon": 952,
      "put": 953,
      "sign": 954,
      "##amp": 955,
      "death": 956,
      "##ush": 957,
      "because": 958,
      "fast": 959,
      "four": 960,
      "##iver": 961,
      "##nded": 962,
      "whether": 963,
      "also": 964,
      "plain": 965,
      "swe": 966,
      "tail": 967,
      "##uff": 968,
      "##ave": 969,
      "stood": 970,
      "##ably": 971,
      "board": 972,
      "conc": 973,
      "ap": 974,
      "act": 975,
      "dre": 976,
      "jaw": 977,
      "##haps": 978,
      "going": 979,
      "perhaps": 980,
      "indeed": 981,
      "##ents": 982,
      "point": 983,
      "iron": 984,
      "cabin": 985,
      "bul": 986,
      "bene": 987,
      "doub": 988,
      "gi": 989,
      "sin": 990,
      "sing": 991,
      "sil": 992,
      "##ove": 993,
      "##air": 994,
      "##ging": 995,
      "##wing": 996,
      "beh": 997,
      "start": 998,
      "stra": 999,
      "##etimes": 1000,
      "##tered": 1001,
      "##ished": 1002,
      "ships": 1003,
      "whose": 1004,
      "flo": 1005,
      "##iously": 1006,
      "true": 1007,
      "seems": 1008,
      "harpoon": 1009,
      "sometimes": 1010,
      "matter": 1011,
      "large": 1012,
      "give": 1013,
      "mou": 1014,
      "pull": 1015,
      "##ool": 1016,
      "best": 1017,
      "mark": 1018,
      "rest": 1019,
      "yes": 1020,
      "##ked": 1021,
      "##be": 1022,
      "jonah": 1023,
      "dick": 1024,
      "hour": 1025,
      "main": 1026,
      "par": 1027,
      "ves": 1028,
      "##ng": 1029,
      "##act": 1030,
      "hear": 1031,
      "itself": 1032,
      "young": 1033,
      "aff": 1034,
      "moby": 1035,
      "command": 1036,
      "entire": 1037,
      "kill": 1038,
      "sound": 1039,
      "##oard": 1040,
      "##ces": 1041,
      "##leg": 1042,
      "##ott": 1043,
      "devil": 1044,
      "dro": 1045,
      "dart": 1046,
      "hat": 1047,
      "ser": 1048,
      "tur": 1049,
      "ass": 1050,
      "##ains": 1051,
      "##selves": 1052,
      "days": 1053,
      "standing": 1054,
      "ocean": 1055,
      "bus": 1056,
      "##nding": 1057,
      "hamm": 1058,
      "##ically": 1059,
      "##ief": 1060,
      "sailor": 1061,
      "harpooneer": 1062,
      "mouth": 1063,
      "vessel": 1064,
      "fire": 1065,
      "tre": 1066,
      "wood": 1067,
      "reason": 1068,
      "always": 1069,
      "pecul": 1070,
      "known": 1071,
      "peculiar": 1072,
      "mate": 1073,
      "##go": 1074,
      "##esh": 1075,
      "##eness": 1076,
      "top": 1077,
      "sec": 1078,
      "##ures": 1079,
      "within": 1080,
      "che": 1081,
      "char": 1082,
      "blood": 1083,
      "col": 1084,
      "prof": 1085,
      "##irect": 1086,
      "book": 1087,
      "ele": 1088,
      "mis": 1089,
      "vis": 1090,
      "stre": 1091,
      "sol": 1092,
      "unc": 1093,
      "##ually": 1094,
      "##ines": 1095,
      "##ative": 1096,
      "##ities": 1097,
      "##umb": 1098,
      "ext": 1099,
      "word": 1100,
      "comple": 1101,
      "circum": 1102,
      "?--": 1103,
      "bild": 1104,
      "mr": 1105,
      "occ": 1106,
      "squ": 1107,
      "##ont": 1108,
      "##icular": 1109,
      "rep": 1110,
      "least": 1111,
      "##ract": 1112,
      "enough": 1113,
      "art": 1114,
      "beneath": 1115,
      "bildad": 1116,
      "##uth": 1117,
      "##ster": 1118,
      "living": 1119,
      "super": 1120,
      "sav": 1121,
      "##agg": 1122,
      "##aken": 1123,
      "prec": 1124,
      "##itude": 1125,
      "done": 1126,
      "name": 1127,
      "port": 1128,
      "sy": 1129,
      "sat": 1130,
      "vast": 1131,
      "##ew": 1132,
      "##ier": 1133,
      "##owed": 1134,
      "short": 1135,
      "live": 1136,
      "exp": 1137,
      "peleg": 1138,
      "##aught": 1139,
      "heaven": 1140,
      "##atural": 1141,
      "##head": 1142,
      "morning": 1143,
      "find": 1144,
      "gent": 1145,
      "sim": 1146,
      "vo": 1147,
      "often": 1148,
      "steel": 1149,
      "case": 1150,
      "lad": 1151,
      "lord": 1152,
      "rather": 1153,
      "##ne": 1154,
      "##ner": 1155,
      "##ned": 1156,
      "##su": 1157,
      "##ined": 1158,
      "##ones": 1159,
      "##iled": 1160,
      "rel": 1161,
      "whalemen": 1162,
      "work": 1163,
      "imm": 1164,
      "smo": 1165,
      "contin": 1166,
      "##cond": 1167,
      "consider": 1168,
      "bar": 1169,
      "oars": 1170,
      "pers": 1171,
      "##ins": 1172,
      "earth": 1173,
      "bra": 1174,
      "fle": 1175,
      "mad": 1176,
      "mag": 1177,
      "thir": 1178,
      "##inted": 1179,
      "##ump": 1180,
      "plac": 1181,
      "quick": 1182,
      "waters": 1183,
      "looking": 1184,
      "ground": 1185,
      "close": 1186,
      "follow": 1187,
      "##ized": 1188,
      "##clud": 1189,
      "general": 1190,
      "cour": 1191,
      "fam": 1192,
      "mer": 1193,
      "##ived": 1194,
      "thous": 1195,
      "myself": 1196,
      "adv": 1197,
      "wonder": 1198,
      "cannot": 1199,
      "gentle": 1200,
      "thousand": 1201,
      "\"'": 1202,
      "bes": 1203,
      "bott": 1204,
      "gu": 1205,
      "less": 1206,
      "want": 1207,
      "##gn": 1208,
      "##lly": 1209,
      "##tering": 1210,
      "##ilt": 1211,
      "##ously": 1212,
      "grand": 1213,
      "##anger": 1214,
      "further": 1215,
      "business": 1216,
      "home": 1217,
      "king": 1218,
      "##ple": 1219,
      "##gin": 1220,
      "##wise": 1221,
      "seam": 1222,
      "##thing": 1223,
      "therefore": 1224,
      "left": 1225,
      "coff": 1226,
      "##ately": 1227,
      ";--": 1228,
      "bows": 1229,
      "pit": 1230,
      "pri": 1231,
      "##kes": 1232,
      "tog": 1233,
      "having": 1234,
      "conf": 1235,
      "turned": 1236,
      "lower": 1237,
      "cent": 1238,
      "cook": 1239,
      "tem": 1240,
      "ve": 1241,
      "need": 1242,
      "gold": 1243,
      "slow": 1244,
      "fishery": 1245,
      "since": 1246,
      "direct": 1247,
      "gone": 1248,
      "mil": 1249,
      "##sc": 1250,
      "##xt": 1251,
      "##ense": 1252,
      "dep": 1253,
      "order": 1254,
      "##iffer": 1255,
      "##iend": 1256,
      "looked": 1257,
      "straight": 1258,
      "together": 1259,
      "##old": 1260,
      "##ef": 1261,
      "##ru": 1262,
      "##rous": 1263,
      "##owing": 1264,
      "second": 1265,
      "##cks": 1266,
      "spir": 1267,
      "##antic": 1268,
      "##els": 1269,
      "room": 1270,
      "watch": 1271,
      "add": 1272,
      "carp": 1273,
      "better": 1274,
      "bottom": 1275,
      "),": 1276,
      "ac": 1277,
      "cas": 1278,
      "pow": 1279,
      "tash": 1280,
      "##oft": 1281,
      "##ser": 1282,
      "##oud": 1283,
      "##ised": 1284,
      "##ided": 1285,
      "##ages": 1286,
      "aloft": 1287,
      "fear": 1288,
      "broad": 1289,
      "min": 1290,
      "mere": 1291,
      "red": 1292,
      "##oc": 1293,
      "##ton": 1294,
      "##ndred": 1295,
      "##ited": 1296,
      "swim": 1297,
      "##ully": 1298,
      "common": 1299,
      "wond": 1300,
      "hundred": 1301,
      "cross": 1302,
      "ev": 1303,
      "iv": 1304,
      "lat": 1305,
      "mass": 1306,
      "rig": 1307,
      "##ming": 1308,
      "##par": 1309,
      "##ute": 1310,
      "read": 1311,
      "##ards": 1312,
      "##ift": 1313,
      "rope": 1314,
      "prev": 1315,
      "##ixed": 1316,
      "aw": 1317,
      "calm": 1318,
      "fine": 1319,
      "mort": 1320,
      "six": 1321,
      "tri": 1322,
      "tra": 1323,
      "##iet": 1324,
      "##ric": 1325,
      "stern": 1326,
      "sever": 1327,
      "shar": 1328,
      "chase": 1329,
      "ord": 1330,
      "lea": 1331,
      "##ife": 1332,
      "themselves": 1333,
      "##ibly": 1334,
      "speak": 1335,
      "interv": 1336,
      "else": 1337,
      "dri": 1338,
      "mur": 1339,
      "pac": 1340,
      "und": 1341,
      "##ead": 1342,
      "##ought": 1343,
      "##ention": 1344,
      "above": 1345,
      "##iew": 1346,
      "quar": 1347,
      "##where": 1348,
      "complete": 1349,
      "cast": 1350,
      "eas": 1351,
      "ori": 1352,
      "ver": 1353,
      "wide": 1354,
      "##eric": 1355,
      "##ouse": 1356,
      "##stance": 1357,
      "##ime": 1358,
      "sho": 1359,
      "happ": 1360,
      "chief": 1361,
      "##ached": 1362,
      "particular": 1363,
      "glo": 1364,
      "indian": 1365,
      "##tego": 1366,
      "tashtego": 1367,
      "bit": 1368,
      "dut": 1369,
      "gaz": 1370,
      "##oon": 1371,
      "##cy": 1372,
      "##inct": 1373,
      "##ench": 1374,
      "forth": 1375,
      "island": 1376,
      "##ants": 1377,
      "next": 1378,
      "plan": 1379,
      "##ept": 1380,
      "trans": 1381,
      "strong": 1382,
      "cru": 1383,
      "object": 1384,
      "harpooneers": 1385,
      "english": 1386,
      "ivory": 1387,
      "ple": 1388,
      "view": 1389,
      "##ler": 1390,
      "##sh": 1391,
      "##mon": 1392,
      "##res": 1393,
      "##iding": 1394,
      "##ape": 1395,
      "goes": 1396,
      "try": 1397,
      "fair": 1398,
      "fact": 1399,
      "curious": 1400,
      "craft": 1401,
      "savage": 1402,
      "gra": 1403,
      "hon": 1404,
      "nar": 1405,
      "ra": 1406,
      "##mb": 1407,
      "##ots": 1408,
      "##ceed": 1409,
      "##ils": 1410,
      "lean": 1411,
      "coming": 1412,
      "fellow": 1413,
      "flu": 1414,
      "##cially": 1415,
      "carpent": 1416,
      "bu": 1417,
      "taking": 1418,
      "##li": 1419,
      "##dle": 1420,
      "toss": 1421,
      "ash": 1422,
      "##uring": 1423,
      "##vell": 1424,
      "rec": 1425,
      "rece": 1426,
      "sure": 1427,
      "comes": 1428,
      "##ists": 1429,
      "##ield": 1430,
      "americ": 1431,
      "quest": 1432,
      "emb": 1433,
      "began": 1434,
      "turning": 1435,
      "magn": 1436,
      "count": 1437,
      "equ": 1438,
      "house": 1439,
      "ut": 1440,
      "##ls": 1441,
      "##ior": 1442,
      "##row": 1443,
      "##ades": 1444,
      "forward": 1445,
      "##enty": 1446,
      "lee": 1447,
      "##isted": 1448,
      "sailors": 1449,
      "helm": 1450,
      "appe": 1451,
      "coffin": 1452,
      "slowly": 1453,
      "sharp": 1454,
      "bone": 1455,
      "fif": 1456,
      "natural": 1457,
      "ten": 1458,
      "taken": 1459,
      "##sw": 1460,
      "##ze": 1461,
      "##inging": 1462,
      "##cked": 1463,
      "sharks": 1464,
      "enc": 1465,
      "##ancing": 1466,
      "obser": 1467,
      "desc": 1468,
      "break": 1469,
      "broken": 1470,
      "bat": 1471,
      "free": 1472,
      "hur": 1473,
      "mut": 1474,
      "mot": 1475,
      "wall": 1476,
      "##ient": 1477,
      "##cess": 1478,
      "answ": 1479,
      "friend": 1480,
      "##theless": 1481,
      "coast": 1482,
      "swift": 1483,
      "compan": 1484,
      "nevertheless": 1485,
      "drag": 1486,
      "suddenly": 1487,
      "behind": 1488,
      "besides": 1489,
      "ast": 1490,
      "bones": 1491,
      "gall": 1492,
      "table": 1493,
      "var": 1494,
      "##aid": 1495,
      "##itting": 1496,
      "story": 1497,
      "hist": 1498,
      "##iling": 1499,
      "##elt": 1500,
      "proper": 1501,
      "struck": 1502,
      "took": 1503,
      "##ople": 1504,
      "below": 1505,
      "##atures": 1506,
      "monster": 1507,
      "teeth": 1508,
      "voice": 1509,
      "carpenter": 1510,
      "fat": 1511,
      "lost": 1512,
      "tal": 1513,
      "##up": 1514,
      "thick": 1515,
      "fell": 1516,
      "door": 1517,
      "stranger": 1518,
      "used": 1519,
      "spec": 1520,
      "##ments": 1521,
      "breath": 1522,
      "waves": 1523,
      "jack": 1524,
      "kind": 1525,
      "kept": 1526,
      "mal": 1527,
      "##uous": 1528,
      "##under": 1529,
      "##aus": 1530,
      "##how": 1531,
      "tow": 1532,
      "told": 1533,
      "##aster": 1534,
      "##ested": 1535,
      "##ries": 1536,
      "##iff": 1537,
      "cry": 1538,
      "queer": 1539,
      "mighty": 1540,
      "##cover": 1541,
      "surf": 1542,
      "terr": 1543,
      "clear": 1544,
      "several": 1545,
      "quarter": 1546,
      ".--": 1547,
      "barb": 1548,
      "born": 1549,
      "dam": 1550,
      "got": 1551,
      "lim": 1552,
      "moun": 1553,
      "making": 1554,
      "num": 1555,
      "ske": 1556,
      "##ret": 1557,
      "##read": 1558,
      "step": 1559,
      "soft": 1560,
      "whaleman": 1561,
      "chr": 1562,
      "chance": 1563,
      "whatever": 1564,
      "play": 1565,
      "people": 1566,
      "prod": 1567,
      "says": 1568,
      "offic": 1569,
      "pursu": 1570,
      "help": 1571,
      "running": 1572,
      "touching": 1573,
      "precise": 1574,
      "caught": 1575,
      "dim": 1576,
      "div": 1577,
      "differ": 1578,
      "fly": 1579,
      "lance": 1580,
      "mine": 1581,
      "##oes": 1582,
      "##ats": 1583,
      "##ality": 1584,
      "ang": 1585,
      "##aged": 1586,
      "const": 1587,
      "noble": 1588,
      "blue": 1589,
      "sails": 1590,
      "account": 1591,
      "marin": 1592,
      "doubt": 1593,
      "dropp": 1594,
      "det": 1595,
      "espe": 1596,
      "fill": 1597,
      "five": 1598,
      "ice": 1599,
      "loo": 1600,
      "mild": 1601,
      "nigh": 1602,
      "rib": 1603,
      "sal": 1604,
      "sch": 1605,
      "yo": 1606,
      "##ee": 1607,
      "##sed": 1608,
      "##me": 1609,
      "##med": 1610,
      "##pr": 1611,
      "##ky": 1612,
      "##fully": 1613,
      "whom": 1614,
      "##oman": 1615,
      "bear": 1616,
      "storm": 1617,
      "##ident": 1618,
      "##ames": 1619,
      "means": 1620,
      "somehow": 1621,
      "hole": 1622,
      "slight": 1623,
      "respect": 1624,
      "power": 1625,
      "especially": 1626,
      "wake": 1627,
      "##cing": 1628,
      "##cast": 1629,
      "##ening": 1630,
      "inn": 1631,
      "##ased": 1632,
      "##aint": 1633,
      "##aped": 1634,
      "spo": 1635,
      "spl": 1636,
      "knew": 1637,
      "anything": 1638,
      "contr": 1639,
      "foot": 1640,
      "purpose": 1641,
      "rolled": 1642,
      "regular": 1643,
      "ide": 1644,
      "##ushed": 1645,
      "concer": 1646,
      "person": 1647,
      "seamen": 1648,
      "wondrous": 1649,
      "origin": 1650,
      "cat": 1651,
      "fre": 1652,
      "furn": 1653,
      "fixed": 1654,
      "gun": 1655,
      "mist": 1656,
      "mod": 1657,
      "nature": 1658,
      "pat": 1659,
      "rap": 1660,
      "use": 1661,
      "##sp": 1662,
      "##bed": 1663,
      "##ored": 1664,
      "whit": 1665,
      "##rew": 1666,
      "##chant": 1667,
      "shad": 1668,
      "aspect": 1669,
      "ant": 1670,
      "fresh": 1671,
      "ref": 1672,
      "ready": 1673,
      "dec": 1674,
      "child": 1675,
      "lear": 1676,
      "lead": 1677,
      "blind": 1678,
      "##ancy": 1679,
      "creature": 1680,
      "##ashed": 1681,
      "passed": 1682,
      "terri": 1683,
      "hours": 1684,
      "encoun": 1685,
      "surface": 1686,
      "bir": 1687,
      "bill": 1688,
      "felt": 1689,
      "horn": 1690,
      "pict": 1691,
      "##ises": 1692,
      "show": 1693,
      "alone": 1694,
      "arch": 1695,
      "quite": 1696,
      "brow": 1697,
      "parts": 1698,
      "##anced": 1699,
      "belong": 1700,
      "human": 1701,
      "pipe": 1702,
      "regard": 1703,
      "course": 1704,
      "mortal": 1705,
      "bound": 1706,
      "den": 1707,
      "dest": 1708,
      "ed": 1709,
      "either": 1710,
      "esc": 1711,
      "ill": 1712,
      "ign": 1713,
      "vi": 1714,
      "wal": 1715,
      "##kilt": 1716,
      "##vy": 1717,
      "town": 1718,
      "##itted": 1719,
      "##stand": 1720,
      "supp": 1721,
      "def": 1722,
      "meas": 1723,
      "myst": 1724,
      "shipm": 1725,
      "cape": 1726,
      "scr": 1727,
      "saying": 1728,
      "care": 1729,
      "carry": 1730,
      "mates": 1731,
      "##cient": 1732,
      "landl": 1733,
      "sky": 1734,
      "forehead": 1735,
      "horiz": 1736,
      "steelkilt": 1737,
      "concerning": 1738,
      ".'": 1739,
      "coun": 1740,
      "eight": 1741,
      "eff": 1742,
      "fall": 1743,
      "ma": 1744,
      "makes": 1745,
      "oth": 1746,
      "por": 1747,
      "post": 1748,
      "vir": 1749,
      "thunder": 1750,
      "summ": 1751,
      "##essed": 1752,
      "uns": 1753,
      "##pend": 1754,
      "##acle": 1755,
      "hope": 1756,
      "truth": 1757,
      "proceed": 1758,
      "##olog": 1759,
      "belie": 1760,
      "distance": 1761,
      "snow": 1762,
      "forecast": 1763,
      "plainly": 1764,
      "single": 1765,
      "occas": 1766,
      "easy": 1767,
      "skele": 1768,
      "christ": 1769,
      "others": 1770,
      "ble": 1771,
      "dagg": 1772,
      "gave": 1773,
      "mus": 1774,
      "pil": 1775,
      "vic": 1776,
      "##lic": 1777,
      "##iest": 1778,
      "##ger": 1779,
      "##kn": 1780,
      "##ays": 1781,
      "hair": 1782,
      "##ilar": 1783,
      "sole": 1784,
      "suspe": 1785,
      "##ction": 1786,
      "conclud": 1787,
      "manner": 1788,
      "alt": 1789,
      "unt": 1790,
      "cond": 1791,
      "around": 1792,
      "##ively": 1793,
      "brain": 1794,
      "brought": 1795,
      "sailed": 1796,
      "crow": 1797,
      "##ubber": 1798,
      "adm": 1799,
      "greenland": 1800,
      "darted": 1801,
      "gentlemen": 1802,
      "temp": 1803,
      "leaving": 1804,
      "various": 1805,
      "av": 1806,
      "hull": 1807,
      "lines": 1808,
      "sink": 1809,
      "val": 1810,
      "##mn": 1811,
      "##ience": 1812,
      "##gr": 1813,
      "##warks": 1814,
      "##ert": 1815,
      "##inary": 1816,
      "held": 1817,
      "separ": 1818,
      "shr": 1819,
      "shot": 1820,
      "meant": 1821,
      "##antly": 1822,
      "conce": 1823,
      "unf": 1824,
      "unkn": 1825,
      "capt": 1826,
      "seeing": 1827,
      "firm": 1828,
      "##anging": 1829,
      "remain": 1830,
      "accord": 1831,
      "heavy": 1832,
      "skin": 1833,
      "arms": 1834,
      "holding": 1835,
      "##itudes": 1836,
      "suppose": 1837,
      "cutting": 1838,
      "middle": 1839,
      "exceed": 1840,
      "bulwarks": 1841,
      "##ney": 1842,
      "placed": 1843,
      "famous": 1844,
      "honour": 1845,
      "flukes": 1846,
      "forecastle": 1847,
      "daggoo": 1848,
      "event": 1849,
      "etern": 1850,
      "jet": 1851,
      "lur": 1852,
      "law": 1853,
      "mention": 1854,
      "pie": 1855,
      "vain": 1856,
      "##ond": 1857,
      "##side": 1858,
      "##ren": 1859,
      "##board": 1860,
      "##ement": 1861,
      "unw": 1862,
      "##ified": 1863,
      "ago": 1864,
      "roy": 1865,
      "prom": 1866,
      "quiet": 1867,
      "##ected": 1868,
      "legs": 1869,
      "burst": 1870,
      "##posed": 1871,
      "spring": 1872,
      "given": 1873,
      "pacific": 1874,
      "question": 1875,
      "loose": 1876,
      "unknown": 1877,
      "med": 1878,
      "won": 1879,
      "##ding": 1880,
      "##ia": 1881,
      "##ives": 1882,
      "##ught": 1883,
      "##jo": 1884,
      "##oms": 1885,
      "##ager": 1886,
      "weather": 1887,
      "nose": 1888,
      "##unt": 1889,
      "##aked": 1890,
      "exact": 1891,
      "rose": 1892,
      "fisherm": 1893,
      "love": 1894,
      "##cial": 1895,
      "woe": 1896,
      "turns": 1897,
      "rolling": 1898,
      "boys": 1899,
      "sweet": 1900,
      "dream": 1901,
      "killed": 1902,
      "previous": 1903,
      ",'": 1904,
      "er": 1905,
      "fed": 1906,
      "fac": 1907,
      "hast": 1908,
      "hence": 1909,
      "hint": 1910,
      "lake": 1911,
      "none": 1912,
      "pen": 1913,
      "rad": 1914,
      "tub": 1915,
      "##ien": 1916,
      "##ians": 1917,
      "##inning": 1918,
      "##ores": 1919,
      "##see": 1920,
      "##sequ": 1921,
      "shark": 1922,
      "ann": 1923,
      "deg": 1924,
      "##anded": 1925,
      "##ulous": 1926,
      "meet": 1927,
      "exper": 1928,
      "blubber": 1929,
      "coll": 1930,
      "twenty": 1931,
      "sailing": 1932,
      "##icked": 1933,
      "creatures": 1934,
      "discover": 1935,
      "remained": 1936,
      "##ize": 1937,
      "thoughts": 1938,
      "passage": 1939,
      "invol": 1940,
      "nearly": 1941,
      "##while": 1942,
      "except": 1943,
      "bulk": 1944,
      "hammock": 1945,
      "third": 1946,
      "rigging": 1947,
      "ashore": 1948,
      "american": 1949,
      "landlord": 1950,
      "occasion": 1951,
      "skeleton": 1952,
      "?'": 1953,
      "cal": 1954,
      "der": 1955,
      "east": 1956,
      "hung": 1957,
      "lau": 1958,
      "pag": 1959,
      "tall": 1960,
      "##aut": 1961,
      "##bs": 1962,
      "##00": 1963,
      "##arily": 1964,
      "##iss": 1965,
      "stop": 1966,
      "##aled": 1967,
      "forty": 1968,
      "anch": 1969,
      "anim": 1970,
      "suff": 1971,
      "dem": 1972,
      "##ipped": 1973,
      "##emb": 1974,
      "abs": 1975,
      "cold": 1976,
      "rock": 1977,
      "glass": 1978,
      "didn": 1979,
      "log": 1980,
      "##izing": 1981,
      "distinct": 1982,
      "hardly": 1983,
      "cannib": 1984,
      "drawing": 1985,
      "colour": 1986,
      "completely": 1987,
      "fifty": 1988,
      "company": 1989,
      "idea": 1990,
      "royal": 1991,
      "laugh": 1992,
      ":--": 1993,
      "auth": 1994,
      "during": 1995,
      "gh": 1996,
      "gir": 1997,
      "met": 1998,
      "pain": 1999,
      "##light": 2000,
      "##ys": 2001,
      "##ike": 2002,
      "##uly": 2003,
      "##erous": 2004,
      "##att": 2005,
      "ine": 2006,
      "whis": 2007,
      "##reg": 2008,
      "##ready": 2009,
      "##itary": 2010,
      "heed": 2011,
      "sevent": 2012,
      "##ented": 2013,
      "##apped": 2014,
      "lie": 2015,
      "##amb": 2016,
      "decl": 2017,
      "chest": 2018,
      "already": 2019,
      "##ounded": 2020,
      "neg": 2021,
      "dog": 2022,
      "aft": 2023,
      "grow": 2024,
      "scar": 2025,
      "##ells": 2026,
      "harpoons": 2027,
      "disc": 2028,
      "accom": 2029,
      "skull": 2030,
      "##ivid": 2031,
      "darkness": 2032,
      "strike": 2033,
      "touch": 2034,
      "eleph": 2035,
      "visible": 2036,
      "miles": 2037,
      "intervals": 2038,
      "murder": 2039,
      "rapid": 2040,
      "viol": 2041,
      "!'": 2042,
      "hither": 2043,
      "jud": 2044,
      "mood": 2045,
      "nail": 2046,
      "rising": 2047,
      "tack": 2048,
      "##sm": 2049,
      "##sing": 2050,
      "##ich": 2051,
      "##ued": 2052,
      "##right": 2053,
      "##rant": 2054,
      "##fort": 2055,
      "##erable": 2056,
      "##inger": 2057,
      "##uttle": 2058,
      "beat": 2059,
      "stro": 2060,
      "##idden": 2061,
      "french": 2062,
      "rever": 2063,
      "upper": 2064,
      "##ipping": 2065,
      "bold": 2066,
      "une": 2067,
      "##umed": 2068,
      "exh": 2069,
      "cover": 2070,
      "works": 2071,
      "##acious": 2072,
      "knife": 2073,
      "bright": 2074,
      "thrust": 2075,
      "##aching": 2076,
      "instances": 2077,
      "substance": 2078,
      "south": 2079,
      "import": 2080,
      "wrink": 2081,
      "generally": 2082,
      "huge": 2083,
      "considering": 2084,
      "horse": 2085,
      "supper": 2086,
      "uncom": 2087,
      "express": 2088,
      "across": 2089,
      "planks": 2090,
      "tossed": 2091,
      "battle": 2092,
      "species": 2093,
      "burn": 2094,
      "die": 2095,
      "fig": 2096,
      "late": 2097,
      "nam": 2098,
      "od": 2099,
      "pot": 2100,
      "sad": 2101,
      "sent": 2102,
      "tor": 2103,
      "##lt": 2104,
      "##uct": 2105,
      "##aul": 2106,
      "##gest": 2107,
      "##ring": 2108,
      "##bod": 2109,
      "##ator": 2110,
      "##eter": 2111,
      "##ayed": 2112,
      "fro": 2113,
      "##ths": 2114,
      "repe": 2115,
      "really": 2116,
      "spot": 2117,
      "##ume": 2118,
      "##unk": 2119,
      "excl": 2120,
      "hoisted": 2121,
      "perce": 2122,
      "peril": 2123,
      "carried": 2124,
      "dism": 2125,
      "steady": 2126,
      "##ashing": 2127,
      "emp": 2128,
      "desce": 2129,
      "keel": 2130,
      "hump": 2131,
      "warm": 2132,
      "##ugg": 2133,
      "possible": 2134,
      "possibly": 2135,
      "return": 2136,
      "jaws": 2137,
      "behold": 2138,
      "hammer": 2139,
      "profound": 2140,
      "extre": 2141,
      "smoke": 2142,
      "pitch": 2143,
      "spirit": 2144,
      "swimming": 2145,
      "buoy": 2146,
      "leeward": 2147,
      "number": 2148,
      "flying": 2149,
      "suspended": 2150,
      "bree": 2151,
      "eager": 2152,
      "hill": 2153,
      "hook": 2154,
      "joy": 2155,
      "lamp": 2156,
      "nay": 2157,
      "past": 2158,
      "tis": 2159,
      "##ec": 2160,
      "##ses": 2161,
      "##tty": 2162,
      "##io": 2163,
      "##iod": 2164,
      "##gy": 2165,
      "##ral": 2166,
      "##vol": 2167,
      "##bor": 2168,
      "height": 2169,
      "##sey": 2170,
      "forg": 2171,
      "##idel": 2172,
      "aside": 2173,
      "ancient": 2174,
      "##ics": 2175,
      "##aping": 2176,
      "##appe": 2177,
      "##asted": 2178,
      "mem": 2179,
      "chur": 2180,
      "unless": 2181,
      "##tains": 2182,
      "enorm": 2183,
      "pole": 2184,
      "pointed": 2185,
      "words": 2186,
      "prov": 2187,
      "prob": 2188,
      "proph": 2189,
      "swall": 2190,
      "period": 2191,
      "pretty": 2192,
      "sideways": 2193,
      "stands": 2194,
      "hearts": 2195,
      "##ogether": 2196,
      "strangely": 2197,
      "final": 2198,
      "certainly": 2199,
      "corp": 2200,
      "entirely": 2201,
      "circumst": 2202,
      "motion": 2203,
      "astern": 2204,
      "mariners": 2205,
      "gunw": 2206,
      "pilot": 2207,
      "altogether": 2208,
      "enormous": 2209,
      ").": 2210,
      "cow": 2211,
      "father": 2212,
      "gale": 2213,
      "gro": 2214,
      "oar": 2215,
      "paus": 2216,
      "sides": 2217,
      "vol": 2218,
      "wise": 2219,
      "##lied": 2220,
      "##cious": 2221,
      "##aff": 2222,
      "##inting": 2223,
      "##orous": 2224,
      "##arn": 2225,
      "hem": 2226,
      "sto": 2227,
      "state": 2228,
      "shout": 2229,
      "front": 2230,
      "lif": 2231,
      "succ": 2232,
      "##ession": 2233,
      "spread": 2234,
      "##rie": 2235,
      "year": 2236,
      "pol": 2237,
      "coat": 2238,
      "knows": 2239,
      "sword": 2240,
      "cloth": 2241,
      "scene": 2242,
      "glance": 2243,
      "compass": 2244,
      "subject": 2245,
      "gods": 2246,
      "interest": 2247,
      "thinking": 2248,
      "become": 2249,
      "lightning": 2250,
      "feeling": 2251,
      "hunters": 2252,
      "meanwhile": 2253,
      "giving": 2254,
      "parsee": 2255,
      "leaning": 2256,
      "school": 2257,
      "whiteness": 2258,
      "shipmates": 2259,
      "fishermen": 2260,
      "bad": 2261,
      "bri": 2262,
      "fight": 2263,
      "ii": 2264,
      "luck": 2265,
      "master": 2266,
      "pan": 2267,
      "tap": 2268,
      "wre": 2269,
      "yards": 2270,
      "##lo": 2271,
      "##lf": 2272,
      "##long": 2273,
      "##lass": 2274,
      "##night": 2275,
      "##eel": 2276,
      "##ues": 2277,
      "##cr": 2278,
      "##aim": 2279,
      "##hens": 2280,
      "##ouble": 2281,
      "##iting": 2282,
      "##omin": 2283,
      "##utes": 2284,
      "##aded": 2285,
      "##ety": 2286,
      "seated": 2287,
      "##ired": 2288,
      "shore": 2289,
      "##ility": 2290,
      "reve": 2291,
      "##allah": 2292,
      "##ipt": 2293,
      "##ipp": 2294,
      "level": 2295,
      "alive": 2296,
      "somewh": 2297,
      "##ushing": 2298,
      "wholly": 2299,
      "##ustom": 2300,
      "ahead": 2301,
      "overboard": 2302,
      "##acy": 2303,
      "##acet": 2304,
      "arri": 2305,
      "##erman": 2306,
      "looks": 2307,
      "perf": 2308,
      "bread": 2309,
      "alongside": 2310,
      "finally": 2311,
      "eyeing": 2312,
      "midnight": 2313,
      "draw": 2314,
      "sweep": 2315,
      "started": 2316,
      "wooden": 2317,
      "secret": 2318,
      "similar": 2319,
      "thirty": 2320,
      "dutch": 2321,
      "cruising": 2322,
      "country": 2323,
      "utter": 2324,
      "precisely": 2325,
      "dropped": 2326,
      "learned": 2327,
      "ignor": 2328,
      "believe": 2329,
      "fedallah": 2330,
      "##smith": 2331,
      "somewhat": 2332,
      "18": 2333,
      "ball": 2334,
      "bag": 2335,
      "da": 2336,
      "din": 2337,
      "ears": 2338,
      "fash": 2339,
      "fancy": 2340,
      "ring": 2341,
      "ran": 2342,
      "term": 2343,
      "ven": 2344,
      "wife": 2345,
      "##ob": 2346,
      "##sman": 2347,
      "##iving": 2348,
      "##und": 2349,
      "##gen": 2350,
      "##bb": 2351,
      "##fast": 2352,
      "##erted": 2353,
      "##inn": 2354,
      "##ony": 2355,
      "##lled": 2356,
      "##ales": 2357,
      "##str": 2358,
      "##ote": 2359,
      "##vers": 2360,
      "##ices": 2361,
      "##thy": 2362,
      "real": 2363,
      "repl": 2364,
      "##uel": 2365,
      "exc": 2366,
      "feed": 2367,
      "blow": 2368,
      "##isting": 2369,
      "##acc": 2370,
      "prin": 2371,
      "otherwise": 2372,
      "yourself": 2373,
      "##ignity": 2374,
      "oppos": 2375,
      "masts": 2376,
      "faith": 2377,
      "##ocks": 2378,
      "bodily": 2379,
      "getting": 2380,
      "appar": 2381,
      "appro": 2382,
      "delight": 2383,
      "phil": 2384,
      "drawn": 2385,
      "silent": 2386,
      "floating": 2387,
      "vessels": 2388,
      "circumstance": 2389,
      "considerable": 2390,
      "followed": 2391,
      "evin": 2392,
      "received": 2393,
      "talk": 2394,
      "measure": 2395,
      "porpo": 2396,
      "according": 2397,
      "degree": 2398,
      "circumstances": 2399,
      "ban": 2400,
      "corn": 2401,
      "gay": 2402,
      "gain": 2403,
      "hot": 2404,
      "hinted": 2405,
      "pul": 2406,
      "palm": 2407,
      "rid": 2408,
      "sit": 2409,
      "tro": 2410,
      "tong": 2411,
      "takes": 2412,
      "vap": 2413,
      "##lu": 2414,
      "##ded": 2415,
      "##ek": 2416,
      "##spect": 2417,
      "##zz": 2418,
      "##ories": 2419,
      "##ism": 2420,
      "infer": 2421,
      "##rehens": 2422,
      "bearing": 2423,
      "##stit": 2424,
      "##ldom": 2425,
      "self": 2426,
      "seldom": 2427,
      "##ental": 2428,
      "haul": 2429,
      "atte": 2430,
      "requ": 2431,
      "leak": 2432,
      "necess": 2433,
      "yellow": 2434,
      "##aker": 2435,
      "pop": 2436,
      "blank": 2437,
      "flesh": 2438,
      "worsh": 2439,
      "headed": 2440,
      "watery": 2441,
      "clos": 2442,
      "thrown": 2443,
      "afterwards": 2444,
      "##anged": 2445,
      "loft": 2446,
      "foam": 2447,
      "drink": 2448,
      "bedf": 2449,
      "striking": 2450,
      "##ivers": 2451,
      "##airs": 2452,
      "drop": 2453,
      "cheer": 2454,
      "squall": 2455,
      "depart": 2456,
      "added": 2457,
      "cases": 2458,
      "interval": 2459,
      "duty": 2460,
      "pleas": 2461,
      "answer": 2462,
      "prodig": 2463,
      "ghost": 2464,
      "vapour": 2465,
      "cand": 2466,
      "du": 2467,
      "est": 2468,
      "fi": 2469,
      "fit": 2470,
      "fain": 2471,
      "fun": 2472,
      "jer": 2473,
      "lung": 2474,
      "meth": 2475,
      "owing": 2476,
      "pract": 2477,
      "ram": 2478,
      "vig": 2479,
      "##yond": 2480,
      "##ma": 2481,
      "##inter": 2482,
      "##edi": 2483,
      "##ese": 2484,
      "##ency": 2485,
      "##ison": 2486,
      "includ": 2487,
      "bell": 2488,
      "beyond": 2489,
      "stuff": 2490,
      "##cket": 2491,
      "fright": 2492,
      "##ioned": 2493,
      "##asting": 2494,
      "box": 2495,
      "somewhere": 2496,
      "ponder": 2497,
      "blows": 2498,
      "plant": 2499,
      "prop": 2500,
      "strength": 2501,
      "swam": 2502,
      "perils": 2503,
      "captains": 2504,
      "scuttle": 2505,
      "crit": 2506,
      "crown": 2507,
      "remains": 2508,
      "fold": 2509,
      "instead": 2510,
      "winds": 2511,
      "became": 2512,
      "thyself": 2513,
      "blacksmith": 2514,
      "circle": 2515,
      "hunt": 2516,
      "erect": 2517,
      "pulling": 2518,
      "commanded": 2519,
      "hatch": 2520,
      "##ierce": 2521,
      "immedi": 2522,
      "following": 2523,
      "gentleman": 2524,
      "orders": 2525,
      "globe": 2526,
      "narr": 2527,
      "pursuit": 2528,
      "different": 2529,
      "regarded": 2530,
      "escape": 2531,
      "exactly": 2532,
      "lakeman": 2533,
      "author": 2534,
      "negro": 2535,
      "##body": 2536,
      "repeated": 2537,
      "fiery": 2538,
      "big": 2539,
      "cet": 2540,
      "coo": 2541,
      "fol": 2542,
      "fail": 2543,
      "hus": 2544,
      "hidden": 2545,
      "lances": 2546,
      "pun": 2547,
      "tun": 2548,
      "yield": 2549,
      "##ny": 2550,
      "##inity": 2551,
      "##oned": 2552,
      "tom": 2553,
      "##reat": 2554,
      "##stem": 2555,
      "rear": 2556,
      "refer": 2557,
      "lift": 2558,
      "##umps": 2559,
      "comfort": 2560,
      "##thern": 2561,
      "grey": 2562,
      "hollow": 2563,
      "tran": 2564,
      "peace": 2565,
      "imper": 2566,
      "##fulness": 2567,
      "disappe": 2568,
      "stead": 2569,
      "contri": 2570,
      "speaking": 2571,
      "resol": 2572,
      "passing": 2573,
      "higher": 2574,
      "invest": 2575,
      "##held": 2576,
      "##ploy": 2577,
      "instantly": 2578,
      "charac": 2579,
      "stret": 2580,
      "barre": 2581,
      "flew": 2582,
      "merchant": 2583,
      "advance": 2584,
      "centre": 2585,
      "gazing": 2586,
      "history": 2587,
      "frequ": 2588,
      "virt": 2589,
      "meantime": 2590,
      "pagan": 2591,
      "uncommon": 2592,
      "empty": 2593,
      ".)": 2594,
      "ain": 2595,
      "bull": 2596,
      "ce": 2597,
      "cord": 2598,
      "civ": 2599,
      "cause": 2600,
      "dashed": 2601,
      "game": 2602,
      "hy": 2603,
      "jap": 2604,
      "la": 2605,
      "lab": 2606,
      "laid": 2607,
      "oper": 2608,
      "pick": 2609,
      "sitting": 2610,
      "wid": 2611,
      "##over": 2612,
      "##ially": 2613,
      "##iven": 2614,
      "##ges": 2615,
      "##rane": 2616,
      "##hma": 2617,
      "##__": 2618,
      "inh": 2619,
      "##itable": 2620,
      "##itten": 2621,
      "stud": 2622,
      "stove": 2623,
      "##cking": 2624,
      "reck": 2625,
      "lives": 2626,
      "##ips": 2627,
      "##ague": 2628,
      "unacc": 2629,
      "comb": 2630,
      "intell": 2631,
      "intense": 2632,
      "likewise": 2633,
      "expl": 2634,
      "examp": 2635,
      "##taining": 2636,
      "pos": 2637,
      "cop": 2638,
      "prow": 2639,
      "##elled": 2640,
      "spermacet": 2641,
      "drown": 2642,
      "employ": 2643,
      "north": 2644,
      "keen": 2645,
      "windward": 2646,
      "windlass": 2647,
      "understand": 2648,
      "surpr": 2649,
      "jolly": 2650,
      "formed": 2651,
      "nantucketer": 2652,
      "deadly": 2653,
      "horri": 2654,
      "souls": 2655,
      "sleeping": 2656,
      "phant": 2657,
      "signific": 2658,
      "concern": 2659,
      "drew": 2660,
      "dread": 2661,
      "system": 2662,
      "wonderful": 2663,
      "centur": 2664,
      "golden": 2665,
      "##rupt": 2666,
      "magnitude": 2667,
      "descried": 2668,
      "answered": 2669,
      "jacket": 2670,
      "filled": 2671,
      "terrible": 2672,
      "solemn": 2673,
      "avast": 2674,
      "radney": 2675,
      "seventy": 2676,
      "character": 2677,
      "bubb": 2678,
      "base": 2679,
      "custom": 2680,
      "dost": 2681,
      "dig": 2682,
      "fow": 2683,
      "ge": 2684,
      "gab": 2685,
      "hoo": 2686,
      "list": 2687,
      "ped": 2688,
      "pay": 2689,
      "son": 2690,
      "tree": 2691,
      "vit": 2692,
      "##lim": 2693,
      "##ey": 2694,
      "##mer": 2695,
      "##greg": 2696,
      "##ining": 2697,
      "##atic": 2698,
      "##ari": 2699,
      "##isc": 2700,
      "beach": 2701,
      "beheld": 2702,
      "##ading": 2703,
      "##stone": 2704,
      "shud": 2705,
      "hall": 2706,
      "hailed": 2707,
      "reel": 2708,
      "revol": 2709,
      "##key": 2710,
      "spare": 2711,
      "cher": 2712,
      "weight": 2713,
      "##usion": 2714,
      "##tained": 2715,
      "aboard": 2716,
      "age": 2717,
      "worse": 2718,
      "holy": 2719,
      "truly": 2720,
      "strain": 2721,
      "pray": 2722,
      "##pered": 2723,
      "immen": 2724,
      "individ": 2725,
      "compar": 2726,
      "##lessly": 2727,
      "move": 2728,
      "remark": 2729,
      "##teen": 2730,
      "decks": 2731,
      "distant": 2732,
      "invested": 2733,
      "impress": 2734,
      "monst": 2735,
      "snat": 2736,
      "marvell": 2737,
      "former": 2738,
      "england": 2739,
      "horr": 2740,
      "attached": 2741,
      "apart": 2742,
      "stream": 2743,
      "superior": 2744,
      "quickly": 2745,
      "minutes": 2746,
      "gloom": 2747,
      "appear": 2748,
      "terror": 2749,
      "terrors": 2750,
      "ribs": 2751,
      "original": 2752,
      "pictures": 2753,
      "horizont": 2754,
      "effect": 2755,
      "anchor": 2756,
      "cannibal": 2757,
      "scarce": 2758,
      "elephant": 2759,
      "gunwale": 2760,
      "evinced": 2761,
      "lofty": 2762,
      "##iveness": 2763,
      "000": 2764,
      "bucket": 2765,
      "cool": 2766,
      "dat": 2767,
      "died": 2768,
      "danger": 2769,
      "dignity": 2770,
      "eh": 2771,
      "fet": 2772,
      "foo": 2773,
      "fath": 2774,
      "field": 2775,
      "gig": 2776,
      "hide": 2777,
      "hanging": 2778,
      "lan": 2779,
      "lone": 2780,
      "lying": 2781,
      "mir": 2782,
      "marb": 2783,
      "pir": 2784,
      "pale": 2785,
      "pra": 2786,
      "rise": 2787,
      "rush": 2788,
      "ty": 2789,
      "torn": 2790,
      "vill": 2791,
      "west": 2792,
      "##lantic": 2793,
      "##loon": 2794,
      "##nest": 2795,
      "##to": 2796,
      "##zy": 2797,
      "##uvi": 2798,
      "##pan": 2799,
      "thin": 2800,
      "##erv": 2801,
      "##ouds": 2802,
      "##ences": 2803,
      "inches": 2804,
      "##llen": 2805,
      "##iter": 2806,
      "##uted": 2807,
      "beef": 2808,
      "##aling": 2809,
      "##etr": 2810,
      "##etic": 2811,
      "ones": 2812,
      "shiver": 2813,
      "withd": 2814,
      "ishma": 2815,
      "atlantic": 2816,
      "reco": 2817,
      "lies": 2818,
      "span": 2819,
      "spade": 2820,
      "sag": 2821,
      "##riel": 2822,
      "##empt": 2823,
      "unm": 2824,
      "unre": 2825,
      "##ishing": 2826,
      "##unning": 2827,
      "outer": 2828,
      "##seless": 2829,
      "flag": 2830,
      "moreover": 2831,
      "swung": 2832,
      "twel": 2833,
      "gras": 2834,
      "grown": 2835,
      "grass": 2836,
      "glim": 2837,
      "ways": 2838,
      "everything": 2839,
      "owners": 2840,
      "##awk": 2841,
      "thinks": 2842,
      "lowered": 2843,
      "earnest": 2844,
      "hunter": 2845,
      "delic": 2846,
      "##posing": 2847,
      "doubloon": 2848,
      "floor": 2849,
      "occur": 2850,
      "##racted": 2851,
      "brave": 2852,
      "flee": 2853,
      "places": 2854,
      "advancing": 2855,
      "needs": 2856,
      "directly": 2857,
      "casks": 2858,
      "drive": 2859,
      "grave": 2860,
      "raised": 2861,
      "fatal": 2862,
      "officers": 2863,
      "slightest": 2864,
      "billows": 2865,
      "christian": 2866,
      "tempor": 2867,
      "separate": 2868,
      "breeze": 2869,
      "success": 2870,
      "virtue": 2871,
      "japan": 2872,
      "gabriel": 2873,
      "gigantic": 2874,
      "ishmael": 2875,
      "\"--": 2876,
      "bab": 2877,
      "fool": 2878,
      "je": 2879,
      "loud": 2880,
      "mount": 2881,
      "natur": 2882,
      "pad": 2883,
      "pap": 2884,
      "row": 2885,
      "tar": 2886,
      "tum": 2887,
      "vac": 2888,
      "wound": 2889,
      "##sy": 2890,
      "##iac": 2891,
      "##uced": 2892,
      "##cip": 2893,
      "##af": 2894,
      "##hn": 2895,
      "##fic": 2896,
      "##inite": 2897,
      "##isp": 2898,
      "inch": 2899,
      "whir": 2900,
      "wheel": 2901,
      "##asing": 2902,
      "stone": 2903,
      "##otion": 2904,
      "forced": 2905,
      "seat": 2906,
      "season": 2907,
      "shock": 2908,
      "##ilized": 2909,
      "reached": 2910,
      "upwards": 2911,
      "##estic": 2912,
      "sake": 2913,
      "wear": 2914,
      "##emed": 2915,
      "##ember": 2916,
      "noon": 2917,
      "neck": 2918,
      "comr": 2919,
      "enter": 2920,
      "pointing": 2921,
      "doom": 2922,
      "flood": 2923,
      "##oney": 2924,
      "hop": 2925,
      "hover": 2926,
      "arg": 2927,
      "whaler": 2928,
      "whalers": 2929,
      "amber": 2930,
      "##ude": 2931,
      "perpend": 2932,
      "clam": 2933,
      "bring": 2934,
      "scor": 2935,
      "impo": 2936,
      "queen": 2937,
      "glad": 2938,
      "glory": 2939,
      "indiffer": 2940,
      "prep": 2941,
      "##angel": 2942,
      "##ection": 2943,
      "content": 2944,
      "speed": 2945,
      "##vice": 2946,
      "presently": 2947,
      "##ahawk": 2948,
      "ends": 2949,
      "sorts": 2950,
      "telling": 2951,
      "lowering": 2952,
      "tend": 2953,
      "beginning": 2954,
      "largest": 2955,
      "presented": 2956,
      "##lished": 2957,
      "hunted": 2958,
      "deeper": 2959,
      "silver": 2960,
      "silence": 2961,
      "solitary": 2962,
      "artic": 2963,
      "superstit": 2964,
      "precious": 2965,
      "smoking": 2966,
      "merely": 2967,
      "awful": 2968,
      "ordinary": 2969,
      "leaves": 2970,
      "chiefly": 2971,
      "swiftly": 2972,
      "modern": 2973,
      "picture": 2974,
      "mystic": 2975,
      "musk": 2976,
      "vicinity": 2977,
      "concluded": 2978,
      "eternal": 2979,
      "quietly": 2980,
      "rapidly": 2981,
      "important": 2982,
      "figure": 2983,
      "nameless": 2984,
      "hemp": 2985,
      "dinner": 2986,
      "opposite": 2987,
      "porpoise": 2988,
      "pulp": 2989,
      "tomahawk": 2990,
      "spermaceti": 2991,
      "foolish": 2992,
      "twelve": 2993,
      "perpendicular": 2994,
      "ber": 2995,
      "bore": 2996,
      "band": 2997,
      "di": 2998,
      "dom": 2999,
      "host": 3000,
      "jump": 3001,
      "kings": 3002,
      "kick": 3003,
      "mill": 3004,
      "mother": 3005,
      "pots": 3006,
      "rate": 3007,
      "rare": 3008,
      "sens": 3009,
      "yard": 3010,
      "##leness": 3011,
      "##eks": 3012,
      "##set": 3013,
      "##yr": 3014,
      "##yard": 3015,
      "##uit": 3016,
      "##cri": 3017,
      "##pic": 3018,
      "thine": 3019,
      "##erved": 3020,
      "##orge": 3021,
      "incl": 3022,
      "##asm": 3023,
      "##lect": 3024,
      "##omen": 3025,
      "bew": 3026,
      "stir": 3027,
      "forem": 3028,
      "seized": 3029,
      "##ires": 3030,
      "##apping": 3031,
      "lips": 3032,
      "##alled": 3033,
      "spite": 3034,
      "dece": 3035,
      "mel": 3036,
      "chains": 3037,
      "thereby": 3038,
      "conn": 3039,
      "leave": 3040,
      "unse": 3041,
      "unus": 3042,
      "myster": 3043,
      "plenty": 3044,
      "##ifted": 3045,
      "project": 3046,
      "knock": 3047,
      "##ieved": 3048,
      "##iber": 3049,
      "longer": 3050,
      "perth": 3051,
      "##arsh": 3052,
      "screw": 3053,
      "##inks": 3054,
      "whereas": 3055,
      "##angs": 3056,
      "steward": 3057,
      "moon": 3058,
      "evening": 3059,
      "desper": 3060,
      "instance": 3061,
      "##oph": 3062,
      "sought": 3063,
      "invis": 3064,
      "inside": 3065,
      "john": 3066,
      "voyages": 3067,
      "engaged": 3068,
      "##oubled": 3069,
      "influ": 3070,
      "##itional": 3071,
      "##aneously": 3072,
      "##velop": 3073,
      "idol": 3074,
      "attack": 3075,
      "clean": 3076,
      "gives": 3077,
      "floated": 3078,
      "marked": 3079,
      "afford": 3080,
      "elev": 3081,
      "immort": 3082,
      "guess": 3083,
      "crossing": 3084,
      "islands": 3085,
      "equator": 3086,
      "observed": 3087,
      "gallant": 3088,
      "barbar": 3089,
      "difference": 3090,
      "dropping": 3091,
      "yonder": 3092,
      "regularly": 3093,
      "children": 3094,
      "destro": 3095,
      "careful": 3096,
      "horizon": 3097,
      "counter": 3098,
      "maj": 3099,
      "mentioned": 3100,
      "pieces": 3101,
      "##attoo": 3102,
      "torment": 3103,
      "##aimed": 3104,
      "revealed": 3105,
      "bedford": 3106,
      "prodigious": 3107,
      "tranqu": 3108,
      "unaccount": 3109,
      "example": 3110,
      "immense": 3111,
      "individual": 3112,
      "prair": 3113,
      "imposs": 3114,
      ".*": 3115,
      "bench": 3116,
      "caus": 3117,
      "dil": 3118,
      "dough": 3119,
      "faint": 3120,
      "fierce": 3121,
      "ginger": 3122,
      "native": 3123,
      "pal": 3124,
      "ru": 3125,
      "rum": 3126,
      "race": 3127,
      "rushing": 3128,
      "sam": 3129,
      "sand": 3130,
      "tattoo": 3131,
      "wed": 3132,
      "wit": 3133,
      "##oe": 3134,
      "##day": 3135,
      "##natural": 3136,
      "##gs": 3137,
      "##kin": 3138,
      "##bur": 3139,
      "##fact": 3140,
      "##..": 3141,
      "##inal": 3142,
      "##ister": 3143,
      "inqu": 3144,
      "hell": 3145,
      "bef": 3146,
      "stat": 3147,
      "stout": 3148,
      "stick": 3149,
      "stiff": 3150,
      "fort": 3151,
      "##cken": 3152,
      "shape": 3153,
      "isles": 3154,
      "whaleb": 3155,
      "spine": 3156,
      "##ests": 3157,
      "weap": 3158,
      "alar": 3159,
      "##rah": 3160,
      "whence": 3161,
      "plung": 3162,
      "plank": 3163,
      "flow": 3164,
      "flame": 3165,
      "rocks": 3166,
      "trying": 3167,
      "trunk": 3168,
      "prot": 3169,
      "amid": 3170,
      "grim": 3171,
      "harbor": 3172,
      "advent": 3173,
      "##lessness": 3174,
      "special": 3175,
      "remember": 3176,
      "starboard": 3177,
      "##ernal": 3178,
      "desp": 3179,
      "resemb": 3180,
      "##ularly": 3181,
      "subsequ": 3182,
      "heave": 3183,
      "lands": 3184,
      "crews": 3185,
      "distr": 3186,
      "surr": 3187,
      "months": 3188,
      "inserted": 3189,
      "irons": 3190,
      "leviathans": 3191,
      "##ressed": 3192,
      "incred": 3193,
      "meaning": 3194,
      "affair": 3195,
      "devils": 3196,
      "books": 3197,
      "visit": 3198,
      "solid": 3199,
      "sym": 3200,
      "symb": 3201,
      "heavens": 3202,
      "simult": 3203,
      "continually": 3204,
      "oarsmen": 3205,
      "madness": 3206,
      "minute": 3207,
      "previously": 3208,
      "sixty": 3209,
      "bitter": 3210,
      "gaze": 3211,
      "##velled": 3212,
      "muttered": 3213,
      "friends": 3214,
      "dragged": 3215,
      "yojo": 3216,
      "originally": 3217,
      "bird": 3218,
      "##ology": 3219,
      "shroud": 3220,
      "captured": 3221,
      "animal": 3222,
      "accompan": 3223,
      "hitherto": 3224,
      "tackles": 3225,
      "church": 3226,
      "coward": 3227,
      "stopp": 3228,
      "shouted": 3229,
      "lifted": 3230,
      "venge": 3231,
      "princip": 3232,
      "pleasant": 3233,
      "immediately": 3234,
      "hussey": 3235,
      "lantern": 3236,
      "withdra": 3237,
      "impossible": 3238,
      "symbol": 3239,
      "bal": 3240,
      "binn": 3241,
      "cask": 3242,
      "cries": 3243,
      "cunning": 3244,
      "double": 3245,
      "ess": 3246,
      "fer": 3247,
      "fut": 3248,
      "fate": 3249,
      "gen": 3250,
      "gas": 3251,
      "gri": 3252,
      "hit": 3253,
      "hark": 3254,
      "ling": 3255,
      "mould": 3256,
      "marks": 3257,
      "nine": 3258,
      "nav": 3259,
      "puff": 3260,
      "rich": 3261,
      "sor": 3262,
      "tig": 3263,
      "vel": 3264,
      "vine": 3265,
      "vib": 3266,
      "woo": 3267,
      "##yed": 3268,
      "##iot": 3269,
      "##zen": 3270,
      "##uc": 3271,
      "##bra": 3272,
      "##xion": 3273,
      "thro": 3274,
      "##ination": 3275,
      "##attered": 3276,
      "##oul": 3277,
      "##ares": 3278,
      "whar": 3279,
      "heat": 3280,
      "##ution": 3281,
      "beaut": 3282,
      "##chan": 3283,
      "##ett": 3284,
      "##eted": 3285,
      "##oted": 3286,
      "seven": 3287,
      "shake": 3288,
      "showed": 3289,
      "asce": 3290,
      "butter": 3291,
      "soci": 3292,
      "##iced": 3293,
      "frost": 3294,
      "##think": 3295,
      "##app": 3296,
      "sund": 3297,
      "susp": 3298,
      "##ousness": 3299,
      "bol": 3300,
      "chart": 3301,
      "weary": 3302,
      "conven": 3303,
      "consequ": 3304,
      "org": 3305,
      "manx": 3306,
      "alb": 3307,
      "unp": 3308,
      "neither": 3309,
      "##uming": 3310,
      "blast": 3311,
      "flames": 3312,
      "##orted": 3313,
      "cod": 3314,
      "rod": 3315,
      "troubled": 3316,
      "proved": 3317,
      "arr": 3318,
      "watching": 3319,
      "clock": 3320,
      "brit": 3321,
      "brother": 3322,
      "##ounted": 3323,
      "scient": 3324,
      "cred": 3325,
      "seek": 3326,
      "imag": 3327,
      "slid": 3328,
      "##quee": 3329,
      "carries": 3330,
      "lock": 3331,
      "locked": 3332,
      "steak": 3333,
      "moving": 3334,
      "remo": 3335,
      "dry": 3336,
      "knowing": 3337,
      "breaking": 3338,
      "##ints": 3339,
      "accur": 3340,
      "window": 3341,
      "opin": 3342,
      "invari": 3343,
      "fully": 3344,
      "monkey": 3345,
      "humor": 3346,
      "sett": 3347,
      "feels": 3348,
      "spouts": 3349,
      "oceans": 3350,
      "##osoph": 3351,
      "stricken": 3352,
      "spray": 3353,
      "excell": 3354,
      "putting": 3355,
      "actually": 3356,
      "straits": 3357,
      "commander": 3358,
      "missing": 3359,
      "occup": 3360,
      "satis": 3361,
      "earthly": 3362,
      "fleet": 3363,
      "thousands": 3364,
      "priv": 3365,
      "happened": 3366,
      "fairly": 3367,
      "narrow": 3368,
      "##like": 3369,
      "embra": 3370,
      "mountain": 3371,
      "numerous": 3372,
      "mariner": 3373,
      "furnished": 3374,
      "shadow": 3375,
      "encounter": 3376,
      "encountered": 3377,
      "summer": 3378,
      "conduct": 3379,
      "admir": 3380,
      "piece": 3381,
      "announ": 3382,
      "experien": 3383,
      "calcul": 3384,
      "stroke": 3385,
      "extreme": 3386,
      "prophet": 3387,
      "paused": 3388,
      "philosoph": 3389,
      "corner": 3390,
      "lungs": 3391,
      "folio": 3392,
      "barrels": 3393,
      "civilized": 3394,
      "horizontal": 3395,
      "marble": 3396,
      "pulpit": 3397,
      "invisible": 3398,
      "unaccountable": 3399,
      "binnacle": 3400,
      "vibr": 3401,
      "scientific": 3402,
      ");": 3403,
      "aug": 3404,
      "bid": 3405,
      "bale": 3406,
      "bung": 3407,
      "dan": 3408,
      "dust": 3409,
      "dare": 3410,
      "dumb": 3411,
      "eat": 3412,
      "fanc": 3413,
      "german": 3414,
      "led": 3415,
      "mult": 3416,
      "pall": 3417,
      "pour": 3418,
      "pub": 3419,
      "pains": 3420,
      "pushed": 3421,
      "pumps": 3422,
      "rag": 3423,
      "roman": 3424,
      "rushed": 3425,
      "sank": 3426,
      "squee": 3427,
      "tried": 3428,
      "##ope": 3429,
      "##lings": 3430,
      "##ended": 3431,
      "##ij": 3432,
      "##ium": 3433,
      "##uce": 3434,
      "##uable": 3435,
      "##cceed": 3436,
      "##aust": 3437,
      "##erve": 3438,
      "##iny": 3439,
      "##ingers": 3440,
      "##orious": 3441,
      "##arch": 3442,
      "##arth": 3443,
      "star": 3444,
      "##otted": 3445,
      "##iment": 3446,
      "##imate": 3447,
      "send": 3448,
      "##iring": 3449,
      "shut": 3450,
      "shir": 3451,
      "ham": 3452,
      "haw": 3453,
      "hail": 3454,
      "##ooping": 3455,
      "frantic": 3456,
      "reach": 3457,
      "sum": 3458,
      "succeed": 3459,
      "space": 3460,
      "spect": 3461,
      "##ulated": 3462,
      "mechan": 3463,
      "boiling": 3464,
      "cho": 3465,
      "save": 3466,
      "##anting": 3467,
      "weld": 3468,
      "unh": 3469,
      "unb": 3470,
      "##raid": 3471,
      "##umped": 3472,
      "intent": 3473,
      "outs": 3474,
      "whenever": 3475,
      "expect": 3476,
      "doing": 3477,
      "##iful": 3478,
      "intoler": 3479,
      "ages": 3480,
      "working": 3481,
      "afraid": 3482,
      "canal": 3483,
      "##ermost": 3484,
      "amaz": 3485,
      "perse": 3486,
      "##achel": 3487,
      "harm": 3488,
      "indirect": 3489,
      "loom": 3490,
      "ourselves": 3491,
      "instinct": 3492,
      "letter": 3493,
      "endless": 3494,
      "heaving": 3495,
      "becom": 3496,
      "armed": 3497,
      "sleet": 3498,
      "monoman": 3499,
      "broke": 3500,
      "job": 3501,
      "nearer": 3502,
      "waist": 3503,
      "elij": 3504,
      "fins": 3505,
      "helped": 3506,
      "##avo": 3507,
      "infall": 3508,
      "opening": 3509,
      "supposed": 3510,
      "##vels": 3511,
      "deliver": 3512,
      "deliber": 3513,
      "ident": 3514,
      "signs": 3515,
      "silently": 3516,
      "secure": 3517,
      "secured": 3518,
      "miss": 3519,
      "streets": 3520,
      "uncons": 3521,
      "##umbling": 3522,
      "lads": 3523,
      "oarsman": 3524,
      "direction": 3525,
      "crossed": 3526,
      "latter": 3527,
      "latitudes": 3528,
      "honest": 3529,
      "utmost": 3530,
      "breakfast": 3531,
      "histor": 3532,
      "officer": 3533,
      "spoke": 3534,
      "shadows": 3535,
      "carrying": 3536,
      "virgin": 3537,
      "exceedingly": 3538,
      "events": 3539,
      "err": 3540,
      "faces": 3541,
      "involunt": 3542,
      "suffic": 3543,
      "inex": 3544,
      "violent": 3545,
      "wrinkled": 3546,
      "wrinkles": 3547,
      "exclaimed": 3548,
      "perilous": 3549,
      "descend": 3550,
      "probably": 3551,
      "palms": 3552,
      "attend": 3553,
      "disappeared": 3554,
      "##ranean": 3555,
      "intellig": 3556,
      "position": 3557,
      "employed": 3558,
      "horrible": 3559,
      "marvellous": 3560,
      "immortal": 3561,
      "future": 3562,
      "elijah": 3563,
      "17": 3564,
      "awe": 3565,
      "buck": 3566,
      "city": 3567,
      "dish": 3568,
      "dying": 3569,
      "egy": 3570,
      "food": 3571,
      "fiend": 3572,
      "fingers": 3573,
      "gle": 3574,
      "gained": 3575,
      "hue": 3576,
      "lod": 3577,
      "map": 3578,
      "nur": 3579,
      "naught": 3580,
      "naked": 3581,
      "oct": 3582,
      "pin": 3583,
      "pill": 3584,
      "piled": 3585,
      "rail": 3586,
      "sick": 3587,
      "sense": 3588,
      "tit": 3589,
      "tast": 3590,
      "vague": 3591,
      "wing": 3592,
      "wish": 3593,
      "##oa": 3594,
      "##tons": 3595,
      "##iant": 3596,
      "##ios": 3597,
      "##uish": 3598,
      "##cer": 3599,
      "##pes": 3600,
      "##aving": 3601,
      "##aves": 3602,
      "##rise": 3603,
      "##kind": 3604,
      "##vas": 3605,
      "##val": 3606,
      "##bid": 3607,
      "##eries": 3608,
      "##inous": 3609,
      "##inated": 3610,
      "##ndon": 3611,
      "##enched": 3612,
      "##oning": 3613,
      "##lling": 3614,
      "toil": 3615,
      "token": 3616,
      "towing": 3617,
      "##asc": 3618,
      "##itated": 3619,
      "##utable": 3620,
      "bears": 3621,
      "stay": 3622,
      "##alth": 3623,
      "##otch": 3624,
      "seizing": 3625,
      "shook": 3626,
      "asked": 3627,
      "##verted": 3628,
      "isle": 3629,
      "hab": 3630,
      "##icul": 3631,
      "##icious": 3632,
      "##icable": 3633,
      "##abb": 3634,
      "sul": 3635,
      "##illed": 3636,
      "deal": 3637,
      "deemed": 3638,
      "boom": 3639,
      "boots": 3640,
      "chin": 3641,
      "chased": 3642,
      "conv": 3643,
      "congreg": 3644,
      "leap": 3645,
      "leaping": 3646,
      "##ounding": 3647,
      "intens": 3648,
      "yea": 3649,
      "exte": 3650,
      "extern": 3651,
      "entered": 3652,
      "enchant": 3653,
      "flash": 3654,
      "flank": 3655,
      "##ifying": 3656,
      "worth": 3657,
      "grew": 3658,
      "rob": 3659,
      "holl": 3660,
      "afric": 3661,
      "##geon": 3662,
      "strang": 3663,
      "swell": 3664,
      "canvas": 3665,
      "handle": 3666,
      "anywhere": 3667,
      "quo": 3668,
      "quaker": 3669,
      "grad": 3670,
      "perch": 3671,
      "brown": 3672,
      "throw": 3673,
      "scores": 3674,
      "slack": 3675,
      "partly": 3676,
      "glided": 3677,
      "gliding": 3678,
      "glancing": 3679,
      "prey": 3680,
      "smell": 3681,
      "carved": 3682,
      "london": 3683,
      "moved": 3684,
      "foe": 3685,
      "obl": 3686,
      "conscious": 3687,
      "subtle": 3688,
      "##blem": 3689,
      "forming": 3690,
      "craw": 3691,
      "crazy": 3692,
      "engra": 3693,
      "considered": 3694,
      "incre": 3695,
      "##iction": 3696,
      "rolls": 3697,
      "minds": 3698,
      "buried": 3699,
      "phys": 3700,
      "points": 3701,
      "sounding": 3702,
      "darting": 3703,
      "trees": 3704,
      "##atively": 3705,
      "extra": 3706,
      "square": 3707,
      "lively": 3708,
      "continual": 3709,
      "continued": 3710,
      "closely": 3711,
      "confident": 3712,
      "##ocity": 3713,
      "murm": 3714,
      "##liest": 3715,
      "equal": 3716,
      "mounted": 3717,
      "split": 3718,
      "terrific": 3719,
      "edd": 3720,
      "tempest": 3721,
      "capture": 3722,
      "occasionally": 3723,
      "declared": 3724,
      "perceived": 3725,
      "returned": 3726,
      "extrem": 3727,
      "forget": 3728,
      "corpse": 3729,
      "arrived": 3730,
      "blanket": 3731,
      "departed": 3732,
      "planted": 3733,
      "critical": 3734,
      "reference": 3735,
      "frequently": 3736,
      "phantom": 3737,
      "customary": 3738,
      "recogn": 3739,
      "tumult": 3740,
      "beware": 3741,
      "unseen": 3742,
      "tormented": 3743,
      "simultaneously": 3744,
      "opinion": 3745,
      "private": 3746,
      "egypt": 3747,
      "...": 3748,
      "10": 3749,
      "bent": 3750,
      "cou": 3751,
      "eur": 3752,
      "foun": 3753,
      "finger": 3754,
      "gard": 3755,
      "gath": 3756,
      "hous": 3757,
      "jun": 3758,
      "laz": 3759,
      "nest": 3760,
      "names": 3761,
      "nerv": 3762,
      "oak": 3763,
      "pack": 3764,
      "pyr": 3765,
      "rom": 3766,
      "rain": 3767,
      "rust": 3768,
      "tore": 3769,
      "tide": 3770,
      "tied": 3771,
      "van": 3772,
      "##dling": 3773,
      "##dering": 3774,
      "##ech": 3775,
      "##iently": 3776,
      "##ikes": 3777,
      "##zes": 3778,
      "##pid": 3779,
      "##aly": 3780,
      "##aver": 3781,
      "##gment": 3782,
      "##ron": 3783,
      "##ker": 3784,
      "##hood": 3785,
      "##inate": 3786,
      "##eds": 3787,
      "##ater": 3788,
      "##enance": 3789,
      "oft": 3790,
      "##anch": 3791,
      "##itive": 3792,
      "hearing": 3793,
      "bethink": 3794,
      "stars": 3795,
      "##alo": 3796,
      "sem": 3797,
      "shrie": 3798,
      "##enting": 3799,
      "isol": 3800,
      "anx": 3801,
      "##aph": 3802,
      "lived": 3803,
      "##ament": 3804,
      "##alling": 3805,
      "sport": 3806,
      "bye": 3807,
      "##illy": 3808,
      "dear": 3809,
      "##ctic": 3810,
      "chanced": 3811,
      "##antity": 3812,
      "conve": 3813,
      "leaped": 3814,
      "manned": 3815,
      "mankind": 3816,
      "univers": 3817,
      "##ument": 3818,
      "##umph": 3819,
      "theirs": 3820,
      "pocket": 3821,
      "flat": 3822,
      "aband": 3823,
      "overl": 3824,
      "caps": 3825,
      "capst": 3826,
      "roared": 3827,
      "ropes": 3828,
      "hosp": 3829,
      "trows": 3830,
      "prove": 3831,
      "prolong": 3832,
      "strict": 3833,
      "pred": 3834,
      "prim": 3835,
      "swinging": 3836,
      "canst": 3837,
      "twice": 3838,
      "herd": 3839,
      "quantity": 3840,
      "brim": 3841,
      "scen": 3842,
      "scre": 3843,
      "greater": 3844,
      "thank": 3845,
      "!\"--": 3846,
      "indisp": 3847,
      "preced": 3848,
      "wherefore": 3849,
      "##ledge": 3850,
      "loaded": 3851,
      "disp": 3852,
      "muff": 3853,
      "steering": 3854,
      "##ails": 3855,
      "##ailed": 3856,
      "backs": 3857,
      "obed": 3858,
      "shoulders": 3859,
      "emer": 3860,
      "design": 3861,
      "consci": 3862,
      "matters": 3863,
      "key": 3864,
      "passion": 3865,
      "hearted": 3866,
      "lighted": 3867,
      "sooner": 3868,
      "insult": 3869,
      "inscr": 3870,
      "irres": 3871,
      "##azz": 3872,
      "tiller": 3873,
      "begin": 3874,
      "circles": 3875,
      "crack": 3876,
      "setting": 3877,
      "incom": 3878,
      "incident": 3879,
      "warp": 3880,
      "sprang": 3881,
      "keeping": 3882,
      "attempt": 3883,
      "corres": 3884,
      "touched": 3885,
      "fourth": 3886,
      "swear": 3887,
      "concent": 3888,
      "pulled": 3889,
      "street": 3890,
      "mrs": 3891,
      "repres": 3892,
      "ladies": 3893,
      "##sued": 3894,
      "relig": 3895,
      "smooth": 3896,
      "grounds": 3897,
      "famil": 3898,
      "family": 3899,
      "merry": 3900,
      "lesson": 3901,
      "seaman": 3902,
      "central": 3903,
      "milk": 3904,
      "straightway": 3905,
      "acqu": 3906,
      "wonders": 3907,
      "latitude": 3908,
      "readily": 3909,
      "calmly": 3910,
      "triumph": 3911,
      "travell": 3912,
      "elsewhere": 3913,
      "shoot": 3914,
      "please": 3915,
      "narwh": 3916,
      "leaned": 3917,
      "receiving": 3918,
      "observ": 3919,
      "descri": 3920,
      "hurry": 3921,
      "tower": 3922,
      "mountains": 3923,
      "##retched": 3924,
      "doubtless": 3925,
      "salt": 3926,
      "slightly": 3927,
      "spoken": 3928,
      "splin": 3929,
      "contrast": 3930,
      "catch": 3931,
      "anti": 3932,
      "belonged": 3933,
      "sinking": 3934,
      "##gris": 3935,
      "conceit": 3936,
      "tubs": 3937,
      "derick": 3938,
      "moody": 3939,
      "unearth": 3940,
      "exhaust": 3941,
      "swallowed": 3942,
      ").--": 3943,
      "volume": 3944,
      "polar": 3945,
      "wreck": 3946,
      "utterly": 3947,
      "worship": 3948,
      "practical": 3949,
      "ramad": 3950,
      "ponderous": 3951,
      "resolved": 3952,
      "remarkable": 3953,
      "dangerous": 3954,
      "fathoms": 3955,
      "spanish": 3956,
      "ambergris": 3957,
      "subsequent": 3958,
      "bunger": 3959,
      "indirectly": 3960,
      "trowsers": 3961,
      "correspo": 3962,
      "az": 3963,
      "ax": 3964,
      "bare": 3965,
      "buff": 3966,
      "cub": 3967,
      "damp": 3968,
      "eating": 3969,
      "fal": 3970,
      "fitted": 3971,
      "foul": 3972,
      "gam": 3973,
      "gul": 3974,
      "jew": 3975,
      "mixed": 3976,
      "money": 3977,
      "nations": 3978,
      "oath": 3979,
      "omn": 3980,
      "pu": 3981,
      "pure": 3982,
      "pair": 3983,
      "riv": 3984,
      "size": 3985,
      "test": 3986,
      "um": 3987,
      "wet": 3988,
      "wine": 3989,
      "wicked": 3990,
      "winter": 3991,
      "##lar": 3992,
      "##ees": 3993,
      "##zed": 3994,
      "##zing": 3995,
      "##gg": 3996,
      "##rim": 3997,
      "##vious": 3998,
      "##vour": 3999,
      "thread": 4000,
      "threat": 4001,
      "##enced": 4002,
      "##ision": 4003,
      "tooth": 4004,
      "##rect": 4005,
      "##ites": 4006,
      "##itch": 4007,
      "##itions": 4008,
      "hears": 4009,
      "stagg": 4010,
      "stump": 4011,
      "##otten": 4012,
      "force": 4013,
      "forge": 4014,
      "social": 4015,
      "frag": 4016,
      "reign": 4017,
      "reaching": 4018,
      "liken": 4019,
      "suspect": 4020,
      "##ams": 4021,
      "##aming": 4022,
      "##amid": 4023,
      "spars": 4024,
      "spell": 4025,
      "upright": 4026,
      "##astic": 4027,
      "##ipe": 4028,
      "##ander": 4029,
      "meat": 4030,
      "chow": 4031,
      "leag": 4032,
      "unspe": 4033,
      "##ounds": 4034,
      "noise": 4035,
      "##ishment": 4036,
      "##unch": 4037,
      "##outs": 4038,
      "shipped": 4039,
      "outward": 4040,
      "##athed": 4041,
      "poles": 4042,
      "##ooked": 4043,
      "block": 4044,
      "plat": 4045,
      "flight": 4046,
      "##aced": 4047,
      "##aces": 4048,
      "rods": 4049,
      "hoisting": 4050,
      "aflo": 4051,
      "truck": 4052,
      "timid": 4053,
      "stranded": 4054,
      "sway": 4055,
      "handed": 4056,
      "downwards": 4057,
      "quit": 4058,
      "quad": 4059,
      "watches": 4060,
      "howling": 4061,
      "clim": 4062,
      "clum": 4063,
      "class": 4064,
      "clouds": 4065,
      "seeking": 4066,
      "greatest": 4067,
      "usage": 4068,
      "slain": 4069,
      "offered": 4070,
      "smells": 4071,
      "##angu": 4072,
      "contract": 4073,
      "remot": 4074,
      "##tebra": 4075,
      "obli": 4076,
      "commun": 4077,
      "commod": 4078,
      "shoulder": 4079,
      "##ernsey": 4080,
      "calls": 4081,
      "calling": 4082,
      "mater": 4083,
      "knowledge": 4084,
      "interior": 4085,
      "ende": 4086,
      "southern": 4087,
      "heaved": 4088,
      "landed": 4089,
      "favour": 4090,
      "disting": 4091,
      "impat": 4092,
      "cursed": 4093,
      "snug": 4094,
      "entr": 4095,
      "forms": 4096,
      "moments": 4097,
      "apprehens": 4098,
      "sights": 4099,
      "infinite": 4100,
      "##ugged": 4101,
      "morrow": 4102,
      "burning": 4103,
      "spouting": 4104,
      "bowl": 4105,
      "bowels": 4106,
      "phr": 4107,
      "##osph": 4108,
      "lengthwise": 4109,
      "possession": 4110,
      "singing": 4111,
      "resting": 4112,
      "sounds": 4113,
      "serene": 4114,
      "element": 4115,
      "voc": 4116,
      "ladder": 4117,
      "courage": 4118,
      "guernsey": 4119,
      "##efully": 4120,
      "##ruct": 4121,
      "additional": 4122,
      "fearful": 4123,
      "evil": 4124,
      "oriental": 4125,
      "verd": 4126,
      "vertebra": 4127,
      "happens": 4128,
      "grace": 4129,
      "tossing": 4130,
      "ashes": 4131,
      "record": 4132,
      "america": 4133,
      "countenance": 4134,
      "freely": 4135,
      "motions": 4136,
      "aston": 4137,
      "malice": 4138,
      "barbs": 4139,
      "determ": 4140,
      "innoc": 4141,
      "contrary": 4142,
      "furnish": 4143,
      "refu": 4144,
      "leading": 4145,
      "supplied": 4146,
      "shipmate": 4147,
      "falling": 4148,
      "firmly": 4149,
      "exceeding": 4150,
      "bursting": 4151,
      "meeting": 4152,
      "painted": 4153,
      "odd": 4154,
      "sadly": 4155,
      "iii": 4156,
      "tapering": 4157,
      "sweeping": 4158,
      "fashion": 4159,
      "fashioned": 4160,
      "terms": 4161,
      "tongue": 4162,
      "inferior": 4163,
      "method": 4164,
      "narrative": 4165,
      "drowned": 4166,
      "centuries": 4167,
      "monstrous": 4168,
      "horror": 4169,
      "lonely": 4170,
      "fleece": 4171,
      "naturally": 4172,
      "hopeless": 4173,
      "prepared": 4174,
      "superstitious": 4175,
      "connected": 4176,
      "unusual": 4177,
      "desperate": 4178,
      "prairie": 4179,
      "caused": 4180,
      "despair": 4181,
      "vengeance": 4182,
      "manxman": 4183,
      "settled": 4184,
      "excellent": 4185,
      "becomes": 4186,
      "involuntarily": 4187,
      "octavo": 4188,
      "external": 4189,
      "enchanted": 4190,
      "murmured": 4191,
      "pyramid": 4192,
      "capstan": 4193,
      "indispens": 4194,
      "conscience": 4195,
      "unearthly": 4196,
      "afloat": 4197,
      "12": 4198,
      "11": 4199,
      "aught": 4200,
      "bay": 4201,
      "bud": 4202,
      "bible": 4203,
      "bank": 4204,
      "bisc": 4205,
      "cup": 4206,
      "cuvi": 4207,
      "dash": 4208,
      "dived": 4209,
      "dense": 4210,
      "diff": 4211,
      "fan": 4212,
      "ga": 4213,
      "hind": 4214,
      "hors": 4215,
      "jets": 4216,
      "jumped": 4217,
      "lid": 4218,
      "lion": 4219,
      "loun": 4220,
      "lashed": 4221,
      "mason": 4222,
      "nin": 4223,
      "pine": 4224,
      "picked": 4225,
      "ris": 4226,
      "rack": 4227,
      "ta": 4228,
      "tink": 4229,
      "tah": 4230,
      "tamb": 4231,
      "vent": 4232,
      "vall": 4233,
      "vener": 4234,
      "vice": 4235,
      "vict": 4236,
      "vivid": 4237,
      "wes": 4238,
      "wore": 4239,
      "women": 4240,
      "yarn": 4241,
      "ze": 4242,
      "##oam": 4243,
      "##oqu": 4244,
      "##end": 4245,
      "##son": 4246,
      "##ti": 4247,
      "##mast": 4248,
      "##iam": 4249,
      "##iate": 4250,
      "##iable": 4251,
      "##uch": 4252,
      "##uated": 4253,
      "##cred": 4254,
      "##ply": 4255,
      "##aved": 4256,
      "##gar": 4257,
      "##gress": 4258,
      "##rated": 4259,
      "##hog": 4260,
      "##with": 4261,
      "##bly": 4262,
      "##xter": 4263,
      "##ouched": 4264,
      "##aries": 4265,
      "##asons": 4266,
      "##asters": 4267,
      "##rehe": 4268,
      "##lement": 4269,
      "heath": 4270,
      "##utation": 4271,
      "beard": 4272,
      "beating": 4273,
      "stock": 4274,
      "sell": 4275,
      "##idence": 4276,
      "ask": 4277,
      "##enth": 4278,
      "wash": 4279,
      "##oop": 4280,
      "frig": 4281,
      "reven": 4282,
      "repose": 4283,
      "reasons": 4284,
      "lip": 4285,
      "sullen": 4286,
      "##amed": 4287,
      "notice": 4288,
      "noticed": 4289,
      "youth": 4290,
      "demon": 4291,
      "dexter": 4292,
      "upl": 4293,
      "##ctuous": 4294,
      "mead": 4295,
      "bos": 4296,
      "chat": 4297,
      "safe": 4298,
      "sacred": 4299,
      "##agon": 4300,
      "weigh": 4301,
      "alike": 4302,
      "unctuous": 4303,
      "nois": 4304,
      "##akable": 4305,
      "exist": 4306,
      "features": 4307,
      "blaz": 4308,
      "blessed": 4309,
      "plum": 4310,
      "##istic": 4311,
      "flung": 4312,
      "coin": 4313,
      "coiled": 4314,
      "worn": 4315,
      "##acity": 4316,
      "trump": 4317,
      "trouble": 4318,
      "peep": 4319,
      "process": 4320,
      "stripped": 4321,
      "arched": 4322,
      "prud": 4323,
      "proud": 4324,
      "##ourine": 4325,
      "swells": 4326,
      "canoe": 4327,
      "herds": 4328,
      "clut": 4329,
      "brid": 4330,
      "throwing": 4331,
      "crotch": 4332,
      "image": 4333,
      "using": 4334,
      "slave": 4335,
      "glit": 4336,
      "aftern": 4337,
      "mostly": 4338,
      "comprehens": 4339,
      "comprehe": 4340,
      "carefully": 4341,
      "steer": 4342,
      "contact": 4343,
      "spear": 4344,
      "speech": 4345,
      "remor": 4346,
      "rememb": 4347,
      "remote": 4348,
      "obey": 4349,
      "obvious": 4350,
      "commotion": 4351,
      "emper": 4352,
      "desired": 4353,
      "northern": 4354,
      "resp": 4355,
      "letters": 4356,
      "##opard": 4357,
      "subt": 4358,
      "subst": 4359,
      "accident": 4360,
      "heavi": 4361,
      "nights": 4362,
      "passeng": 4363,
      "sunrise": 4364,
      "smaller": 4365,
      "impart": 4366,
      "curios": 4367,
      "tender": 4368,
      "snuff": 4369,
      "entit": 4370,
      "blackness": 4371,
      "written": 4372,
      "begins": 4373,
      "early": 4374,
      "wave": 4375,
      "waif": 4376,
      "news": 4377,
      "independ": 4378,
      "##aneous": 4379,
      "##almed": 4380,
      "delir": 4381,
      "possess": 4382,
      "fastened": 4383,
      "starting": 4384,
      "floats": 4385,
      "mainmast": 4386,
      "hearse": 4387,
      "service": 4388,
      "turk": 4389,
      "peculiarities": 4390,
      "##umbled": 4391,
      "report": 4392,
      "simple": 4393,
      "advanced": 4394,
      "wanting": 4395,
      "temper": 4396,
      "temple": 4397,
      "needle": 4398,
      "needles": 4399,
      "##rup": 4400,
      "##iety": 4401,
      "pacing": 4402,
      "strongly": 4403,
      "objects": 4404,
      "helmsman": 4405,
      "fifteen": 4406,
      "naturalists": 4407,
      "observe": 4408,
      "walls": 4409,
      "fellows": 4410,
      "softly": 4411,
      "constern": 4412,
      "##mend": 4413,
      "birth": 4414,
      "birds": 4415,
      "archangel": 4416,
      "escaped": 4417,
      "concluding": 4418,
      "valuable": 4419,
      "remaining": 4420,
      "lovely": 4421,
      "discovery": 4422,
      "demanded": 4423,
      "cannibals": 4424,
      "whispered": 4425,
      "accompl": 4426,
      "elephants": 4427,
      "judgment": 4428,
      "nailed": 4429,
      "tackle": 4430,
      "covered": 4431,
      "named": 4432,
      "beholding": 4433,
      "spiritual": 4434,
      "memory": 4435,
      "swallow": 4436,
      "clothes": 4437,
      "brief": 4438,
      "perform": 4439,
      "ignorance": 4440,
      "replied": 4441,
      "included": 4442,
      "punch": 4443,
      "steadily": 4444,
      "significant": 4445,
      "fowls": 4446,
      "hoops": 4447,
      "appearance": 4448,
      "fetch": 4449,
      "pirates": 4450,
      "typh": 4451,
      "temporary": 4452,
      "indifferent": 4453,
      "articles": 4454,
      "domestic": 4455,
      "foremost": 4456,
      "mysterious": 4457,
      "elevated": 4458,
      "barbaric": 4459,
      "samuel": 4460,
      "whalebone": 4461,
      "distrust": 4462,
      "tiger": 4463,
      "wharf": 4464,
      "convenient": 4465,
      "invariably": 4466,
      "experienced": 4467,
      "baleen": 4468,
      "welded": 4469,
      "perseus": 4470,
      "monomaniac": 4471,
      "infallibly": 4472,
      "taste": 4473,
      "congregation": 4474,
      "prolonged": 4475,
      "scenes": 4476,
      "familiar": 4477,
      "narwhale": 4478,
      "ramadan": 4479,
      "oblique": 4480,
      "endeav": 4481,
      "vocation": 4482,
      "indispensable": 4483,
      "cuvier": 4484,
      "horses": 4485,
      "tahit": 4486,
      "tambourine": 4487,
      "ale": 4488,
      "ach": 4489,
      "aud": 4490,
      "caut": 4491,
      "dire": 4492,
      "fab": 4493,
      "gently": 4494,
      "hom": 4495,
      "jam": 4496,
      "jav": 4497,
      "lash": 4498,
      "langu": 4499,
      "moth": 4500,
      "mol": 4501,
      "mons": 4502,
      "nap": 4503,
      "om": 4504,
      "ox": 4505,
      "ought": 4506,
      "path": 4507,
      "pious": 4508,
      "perm": 4509,
      "pity": 4510,
      "pier": 4511,
      "paint": 4512,
      "peter": 4513,
      "rage": 4514,
      "sen": 4515,
      "san": 4516,
      "song": 4517,
      "tick": 4518,
      "task": 4519,
      "ult": 4520,
      "woman": 4521,
      "yon": 4522,
      "##oly": 4523,
      "##oss": 4524,
      "##dled": 4525,
      "##dered": 4526,
      "##ners": 4527,
      "##more": 4528,
      "##mosph": 4529,
      "##iance": 4530,
      "##uished": 4531,
      "##uously": 4532,
      "##cies": 4533,
      "##pse": 4534,
      "##rus": 4535,
      "##rising": 4536,
      "##rents": 4537,
      "##kers": 4538,
      "##her": 4539,
      "##fl": 4540,
      "##fted": 4541,
      "##joy": 4542,
      "thither": 4543,
      "threw": 4544,
      "##ergy": 4545,
      "##ino": 4546,
      "##atom": 4547,
      "##atical": 4548,
      "##atross": 4549,
      "##esc": 4550,
      "##ork": 4551,
      "##orial": 4552,
      "##orthy": 4553,
      "##ann": 4554,
      "tomb": 4555,
      "##asper": 4556,
      "##rees": 4557,
      "##lets": 4558,
      "stun": 4559,
      "stage": 4560,
      "stairs": 4561,
      "##alog": 4562,
      "##chn": 4563,
      "seb": 4564,
      "##cept": 4565,
      "##ckets": 4566,
      "ascri": 4567,
      "##ential": 4568,
      "withstand": 4569,
      "##terday": 4570,
      "##iles": 4571,
      "##ilful": 4572,
      "alle": 4573,
      "##ooped": 4574,
      "soil": 4575,
      "sooth": 4576,
      "atmosph": 4577,
      "anatom": 4578,
      "##abs": 4579,
      "##ability": 4580,
      "##ableness": 4581,
      "##apt": 4582,
      "##apes": 4583,
      "reb": 4584,
      "revel": 4585,
      "recover": 4586,
      "##ama": 4587,
      "spark": 4588,
      "spades": 4589,
      "--'": 4590,
      "##ighted": 4591,
      "chim": 4592,
      "changed": 4593,
      "manif": 4594,
      "alas": 4595,
      "neigh": 4596,
      "##umn": 4597,
      "##unched": 4598,
      "##used": 4599,
      "outl": 4600,
      "exasper": 4601,
      "enjoy": 4602,
      "bless": 4603,
      "flour": 4604,
      "coils": 4605,
      "heading": 4606,
      "everl": 4607,
      "trad": 4608,
      "prospect": 4609,
      "problem": 4610,
      "strip": 4611,
      "knives": 4612,
      "ark": 4613,
      "canall": 4614,
      "##ethe": 4615,
      "handful": 4616,
      "downward": 4617,
      "anybody": 4618,
      "##odec": 4619,
      "##uded": 4620,
      "grinning": 4621,
      "cloud": 4622,
      "bringing": 4623,
      "hereaf": 4624,
      "scorn": 4625,
      "crooked": 4626,
      "##aches": 4627,
      "##wny": 4628,
      "harem": 4629,
      "slide": 4630,
      "sliding": 4631,
      "glist": 4632,
      "prem": 4633,
      "prevent": 4634,
      "prelim": 4635,
      "throughout": 4636,
      "##lingly": 4637,
      "contem": 4638,
      "moss": 4639,
      "remind": 4640,
      "chapel": 4641,
      "fare": 4642,
      "subter": 4643,
      "##ption": 4644,
      "endure": 4645,
      "sheets": 4646,
      "skill": 4647,
      "skies": 4648,
      "lights": 4649,
      "smallest": 4650,
      "surm": 4651,
      "tear": 4652,
      "techn": 4653,
      "snee": 4654,
      "nearest": 4655,
      "nantucketers": 4656,
      "appalling": 4657,
      "elastic": 4658,
      "settle": 4659,
      "indef": 4660,
      "headsman": 4661,
      "midst": 4662,
      "bowed": 4663,
      "phren": 4664,
      "retre": 4665,
      "retained": 4666,
      "striving": 4667,
      "correct": 4668,
      "yesterday": 4669,
      "affright": 4670,
      "devilish": 4671,
      "hatches": 4672,
      "serp": 4673,
      "serious": 4674,
      "served": 4675,
      "treach": 4676,
      "tremend": 4677,
      "woods": 4678,
      "charm": 4679,
      "charge": 4680,
      "profession": 4681,
      "uncertain": 4682,
      "##umbers": 4683,
      "savages": 4684,
      "shortly": 4685,
      "expand": 4686,
      "simply": 4687,
      "relieved": 4688,
      "magic": 4689,
      "pitched": 4690,
      "prior": 4691,
      "priest": 4692,
      "milky": 4693,
      "depth": 4694,
      "depths": 4695,
      "spirits": 4696,
      "mortals": 4697,
      "driven": 4698,
      "vert": 4699,
      "gazed": 4700,
      "appeared": 4701,
      "hurried": 4702,
      "hurrah": 4703,
      "##iffs": 4704,
      "borne": 4705,
      "damn": 4706,
      "lima": 4707,
      "limbs": 4708,
      "pursued": 4709,
      "dimin": 4710,
      "divine": 4711,
      "divided": 4712,
      "detached": 4713,
      "mildly": 4714,
      "blinds": 4715,
      "summit": 4716,
      "until": 4717,
      "valiant": 4718,
      "hints": 4719,
      "experience": 4720,
      "discovered": 4721,
      "derived": 4722,
      "eastward": 4723,
      "absent": 4724,
      "glasses": 4725,
      "discern": 4726,
      "murderous": 4727,
      "boldly": 4728,
      "unex": 4729,
      "thrusting": 4730,
      "frozen": 4731,
      "descending": 4732,
      "hills": 4733,
      "pausing": 4734,
      "compasses": 4735,
      "breadth": 4736,
      "ignorant": 4737,
      "dawn": 4738,
      "##oboam": 4739,
      "feeding": 4740,
      "approaching": 4741,
      "gaining": 4742,
      "closed": 4743,
      "duodec": 4744,
      "jeroboam": 4745,
      "methinks": 4746,
      "vigil": 4747,
      "cetology": 4748,
      "imperial": 4749,
      "steadfast": 4750,
      "contriv": 4751,
      "stretched": 4752,
      "##____": 4753,
      "combined": 4754,
      "surprise": 4755,
      "century": 4756,
      "fowl": 4757,
      "george": 4758,
      "vital": 4759,
      "shuddering": 4760,
      "halloa": 4761,
      "revolving": 4762,
      "impressions": 4763,
      "hideous": 4764,
      "glimpse": 4765,
      "occurred": 4766,
      "japanese": 4767,
      "baby": 4768,
      "jeopard": 4769,
      "papers": 4770,
      "comrades": 4771,
      "hovering": 4772,
      "berth": 4773,
      "projecting": 4774,
      "destroyed": 4775,
      "counterp": 4776,
      "dilig": 4777,
      "alarm": 4778,
      "landsmen": 4779,
      "grief": 4780,
      "velocity": 4781,
      "suspic": 4782,
      "organ": 4783,
      "albatross": 4784,
      "removed": 4785,
      "accursed": 4786,
      "quohog": 4787,
      "gradually": 4788,
      "scoresby": 4789,
      "muffled": 4790,
      "buffalo": 4791,
      "leagues": 4792,
      "clumsy": 4793,
      "remotest": 4794,
      "commodore": 4795,
      "venerable": 4796,
      "zeal": 4797,
      "uplifted": 4798,
      "afternoon": 4799,
      "remorseless": 4800,
      "curiosity": 4801,
      "entitled": 4802,
      "consternation": 4803,
      "direful": 4804,
      "duodecim": 4805,
      "13": 4806,
      "aver": 4807,
      "apt": 4808,
      "ben": 4809,
      "bask": 4810,
      "bits": 4811,
      "bachel": 4812,
      "cy": 4813,
      "cro": 4814,
      "due": 4815,
      "duck": 4816,
      "dancing": 4817,
      "ender": 4818,
      "ease": 4819,
      "hate": 4820,
      "kicked": 4821,
      "larb": 4822,
      "mace": 4823,
      "miz": 4824,
      "marsh": 4825,
      "ow": 4826,
      "pist": 4827,
      "page": 4828,
      "pike": 4829,
      "rows": 4830,
      "rises": 4831,
      "tu": 4832,
      "tid": 4833,
      "tight": 4834,
      "tus": 4835,
      "vest": 4836,
      "vish": 4837,
      "wan": 4838,
      "wig": 4839,
      "wont": 4840,
      "wilt": 4841,
      "wounded": 4842,
      "wretched": 4843,
      "##lers": 4844,
      "##liness": 4845,
      "##equ": 4846,
      "##ties": 4847,
      "##iard": 4848,
      "##iers": 4849,
      "##iog": 4850,
      "##path": 4851,
      "##ae": 4852,
      "##ris": 4853,
      "##rid": 4854,
      "##ript": 4855,
      "##wed": 4856,
      "##vest": 4857,
      "##for": 4858,
      "thri": 4859,
      "thigh": 4860,
      "##inent": 4861,
      "##enish": 4862,
      "##onom": 4863,
      "##onic": 4864,
      "tops": 4865,
      "##lection": 4866,
      "##omon": 4867,
      "heel": 4868,
      "##utions": 4869,
      "beast": 4870,
      "beings": 4871,
      "belly": 4872,
      "stuck": 4873,
      "stark": 4874,
      "stave": 4875,
      "item": 4876,
      "##chief": 4877,
      "shame": 4878,
      "shaking": 4879,
      "##entat": 4880,
      "hav": 4881,
      "##iloqu": 4882,
      "##oof": 4883,
      "anon": 4884,
      "##icip": 4885,
      "render": 4886,
      "reef": 4887,
      "rejo": 4888,
      "sust": 4889,
      "##amped": 4890,
      "##allied": 4891,
      "spou": 4892,
      "spar": 4893,
      "spent": 4894,
      "##astian": 4895,
      "##esty": 4896,
      "##uls": 4897,
      "meets": 4898,
      "change": 4899,
      "wel": 4900,
      "weeks": 4901,
      "conne": 4902,
      "levelled": 4903,
      "##emin": 4904,
      "unne": 4905,
      "united": 4906,
      "unob": 4907,
      "unlike": 4908,
      "nostr": 4909,
      "##umber": 4910,
      "##unted": 4911,
      "##usions": 4912,
      "intently": 4913,
      "intended": 4914,
      "##aks": 4915,
      "feast": 4916,
      "envelop": 4917,
      "doll": 4918,
      "doct": 4919,
      "##pol": 4920,
      "##pointed": 4921,
      "able": 4922,
      "abund": 4923,
      "abounding": 4924,
      "greek": 4925,
      "##acing": 4926,
      "roaring": 4927,
      "##iousness": 4928,
      "hoist": 4929,
      "holes": 4930,
      "peering": 4931,
      "progress": 4932,
      "seemingly": 4933,
      "strained": 4934,
      "struct": 4935,
      "strugg": 4936,
      "pressed": 4937,
      "swept": 4938,
      "twisted": 4939,
      "##ieur": 4940,
      "amb": 4941,
      "hered": 4942,
      "##uding": 4943,
      "growing": 4944,
      "clust": 4945,
      "clinging": 4946,
      "bred": 4947,
      "hereby": 4948,
      "score": 4949,
      "scattered": 4950,
      "cruel": 4951,
      "usual": 4952,
      "party": 4953,
      "particul": 4954,
      "indol": 4955,
      "office": 4956,
      "prete": 4957,
      "didst": 4958,
      "yours": 4959,
      "whereby": 4960,
      "eyed": 4961,
      "adam": 4962,
      "adequ": 4963,
      "stubborn": 4964,
      "daylight": 4965,
      "##angled": 4966,
      "loss": 4967,
      "disord": 4968,
      "steam": 4969,
      "steers": 4970,
      "steep": 4971,
      "moored": 4972,
      "spend": 4973,
      "foss": 4974,
      "backed": 4975,
      "backward": 4976,
      "obst": 4977,
      "obsc": 4978,
      "commer": 4979,
      "dripping": 4980,
      "desol": 4981,
      "match": 4982,
      "presumed": 4983,
      "reserved": 4984,
      "subs": 4985,
      "breast": 4986,
      "keels": 4987,
      "interl": 4988,
      "accounted": 4989,
      "skir": 4990,
      "##ivity": 4991,
      "sunset": 4992,
      "bodies": 4993,
      "impre": 4994,
      "surgeon": 4995,
      "join": 4996,
      "jove": 4997,
      "irreg": 4998,
      "wrapped": 4999,
      "beget": 5000,
      "hardy": 5001,
      "##apsed": 5002,
      "applic": 5003,
      "larger": 5004,
      "incor": 5005,
      "incess": 5006,
      "##soever": 5007,
      "hunting": 5008,
      "fury": 5009,
      "##ormed": 5010,
      "opened": 5011,
      "wildly": 5012,
      "sleeper": 5013,
      ",--\"": 5014,
      "attention": 5015,
      "plaint": 5016,
      "action": 5017,
      "activity": 5018,
      "singular": 5019,
      "float": 5020,
      "mouths": 5021,
      "secre": 5022,
      "cheese": 5023,
      "charity": 5024,
      "bloody": 5025,
      "miserable": 5026,
      "extract": 5027,
      "supernatural": 5028,
      "##aggy": 5029,
      "ports": 5030,
      "portent": 5031,
      "finds": 5032,
      "immem": 5033,
      "considerably": 5034,
      "brace": 5035,
      "mercy": 5036,
      "wants": 5037,
      "wanted": 5038,
      "privi": 5039,
      "directions": 5040,
      "powder": 5041,
      "##parent": 5042,
      "awa": 5043,
      "awake": 5044,
      "trib": 5045,
      "tribe": 5046,
      "driving": 5047,
      "paced": 5048,
      "easily": 5049,
      "happen": 5050,
      "cruise": 5051,
      "pleased": 5052,
      "raise": 5053,
      "embark": 5054,
      "properly": 5055,
      "##upon": 5056,
      "specific": 5057,
      "malicious": 5058,
      "dimly": 5059,
      "angels": 5060,
      "constant": 5061,
      "accounts": 5062,
      "contrasting": 5063,
      "freighted": 5064,
      "mistake": 5065,
      "learn": 5066,
      "edge": 5067,
      "walking": 5068,
      "supply": 5069,
      "mystery": 5070,
      "mystical": 5071,
      "##ological": 5072,
      "crowd": 5073,
      "lurks": 5074,
      "mediter": 5075,
      "involved": 5076,
      "occasional": 5077,
      "demand": 5078,
      "whisper": 5079,
      "seventh": 5080,
      "violently": 5081,
      "judge": 5082,
      "expression": 5083,
      "##aults": 5084,
      "exclam": 5085,
      "forgotten": 5086,
      "member": 5087,
      "polite": 5088,
      "perfect": 5089,
      "##bbing": 5090,
      "excited": 5091,
      "apparently": 5092,
      "apparition": 5093,
      "tongs": 5094,
      "hauled": 5095,
      "popular": 5096,
      "candles": 5097,
      "duke": 5098,
      "vigorous": 5099,
      "bellies": 5100,
      "proport": 5101,
      "lifting": 5102,
      "comfortable": 5103,
      "listen": 5104,
      "cherish": 5105,
      "movement": 5106,
      "monsters": 5107,
      "snatching": 5108,
      "scarcely": 5109,
      "temporarily": 5110,
      "comrade": 5111,
      "sensible": 5112,
      "inclined": 5113,
      "influence": 5114,
      "##burgh": 5115,
      "weapon": 5116,
      "plunged": 5117,
      "incredible": 5118,
      "stopping": 5119,
      "principle": 5120,
      "vineyard": 5121,
      "society": 5122,
      "occupied": 5123,
      "fancied": 5124,
      "squeeze": 5125,
      "shirt": 5126,
      "succeeded": 5127,
      "intolerable": 5128,
      "sufficiently": 5129,
      "lodged": 5130,
      "mapple": 5131,
      "china": 5132,
      "oblig": 5133,
      "confidential": 5134,
      "extremity": 5135,
      "recognised": 5136,
      "tumultuous": 5137,
      "fountain": 5138,
      "houses": 5139,
      "nervous": 5140,
      "anxious": 5141,
      "traveller": 5142,
      "false": 5143,
      "chowder": 5144,
      "unspeakable": 5145,
      "biscuit": 5146,
      "revenge": 5147,
      "noiseless": 5148,
      "substant": 5149,
      "independent": 5150,
      "homage": 5151,
      "monsieur": 5152,
      "sebastian": 5153,
      "sparkling": 5154,
      "chimney": 5155,
      "everlasting": 5156,
      "hereafter": 5157,
      "tremendous": 5158,
      "larboard": 5159,
      "pistol": 5160,
      "vishn": 5161,
      "wigw": 5162,
      "particulars": 5163,
      "mediterranean": 5164,
      "16": 5165,
      ";\"": 5166,
      "bas": 5167,
      "bout": 5168,
      "bump": 5169,
      "cere": 5170,
      "cel": 5171,
      "cav": 5172,
      "dus": 5173,
      "dive": 5174,
      "dried": 5175,
      "daring": 5176,
      "dashing": 5177,
      "gn": 5178,
      "gate": 5179,
      "gang": 5180,
      "hood": 5181,
      "hang": 5182,
      "hier": 5183,
      "lose": 5184,
      "lady": 5185,
      "lashing": 5186,
      "mak": 5187,
      "nation": 5188,
      "ost": 5189,
      "omen": 5190,
      "pant": 5191,
      "pig": 5192,
      "paid": 5193,
      "rowing": 5194,
      "ranged": 5195,
      "rasc": 5196,
      "sidel": 5197,
      "ting": 5198,
      "tab": 5199,
      "tough": 5200,
      "taff": 5201,
      "ur": 5202,
      "vial": 5203,
      "wakes": 5204,
      "yaw": 5205,
      "##lies": 5206,
      "##lance": 5207,
      "##lph": 5208,
      "##lime": 5209,
      "##dom": 5210,
      "##nett": 5211,
      "##eur": 5212,
      "##sue": 5213,
      "##ius": 5214,
      "##iated": 5215,
      "##uation": 5216,
      "##ucing": 5217,
      "##come": 5218,
      "##ciously": 5219,
      "##por": 5220,
      "##ax": 5221,
      "##gent": 5222,
      "##hip": 5223,
      "##hold": 5224,
      "##ws": 5225,
      "##vil": 5226,
      "##vings": 5227,
      "##br": 5228,
      "##bal": 5229,
      "##bors": 5230,
      "##xic": 5231,
      "##fied": 5232,
      "##inating": 5233,
      "##atra": 5234,
      "##atically": 5235,
      "##armed": 5236,
      "##onoun": 5237,
      "inj": 5238,
      "inland": 5239,
      "inasm": 5240,
      "##anks": 5241,
      "whip": 5242,
      "##render": 5243,
      "##itably": 5244,
      "##ley": 5245,
      "##omb": 5246,
      "##omed": 5247,
      "hey": 5248,
      "heidel": 5249,
      "health": 5250,
      "beer": 5251,
      "behead": 5252,
      "sty": 5253,
      "##lyph": 5254,
      "##ottle": 5255,
      "##otions": 5256,
      "seals": 5257,
      "sending": 5258,
      "seize": 5259,
      "select": 5260,
      "shaped": 5261,
      "##urg": 5262,
      "##urning": 5263,
      "##entic": 5264,
      "issued": 5265,
      "button": 5266,
      "haven": 5267,
      "##oose": 5268,
      "sober": 5269,
      "##erem": 5270,
      "anvil": 5271,
      "recl": 5272,
      "liber": 5273,
      "sult": 5274,
      "##amm": 5275,
      "spinal": 5276,
      "spilled": 5277,
      "##ills": 5278,
      "##illing": 5279,
      "depend": 5280,
      "##ights": 5281,
      "##rod": 5282,
      "##ulation": 5283,
      "##ulting": 5284,
      "##ulpt": 5285,
      "mend": 5286,
      "bolt": 5287,
      "chances": 5288,
      "chair": 5289,
      "weep": 5290,
      "containing": 5291,
      "##emy": 5292,
      "##ements": 5293,
      "manag": 5294,
      "altern": 5295,
      "unch": 5296,
      "unman": 5297,
      "unnatural": 5298,
      "##rail": 5299,
      "noah": 5300,
      "##uss": 5301,
      "##usive": 5302,
      "intric": 5303,
      "intention": 5304,
      "##akers": 5305,
      "##akened": 5306,
      "thence": 5307,
      "exam": 5308,
      "exec": 5309,
      "fee": 5310,
      "entering": 5311,
      "pockets": 5312,
      "doors": 5313,
      "blade": 5314,
      "blades": 5315,
      "blasted": 5316,
      "blocks": 5317,
      "plate": 5318,
      "plane": 5319,
      "pliny": 5320,
      "ahoy": 5321,
      "flound": 5322,
      "##ortun": 5323,
      "agon": 5324,
      "agent": 5325,
      "worked": 5326,
      "worthy": 5327,
      "##acon": 5328,
      "proc": 5329,
      "seeming": 5330,
      "string": 5331,
      "knot": 5332,
      "knee": 5333,
      "knees": 5334,
      "press": 5335,
      "pride": 5336,
      "pronoun": 5337,
      "swings": 5338,
      "wouldn": 5339,
      "canoes": 5340,
      "handled": 5341,
      "##ibility": 5342,
      "qual": 5343,
      "quiver": 5344,
      "##olute": 5345,
      "perched": 5346,
      "brains": 5347,
      "brute": 5348,
      "throne": 5349,
      "sculpt": 5350,
      "crushed": 5351,
      "impe": 5352,
      "slipped": 5353,
      "slouched": 5354,
      "parted": 5355,
      "##ppa": 5356,
      "offer": 5357,
      "preach": 5358,
      "prepar": 5359,
      "smack": 5360,
      "wherein": 5361,
      "fires": 5362,
      "cream": 5363,
      "compared": 5364,
      "carc": 5365,
      "careless": 5366,
      "load": 5367,
      "loving": 5368,
      "mayhe": 5369,
      "##ecting": 5370,
      "steered": 5371,
      "spears": 5372,
      "specially": 5373,
      "couldn": 5374,
      "desire": 5375,
      "desert": 5376,
      "conspic": 5377,
      "resc": 5378,
      "##clusion": 5379,
      "submer": 5380,
      "sublime": 5381,
      "##ension": 5382,
      "##ensive": 5383,
      "chapters": 5384,
      "woven": 5385,
      "sheet": 5386,
      "sheep": 5387,
      "landsman": 5388,
      "##landish": 5389,
      "tells": 5390,
      "lowly": 5391,
      "hearty": 5392,
      "highest": 5393,
      "survi": 5394,
      "currents": 5395,
      "##oglyph": 5396,
      "snap": 5397,
      "snapped": 5398,
      "handsp": 5399,
      "humorous": 5400,
      "joke": 5401,
      "joppa": 5402,
      "marvels": 5403,
      "entry": 5404,
      "wrong": 5405,
      "purch": 5406,
      "##kington": 5407,
      "pipes": 5408,
      "applied": 5409,
      "foreign": 5410,
      "huzz": 5411,
      "##soci": 5412,
      "runs": 5413,
      "warning": 5414,
      "##avings": 5415,
      "infidel": 5416,
      "infernal": 5417,
      "leviathanic": 5418,
      "layer": 5419,
      "sleepy": 5420,
      "draught": 5421,
      "retain": 5422,
      "returning": 5423,
      "seasons": 5424,
      "keeps": 5425,
      "active": 5426,
      "bulkington": 5427,
      "harpooned": 5428,
      "largely": 5429,
      "bestowed": 5430,
      "##bear": 5431,
      "hearth": 5432,
      "affected": 5433,
      "affection": 5434,
      "sounded": 5435,
      "seren": 5436,
      "hammered": 5437,
      "reasonable": 5438,
      "securing": 5439,
      "colt": 5440,
      "coloss": 5441,
      "column": 5442,
      "elements": 5443,
      "solomon": 5444,
      "squares": 5445,
      "finding": 5446,
      "consideration": 5447,
      "guard": 5448,
      "grandeur": 5449,
      "homeward": 5450,
      "bowsman": 5451,
      "bowspr": 5452,
      "confess": 5453,
      "##ruction": 5454,
      "address": 5455,
      "carpet": 5456,
      "fearless": 5457,
      "swims": 5458,
      "hundreds": 5459,
      "evangel": 5460,
      "masses": 5461,
      "reading": 5462,
      "ordered": 5463,
      "shoal": 5464,
      "shoals": 5465,
      "happy": 5466,
      "particularly": 5467,
      "transp": 5468,
      "transparent": 5469,
      "fluid": 5470,
      "built": 5471,
      "receive": 5472,
      "equally": 5473,
      "observing": 5474,
      "descript": 5475,
      "specim": 5476,
      "towed": 5477,
      "cryst": 5478,
      "stepped": 5479,
      "angel": 5480,
      "anguish": 5481,
      "iceber": 5482,
      "storms": 5483,
      "respects": 5484,
      "mistaken": 5485,
      "horns": 5486,
      "belongs": 5487,
      "belonging": 5488,
      "illum": 5489,
      "walk": 5490,
      "measured": 5491,
      "proceeds": 5492,
      "snowy": 5493,
      "blew": 5494,
      "musc": 5495,
      "viciss": 5496,
      "conclude": 5497,
      "admit": 5498,
      "shrouds": 5499,
      "accordingly": 5500,
      "eventually": 5501,
      "lurked": 5502,
      "medit": 5503,
      "dreams": 5504,
      "penetr": 5505,
      "rocking": 5506,
      "distinctly": 5507,
      "coloured": 5508,
      "girls": 5509,
      "dogs": 5510,
      "strove": 5511,
      "exhib": 5512,
      "potent": 5513,
      "perceive": 5514,
      "dismal": 5515,
      "pitchpo": 5516,
      "eagerly": 5517,
      "eagerness": 5518,
      "motionless": 5519,
      "gunwales": 5520,
      "interesting": 5521,
      "schools": 5522,
      "schoolm": 5523,
      "lucky": 5524,
      "panic": 5525,
      "wrecked": 5526,
      "balls": 5527,
      "daily": 5528,
      "measureless": 5529,
      "trop": 5530,
      "popularly": 5531,
      "closer": 5532,
      "estab": 5533,
      "including": 5534,
      "folded": 5535,
      "hatchway": 5536,
      "authority": 5537,
      "contrib": 5538,
      "operation": 5539,
      "widow": 5540,
      "inhab": 5541,
      "explain": 5542,
      "phantoms": 5543,
      "concerned": 5544,
      "solemnly": 5545,
      "bubbles": 5546,
      "vitality": 5547,
      "shudder": 5548,
      "comparatively": 5549,
      "fields": 5550,
      "musket": 5551,
      "perpendicularly": 5552,
      "melanch": 5553,
      "screwed": 5554,
      "moonlight": 5555,
      "rumors": 5556,
      "tattooed": 5557,
      "witness": 5558,
      "weapons": 5559,
      "surrounded": 5560,
      "sympt": 5561,
      "sympath": 5562,
      "stopped": 5563,
      "withdrawing": 5564,
      "lingering": 5565,
      "beauty": 5566,
      "beautiful": 5567,
      "satisfact": 5568,
      "august": 5569,
      "published": 5570,
      "mechanically": 5571,
      "deliberately": 5572,
      "historical": 5573,
      "habit": 5574,
      "intensity": 5575,
      "extending": 5576,
      "holland": 5577,
      "africa": 5578,
      "gathered": 5579,
      "universal": 5580,
      "abandoned": 5581,
      "hospit": 5582,
      "obedience": 5583,
      "inscrutable": 5584,
      "irresist": 5585,
      "religion": 5586,
      "shooting": 5587,
      "described": 5588,
      "gulf": 5589,
      "puzz": 5590,
      "quadrant": 5591,
      "communic": 5592,
      "material": 5593,
      "vertebrae": 5594,
      "western": 5595,
      "bosom": 5596,
      "glittering": 5597,
      "typhoon": 5598,
      "obliquely": 5599,
      "traditions": 5600,
      "canallers": 5601,
      "preliminary": 5602,
      "sneezes": 5603,
      "contrivances": 5604,
      "zealand": 5605,
      "duodecimo": 5606,
      "bachelor": 5607,
      "enderby": 5608,
      "thrice": 5609,
      "connexion": 5610,
      "vishnoo": 5611,
      "wigwam": 5612,
      "hieroglyph": 5613,
      "taffrail": 5614,
      "inasmuch": 5615,
      "heidelburgh": 5616,
      "mayhew": 5617,
      "submerged": 5618,
      "huzza": 5619,
      "bowsprit": 5620,
      "melancholy": 5621,
      ".,": 5622,
      "bon": 5623,
      "bord": 5624,
      "bash": 5625,
      "bunch": 5626,
      "bottle": 5627,
      "cz": 5628,
      "cad": 5629,
      "cant": 5630,
      "cost": 5631,
      "cable": 5632,
      "cash": 5633,
      "caul": 5634,
      "dy": 5635,
      "dur": 5636,
      "dum": 5637,
      "dull": 5638,
      "diver": 5639,
      "es": 5640,
      "ep": 5641,
      "eb": 5642,
      "fest": 5643,
      "fib": 5644,
      "fits": 5645,
      "gor": 5646,
      "games": 5647,
      "gorge": 5648,
      "herm": 5649,
      "hated": 5650,
      "icy": 5651,
      "lou": 5652,
      "lest": 5653,
      "lust": 5654,
      "lbs": 5655,
      "mow": 5656,
      "male": 5657,
      "mart": 5658,
      "mary": 5659,
      "maz": 5660,
      "nut": 5661,
      "pud": 5662,
      "pace": 5663,
      "piv": 5664,
      "pause": 5665,
      "pile": 5666,
      "push": 5667,
      "ren": 5668,
      "rout": 5669,
      "rings": 5670,
      "rubb": 5671,
      "raz": 5672,
      "river": 5673,
      "ranging": 5674,
      "ripp": 5675,
      "rude": 5676,
      "sine": 5677,
      "sized": 5678,
      "sister": 5679,
      "tart": 5680,
      "tons": 5681,
      "tarsh": 5682,
      "vind": 5683,
      "viv": 5684,
      "vult": 5685,
      "wis": 5686,
      "wand": 5687,
      "wings": 5688,
      "wilful": 5689,
      "yar": 5690,
      "##of": 5691,
      "##oid": 5692,
      "##oke": 5693,
      "##lor": 5694,
      "##don": 5695,
      "##dles": 5696,
      "##nom": 5697,
      "##nal": 5698,
      "##nav": 5699,
      "##een": 5700,
      "##sac": 5701,
      "##ih": 5702,
      "##ufact": 5703,
      "##pet": 5704,
      "##pers": 5705,
      "##pass": 5706,
      "##ai": 5707,
      "##ault": 5708,
      "##gers": 5709,
      "##rained": 5710,
      "##raged": 5711,
      "##raph": 5712,
      "##here": 5713,
      "##wre": 5714,
      "##vation": 5715,
      "##vive": 5716,
      "##bing": 5717,
      "##bow": 5718,
      "##band": 5719,
      "##fy": 5720,
      "##fety": 5721,
      "##50": 5722,
      "thor": 5723,
      "##erity": 5724,
      "##nds": 5725,
      "##edge": 5726,
      "##ouch": 5727,
      "##arming": 5728,
      "andes": 5729,
      "inse": 5730,
      "##lla": 5731,
      "##aned": 5732,
      "whe": 5733,
      "toler": 5734,
      "##iture": 5735,
      "##leep": 5736,
      "##lege": 5737,
      "##omach": 5738,
      "beale": 5739,
      "stal": 5740,
      "stol": 5741,
      "states": 5742,
      "stayed": 5743,
      "stories": 5744,
      "stomach": 5745,
      "##adoes": 5746,
      "##althy": 5747,
      "##etically": 5748,
      "##iments": 5749,
      "##sec": 5750,
      "forb": 5751,
      "seal": 5752,
      "search": 5753,
      "##idity": 5754,
      "##idents": 5755,
      "shel": 5756,
      "shows": 5757,
      "shade": 5758,
      "shores": 5759,
      "shuttle": 5760,
      "shaggy": 5761,
      "shavings": 5762,
      "associ": 5763,
      "##vern": 5764,
      "butt": 5765,
      "washing": 5766,
      "hailing": 5767,
      "##ili": 5768,
      "##ilities": 5769,
      "allusions": 5770,
      "##ooves": 5771,
      "sold": 5772,
      "socket": 5773,
      "ano": 5774,
      "##icted": 5775,
      "##abouts": 5776,
      "frank": 5777,
      "##ionable": 5778,
      "reality": 5779,
      "suit": 5780,
      "spit": 5781,
      "spasm": 5782,
      "dey": 5783,
      "develop": 5784,
      "##road": 5785,
      "##rolled": 5786,
      "##esting": 5787,
      "##ulate": 5788,
      "##ulations": 5789,
      "boil": 5790,
      "chasing": 5791,
      "safety": 5792,
      "##rib": 5793,
      "##rian": 5794,
      "wears": 5795,
      "weaving": 5796,
      "congen": 5797,
      "convers": 5798,
      "lege": 5799,
      "unin": 5800,
      "unim": 5801,
      "nob": 5802,
      "##ishop": 5803,
      "introd": 5804,
      "outside": 5805,
      "outlandish": 5806,
      "##athem": 5807,
      "##ustr": 5808,
      "energy": 5809,
      "poison": 5810,
      "polished": 5811,
      "dod": 5812,
      "dolph": 5813,
      "plates": 5814,
      "flip": 5815,
      "flies": 5816,
      "flinging": 5817,
      "flanks": 5818,
      "##orting": 5819,
      "agony": 5820,
      "aggreg": 5821,
      "coal": 5822,
      "cock": 5823,
      "coiling": 5824,
      "##quity": 5825,
      "overt": 5826,
      "headlong": 5827,
      "hose": 5828,
      "trades": 5829,
      "timber": 5830,
      "kneel": 5831,
      "arctic": 5832,
      "arsac": 5833,
      "prime": 5834,
      "swore": 5835,
      "amount": 5836,
      "herself": 5837,
      "hercul": 5838,
      "quality": 5839,
      "##olic": 5840,
      "grin": 5841,
      "perv": 5842,
      "clo": 5843,
      "clay": 5844,
      "claim": 5845,
      "uses": 5846,
      "slip": 5847,
      "slop": 5848,
      "glances": 5849,
      "indic": 5850,
      "induce": 5851,
      "smitten": 5852,
      "yourselves": 5853,
      "##ordinary": 5854,
      "creation": 5855,
      "created": 5856,
      "compare": 5857,
      "compact": 5858,
      "liter": 5859,
      "everywhere": 5860,
      "everybody": 5861,
      "locks": 5862,
      "diss": 5863,
      "disg": 5864,
      "displ": 5865,
      "steed": 5866,
      "##ailing": 5867,
      "contents": 5868,
      "fond": 5869,
      "obtained": 5870,
      "commenced": 5871,
      "dressed": 5872,
      "drooping": 5873,
      "drugged": 5874,
      "conscient": 5875,
      "rese": 5876,
      "resur": 5877,
      "subd": 5878,
      "worlds": 5879,
      "interp": 5880,
      "ended": 5881,
      "sunk": 5882,
      "highly": 5883,
      "lightly": 5884,
      "invo": 5885,
      "holds": 5886,
      "curling": 5887,
      "teach": 5888,
      "insuff": 5889,
      "joint": 5890,
      "joined": 5891,
      "purse": 5892,
      "##plicable": 5893,
      "wax": 5894,
      "wait": 5895,
      "waving": 5896,
      "cracked": 5897,
      "hug": 5898,
      "incarn": 5899,
      "presents": 5900,
      "##ification": 5901,
      "warri": 5902,
      "furious": 5903,
      "lays": 5904,
      "supre": 5905,
      "minded": 5906,
      "sleeps": 5907,
      "burden": 5908,
      "spoutings": 5909,
      "##poses": 5910,
      "##position": 5911,
      "possessed": 5912,
      "sprink": 5913,
      "attent": 5914,
      "attitude": 5915,
      "coron": 5916,
      "coral": 5917,
      "corrupt": 5918,
      "signal": 5919,
      "tails": 5920,
      "benevol": 5921,
      "doublo": 5922,
      "startled": 5923,
      "market": 5924,
      "parall": 5925,
      "assured": 5926,
      "busy": 5927,
      "hammers": 5928,
      "treated": 5929,
      "tremb": 5930,
      "peculiarity": 5931,
      "cheek": 5932,
      "cheeks": 5933,
      "colon": 5934,
      "profess": 5935,
      "profane": 5936,
      "visited": 5937,
      "soliloqu": 5938,
      "circumfer": 5939,
      "circumnav": 5940,
      "squid": 5941,
      "reply": 5942,
      "repair": 5943,
      "artific": 5944,
      "voices": 5945,
      "baron": 5946,
      "persu": 5947,
      "placing": 5948,
      "furthermore": 5949,
      "seams": 5950,
      "coffins": 5951,
      "prick": 5952,
      "veil": 5953,
      "needed": 5954,
      "spiracle": 5955,
      "addressed": 5956,
      "bottomless": 5957,
      "casual": 5958,
      "powers": 5959,
      "commonly": 5960,
      "rigged": 5961,
      "sixteen": 5962,
      "unde": 5963,
      "casta": 5964,
      "widely": 5965,
      "shoe": 5966,
      "shoes": 5967,
      "transfer": 5968,
      "facts": 5969,
      "fluke": 5970,
      "build": 5971,
      "surely": 5972,
      "questions": 5973,
      "magnetic": 5974,
      "appears": 5975,
      "fifth": 5976,
      "breakers": 5977,
      "coasts": 5978,
      "companions": 5979,
      "dragging": 5980,
      "tablets": 5981,
      "property": 5982,
      "fatality": 5983,
      "thickness": 5984,
      "breaths": 5985,
      "limb": 5986,
      "limit": 5987,
      "stepping": 5988,
      "dividing": 5989,
      "angle": 5990,
      "iceland": 5991,
      "ribbed": 5992,
      "innermost": 5993,
      "splice": 5994,
      "catching": 5995,
      "anticip": 5996,
      "blindly": 5997,
      "destined": 5998,
      "destruction": 5999,
      "eighteen": 6000,
      "christians": 6001,
      "##gerhead": 6002,
      "##ertion": 6003,
      "separately": 6004,
      "honourable": 6005,
      "eternally": 6006,
      "lurking": 6007,
      "laws": 6008,
      "unwar": 6009,
      "promise": 6010,
      "fisherman": 6011,
      "annih": 6012,
      "collected": 6013,
      "anchors": 6014,
      "animated": 6015,
      "absor": 6016,
      "absolute": 6017,
      "loggerhead": 6018,
      "laughed": 6019,
      "girl": 6020,
      "ineff": 6021,
      "murderer": 6022,
      "nails": 6023,
      "frenchman": 6024,
      "burnt": 6025,
      "figures": 6026,
      "odor": 6027,
      "buoyant": 6028,
      "brig": 6029,
      "drawers": 6030,
      "182": 6031,
      "excit": 6032,
      "feeder": 6033,
      "faithful": 6034,
      "porpoises": 6035,
      "banks": 6036,
      "requires": 6037,
      "necessity": 6038,
      "necessary": 6039,
      "bedfell": 6040,
      "ghosts": 6041,
      "candle": 6042,
      "este": 6043,
      "funny": 6044,
      "jerking": 6045,
      "propri": 6046,
      "immediate": 6047,
      "cooper": 6048,
      "coolly": 6049,
      "punct": 6050,
      "investig": 6051,
      "stretch": 6052,
      "uncommonly": 6053,
      "cords": 6054,
      "labor": 6055,
      "study": 6056,
      "intellect": 6057,
      "copper": 6058,
      "surprising": 6059,
      "straining": 6060,
      "##uvian": 6061,
      "shivering": 6062,
      "unreason": 6063,
      "grasping": 6064,
      "earnestly": 6065,
      "delicate": 6066,
      "delicacy": 6067,
      "loudly": 6068,
      "whirl": 6069,
      "whirling": 6070,
      "argument": 6071,
      "indifference": 6072,
      "hempen": 6073,
      "diam": 6074,
      "millions": 6075,
      "foremast": 6076,
      "knocking": 6077,
      "influences": 6078,
      "equatorial": 6079,
      "majestic": 6080,
      "inquir": 6081,
      "alarmed": 6082,
      "shrouded": 6083,
      "woof": 6084,
      "woollen": 6085,
      "ascending": 6086,
      "sunday": 6087,
      "bolted": 6088,
      "bolts": 6089,
      "charts": 6090,
      "consequence": 6091,
      "calculated": 6092,
      "bidding": 6093,
      "spectacle": 6094,
      "mechanical": 6095,
      "expected": 6096,
      "identical": 6097,
      "unconscious": 6098,
      "unconsciously": 6099,
      "inexplicable": 6100,
      "intelligent": 6101,
      "intelligence": 6102,
      "177": 6103,
      "pillow": 6104,
      "title": 6105,
      "strangers": 6106,
      "increased": 6107,
      "physiog": 6108,
      "extraordinary": 6109,
      "egyptian": 6110,
      "europe": 6111,
      "garden": 6112,
      "romantic": 6113,
      "strictly": 6114,
      "incidentally": 6115,
      "representing": 6116,
      "splintered": 6117,
      "corresponding": 6118,
      "omnip": 6119,
      "threads": 6120,
      "likeness": 6121,
      "contracting": 6122,
      "distinguished": 6123,
      "##ructed": 6124,
      "verdure": 6125,
      "ninety": 6126,
      "existence": 6127,
      "blazing": 6128,
      "trumpet": 6129,
      "prudent": 6130,
      "heavily": 6131,
      "##rupted": 6132,
      "accomplished": 6133,
      "java": 6134,
      "sanct": 6135,
      "ultimate": 6136,
      "glistening": 6137,
      "technically": 6138,
      "indefinite": 6139,
      "phrenolog": 6140,
      "vigilance": 6141,
      "counterpane": 6142,
      "diligently": 6143,
      "macey": 6144,
      "spouter": 6145,
      "nostrils": 6146,
      "dollars": 6147,
      "structure": 6148,
      "hereditary": 6149,
      "pretend": 6150,
      "adequately": 6151,
      "steersman": 6152,
      "irregular": 6153,
      "immemorial": 6154,
      "privilege": 6155,
      "hooded": 6156,
      "sidelong": 6157,
      "conspicuous": 6158,
      "colossal": 6159,
      "description": 6160,
      "vicissitudes": 6161,
      "inhabit": 6162,
      "dyspe": 6163,
      "pivot": 6164,
      "tarshish": 6165,
      "yarman": 6166,
      "thorough": 6167,
      "spasmod": 6168,
      "congenial": 6169,
      "doubloons": 6170,
      "circumnavig": 6171,
      "annihil": 6172,
      "physiognom": 6173,
      "\";": 6174,
      "awhile": 6175,
      "bust": 6176,
      "bony": 6177,
      "bapt": 6178,
      "cit": 6179,
      "cart": 6180,
      "cell": 6181,
      "caw": 6182,
      "cave": 6183,
      "cott": 6184,
      "ding": 6185,
      "dir": 6186,
      "dies": 6187,
      "dance": 6188,
      "daught": 6189,
      "duly": 6190,
      "diving": 6191,
      "divers": 6192,
      "diction": 6193,
      "et": 6194,
      "fug": 6195,
      "file": 6196,
      "fates": 6197,
      "gest": 6198,
      "gush": 6199,
      "garn": 6200,
      "hen": 6201,
      "hath": 6202,
      "hilar": 6203,
      "honey": 6204,
      "hangs": 6205,
      "ju": 6206,
      "jot": 6207,
      "jour": 6208,
      "jib": 6209,
      "jung": 6210,
      "jugg": 6211,
      "lot": 6212,
      "lap": 6213,
      "link": 6214,
      "links": 6215,
      "luc": 6216,
      "mess": 6217,
      "mile": 6218,
      "maid": 6219,
      "mathem": 6220,
      "net": 6221,
      "nomin": 6222,
      "numbers": 6223,
      "opp": 6224,
      "pet": 6225,
      "pump": 6226,
      "pushing": 6227,
      "perman": 6228,
      "perem": 6229,
      "rh": 6230,
      "rat": 6231,
      "rot": 6232,
      "rous": 6233,
      "rand": 6234,
      "rif": 6235,
      "rud": 6236,
      "rays": 6237,
      "ratt": 6238,
      "riot": 6239,
      "rachel": 6240,
      "ripe": 6241,
      "sap": 6242,
      "sour": 6243,
      "sons": 6244,
      "til": 6245,
      "tant": 6246,
      "tone": 6247,
      "tame": 6248,
      "tides": 6249,
      "tumbled": 6250,
      "useless": 6251,
      "ward": 6252,
      "wol": 6253,
      "waking": 6254,
      "york": 6255,
      "##ov": 6256,
      "##ole": 6257,
      "##oir": 6258,
      "##oons": 6259,
      "##oken": 6260,
      "##lin": 6261,
      "##lest": 6262,
      "##lier": 6263,
      "##ders": 6264,
      "##nam": 6265,
      "##nings": 6266,
      "##eer": 6267,
      "##eys": 6268,
      "##tic": 6269,
      "##tling": 6270,
      "##mod": 6271,
      "##mber": 6272,
      "##ials": 6273,
      "##ux": 6274,
      "##cil": 6275,
      "##pable": 6276,
      "##aft": 6277,
      "##avel": 6278,
      "##gul": 6279,
      "##rowed": 6280,
      "##rised": 6281,
      "##rayed": 6282,
      "##hor": 6283,
      "##vet": 6284,
      "##vity": 6285,
      "##bac": 6286,
      "##5th": 6287,
      "##inable": 6288,
      "##ndants": 6289,
      "##eder": 6290,
      "##atory": 6291,
      "##ators": 6292,
      "##esy": 6293,
      "##ena": 6294,
      "##enomen": 6295,
      "##encies": 6296,
      "##orig": 6297,
      "##orily": 6298,
      "##arian": 6299,
      "##isk": 6300,
      "inverted": 6301,
      "##anim": 6302,
      "##anity": 6303,
      "##anning": 6304,
      "whel": 6305,
      "whist": 6306,
      "tot": 6307,
      "toes": 6308,
      "tobac": 6309,
      "##ases": 6310,
      "##requ": 6311,
      "##rection": 6312,
      "##repid": 6313,
      "##utored": 6314,
      "bend": 6315,
      "beams": 6316,
      "station": 6317,
      "staring": 6318,
      "staff": 6319,
      "##char": 6320,
      "##change": 6321,
      "##etts": 6322,
      "onset": 6323,
      "##otent": 6324,
      "##imental": 6325,
      "##semb": 6326,
      "forged": 6327,
      "forked": 6328,
      "forbear": 6329,
      "##cell": 6330,
      "##celer": 6331,
      "shown": 6332,
      "shred": 6333,
      "shakes": 6334,
      "shades": 6335,
      "shattered": 6336,
      "asleep": 6337,
      "##urable": 6338,
      "##urance": 6339,
      "##entimes": 6340,
      "##veh": 6341,
      "##vert": 6342,
      "##verb": 6343,
      "butch": 6344,
      "##ainted": 6345,
      "haz": 6346,
      "hap": 6347,
      "haught": 6348,
      "##ilty": 6349,
      "allow": 6350,
      "allowed": 6351,
      "alluded": 6352,
      "soot": 6353,
      "anom": 6354,
      "analog": 6355,
      "##abol": 6356,
      "##abled": 6357,
      "##abama": 6358,
      "livel": 6359,
      "sug": 6360,
      "suck": 6361,
      "sucking": 6362,
      "note": 6363,
      "notwith": 6364,
      "deed": 6365,
      "deaf": 6366,
      "upward": 6367,
      "uprising": 6368,
      "##ipel": 6369,
      "##ulating": 6370,
      "meals": 6371,
      "chis": 6372,
      "cham": 6373,
      "chocks": 6374,
      "saved": 6375,
      "therein": 6376,
      "##rift": 6377,
      "##antage": 6378,
      "##agoes": 6379,
      "week": 6380,
      "weaver": 6381,
      "contains": 6382,
      "conclusion": 6383,
      "##erson": 6384,
      "orph": 6385,
      "manill": 6386,
      "alabama": 6387,
      "ung": 6388,
      "unr": 6389,
      "uner": 6390,
      "unst": 6391,
      "unite": 6392,
      "univer": 6393,
      "uncond": 6394,
      "##uments": 6395,
      "##using": 6396,
      "##usants": 6397,
      "inte": 6398,
      "intrepid": 6399,
      "shipping": 6400,
      "shipwre": 6401,
      "outr": 6402,
      "yelled": 6403,
      "govern": 6404,
      "exter": 6405,
      "feat": 6406,
      "fever": 6407,
      "fears": 6408,
      "enlar": 6409,
      "enraged": 6410,
      "blowing": 6411,
      "pla": 6412,
      "plague": 6413,
      "##istical": 6414,
      "fled": 6415,
      "flog": 6416,
      "flitting": 6417,
      "##inder": 6418,
      "abomin": 6419,
      "abroad": 6420,
      "abhor": 6421,
      "aborig": 6422,
      "coil": 6423,
      "overhe": 6424,
      "overhead": 6425,
      "header": 6426,
      "##aco": 6427,
      "##acles": 6428,
      "capit": 6429,
      "capable": 6430,
      "capric": 6431,
      "roar": 6432,
      "##ucked": 6433,
      "trip": 6434,
      "trust": 6435,
      "pear": 6436,
      "proced": 6437,
      "proverb": 6438,
      "strand": 6439,
      "pry": 6440,
      "##ours": 6441,
      "##oured": 6442,
      "swing": 6443,
      "swelled": 6444,
      "swerve": 6445,
      "twin": 6446,
      "twain": 6447,
      "twil": 6448,
      "twig": 6449,
      "twine": 6450,
      "##ieve": 6451,
      "##ermon": 6452,
      "hero": 6453,
      "quitting": 6454,
      "longitude": 6455,
      "grant": 6456,
      "perish": 6457,
      "perished": 6458,
      "clin": 6459,
      "brill": 6460,
      "brand": 6461,
      "brood": 6462,
      "bride": 6463,
      "hereabouts": 6464,
      "scal": 6465,
      "scud": 6466,
      "science": 6467,
      "scales": 6468,
      "cran": 6469,
      "crim": 6470,
      "seeks": 6471,
      "##inking": 6472,
      "greatly": 6473,
      "usually": 6474,
      "usages": 6475,
      "slipp": 6476,
      "glanced": 6477,
      "pref": 6478,
      "pretern": 6479,
      "smiting": 6480,
      "wherever": 6481,
      "##ordinate": 6482,
      "##urned": 6483,
      "adie": 6484,
      "admon": 6485,
      "advice": 6486,
      "adrift": 6487,
      "compet": 6488,
      "complim": 6489,
      "carving": 6490,
      "##angling": 6491,
      "?\"--": 6492,
      "disd": 6493,
      "dischar": 6494,
      "mightiest": 6495,
      "owner": 6496,
      "contro": 6497,
      "contempt": 6498,
      "mob": 6499,
      "mogul": 6500,
      "##arying": 6501,
      "spending": 6502,
      "foes": 6503,
      "##vial": 6504,
      "drugg": 6505,
      "emotions": 6506,
      "deser": 6507,
      "consist": 6508,
      "betoken": 6509,
      "betrayed": 6510,
      "preser": 6511,
      "presence": 6512,
      "resumed": 6513,
      "resuming": 6514,
      "knowest": 6515,
      "substit": 6516,
      "##igned": 6517,
      "##ensed": 6518,
      "breed": 6519,
      "interm": 6520,
      "accidents": 6521,
      "sheath": 6522,
      "winding": 6523,
      "##lands": 6524,
      "rights": 6525,
      "belief": 6526,
      "sunken": 6527,
      "sunlight": 6528,
      "impet": 6529,
      "impro": 6530,
      "surrender": 6531,
      "surpass": 6532,
      "curse": 6533,
      "curled": 6534,
      "curiously": 6535,
      "slee": 6536,
      "slender": 6537,
      "month": 6538,
      "tears": 6539,
      "insanity": 6540,
      "joll": 6541,
      "marching": 6542,
      "margin": 6543,
      "entreat": 6544,
      "wrest": 6545,
      "wrath": 6546,
      "wrist": 6547,
      "wrought": 6548,
      "wrists": 6549,
      "wrenched": 6550,
      "circular": 6551,
      "purple": 6552,
      "##plings": 6553,
      "appet": 6554,
      "finest": 6555,
      "newly": 6556,
      "generations": 6557,
      "##ictions": 6558,
      "feelings": 6559,
      "cannon": 6560,
      "furiously": 6561,
      "devout": 6562,
      "deeply": 6563,
      "deepest": 6564,
      "##pses": 6565,
      "darker": 6566,
      "laying": 6567,
      "cabaco": 6568,
      "sleepers": 6569,
      "bury": 6570,
      "spouted": 6571,
      "terra": 6572,
      "bowing": 6573,
      "phenomen": 6574,
      "##osed": 6575,
      "retired": 6576,
      "fasten": 6577,
      "boarded": 6578,
      "dreary": 6579,
      "doubts": 6580,
      "bestir": 6581,
      "parm": 6582,
      "parlor": 6583,
      "affairs": 6584,
      "commanders": 6585,
      "killer": 6586,
      "killing": 6587,
      "soundings": 6588,
      "drops": 6589,
      "serve": 6590,
      "turb": 6591,
      "assist": 6592,
      "assail": 6593,
      "mouthful": 6594,
      "treat": 6595,
      "treas": 6596,
      "peculiarly": 6597,
      "profund": 6598,
      "miser": 6599,
      "vision": 6600,
      "uncon": 6601,
      "completed": 6602,
      "complexion": 6603,
      "symm": 6604,
      "expans": 6605,
      "heavenly": 6606,
      "##suing": 6607,
      "related": 6608,
      "relief": 6609,
      "considerations": 6610,
      "barn": 6611,
      "persons": 6612,
      "persian": 6613,
      "earthqu": 6614,
      "braces": 6615,
      "brawny": 6616,
      "madden": 6617,
      "court": 6618,
      "courses": 6619,
      "merid": 6620,
      "beside": 6621,
      "guine": 6622,
      "##plex": 6623,
      "coffee": 6624,
      "pitching": 6625,
      "confidence": 6626,
      "cooked": 6627,
      "veins": 6628,
      "directed": 6629,
      "military": 6630,
      "depress": 6631,
      "spires": 6632,
      "spiral": 6633,
      "##elson": 6634,
      "acceler": 6635,
      "aware": 6636,
      "triang": 6637,
      "trace": 6638,
      "track": 6639,
      "travel": 6640,
      "##ieties": 6641,
      "drift": 6642,
      "murdered": 6643,
      "casting": 6644,
      "glob": 6645,
      "transf": 6646,
      "cruis": 6647,
      "raises": 6648,
      "recall": 6649,
      "recalled": 6650,
      "americans": 6651,
      "embalmed": 6652,
      "appell": 6653,
      "battering": 6654,
      "hurled": 6655,
      "##cessary": 6656,
      "swiftness": 6657,
      "companies": 6658,
      "dragon": 6659,
      "tales": 6660,
      "talking": 6661,
      "breathing": 6662,
      "breathes": 6663,
      "barbed": 6664,
      "damned": 6665,
      "steps": 6666,
      "playing": 6667,
      "produced": 6668,
      "producing": 6669,
      "constit": 6670,
      "salted": 6671,
      "schoon": 6672,
      "contrad": 6673,
      "ideas": 6674,
      "personally": 6675,
      "cattle": 6676,
      "patient": 6677,
      "patagon": 6678,
      "reflect": 6679,
      "reflection": 6680,
      "decent": 6681,
      "decided": 6682,
      "learning": 6683,
      "blinding": 6684,
      "encountering": 6685,
      "archipel": 6686,
      "boundless": 6687,
      "denomin": 6688,
      "illustr": 6689,
      "walked": 6690,
      "##standing": 6691,
      "supplement": 6692,
      "scrat": 6693,
      "scrape": 6694,
      "landlady": 6695,
      "maul": 6696,
      "proceeded": 6697,
      "believed": 6698,
      "##licated": 6699,
      "solely": 6700,
      "condem": 6701,
      "condition": 6702,
      "crowding": 6703,
      "avoid": 6704,
      "value": 6705,
      "separated": 6706,
      "unfath": 6707,
      "unfrequ": 6708,
      "eternity": 6709,
      "lurk": 6710,
      "vainly": 6711,
      "promont": 6712,
      "dreaming": 6713,
      "tube": 6714,
      "involve": 6715,
      "derive": 6716,
      "pagans": 6717,
      "democ": 6718,
      "ghast": 6719,
      "girth": 6720,
      "inev": 6721,
      "whiskers": 6722,
      "heeded": 6723,
      "heedful": 6724,
      "declare": 6725,
      "skulls": 6726,
      "violence": 6727,
      "reveries": 6728,
      "covering": 6729,
      "importance": 6730,
      "burned": 6731,
      "odds": 6732,
      "empire": 6733,
      "heightened": 6734,
      "churning": 6735,
      "churches": 6736,
      "provin": 6737,
      "provided": 6738,
      "probable": 6739,
      "probability": 6740,
      "corpore": 6741,
      "corpusants": 6742,
      "cowards": 6743,
      "stole": 6744,
      "lifeless": 6745,
      "subjects": 6746,
      "tapers": 6747,
      "##ustomed": 6748,
      "183": 6749,
      "prince": 6750,
      "opposing": 6751,
      "attended": 6752,
      "leaky": 6753,
      "estim": 6754,
      "frightened": 6755,
      "folds": 6756,
      "hatchet": 6757,
      "cetace": 6758,
      "peaceful": 6759,
      "stretching": 6760,
      "ceiling": 6761,
      "launched": 6762,
      "recklessly": 6763,
      "reckoning": 6764,
      "copy": 6765,
      "significance": 6766,
      "dreadful": 6767,
      "bubble": 6768,
      "reeled": 6769,
      "prayers": 6770,
      "comparative": 6771,
      "comparison": 6772,
      "apartment": 6773,
      "superiority": 6774,
      "village": 6775,
      "shivered": 6776,
      "sagacious": 6777,
      "grasped": 6778,
      "paper": 6779,
      "hovered": 6780,
      "scorched": 6781,
      "silvery": 6782,
      "diabol": 6783,
      "knocked": 6784,
      "majesty": 6785,
      "prairies": 6786,
      "fiercely": 6787,
      "rule": 6788,
      "tattooing": 6789,
      "wedding": 6790,
      "sticking": 6791,
      "fortun": 6792,
      "plunging": 6793,
      "adventures": 6794,
      "resemblance": 6795,
      "district": 6796,
      "accompanied": 6797,
      "nineveh": 6798,
      "sorry": 6799,
      "sorrow": 6800,
      "sunda": 6801,
      "unpre": 6802,
      "removing": 6803,
      "announced": 6804,
      "vibrating": 6805,
      "pallor": 6806,
      "pallid": 6807,
      "public": 6808,
      "sumatra": 6809,
      "amazing": 6810,
      "amazement": 6811,
      "harmless": 6812,
      "mission": 6813,
      "robust": 6814,
      "browne": 6815,
      "slackened": 6816,
      "consciousness": 6817,
      "crawl": 6818,
      "crawling": 6819,
      "engravings": 6820,
      "eddy": 6821,
      "couple": 6822,
      "oftentimes": 6823,
      "semi": 6824,
      "shrieks": 6825,
      "isolated": 6826,
      "screaming": 6827,
      "preceding": 6828,
      "azure": 6829,
      "axis": 6830,
      "fragrant": 6831,
      "reigned": 6832,
      "swaying": 6833,
      "entrance": 6834,
      "phrase": 6835,
      "astonishment": 6836,
      "determined": 6837,
      "refuse": 6838,
      "refuge": 6839,
      "hindoo": 6840,
      "lounging": 6841,
      "masonry": 6842,
      "valley": 6843,
      "heathenish": 6844,
      "bearded": 6845,
      "frigate": 6846,
      "dexterous": 6847,
      "meadow": 6848,
      "speechless": 6849,
      "remembered": 6850,
      "emperor": 6851,
      "passenger": 6852,
      "delirium": 6853,
      "turkish": 6854,
      "tahiti": 6855,
      "audacious": 6856,
      "language": 6857,
      "mothers": 6858,
      "neighbor": 6859,
      "exasperated": 6860,
      "contempl": 6861,
      "subterranean": 6862,
      "affrighted": 6863,
      "serpent": 6864,
      "treacherous": 6865,
      "diminished": 6866,
      "steadfastly": 6867,
      "jeopardy": 6868,
      "owen": 6869,
      "welcome": 6870,
      "unnecessary": 6871,
      "indolent": 6872,
      "fossil": 6873,
      "commerce": 6874,
      "impregn": 6875,
      "application": 6876,
      "plaintiffs": 6877,
      "secrets": 6878,
      "extracts": 6879,
      "portentous": 6880,
      "awaiting": 6881,
      "perfectly": 6882,
      "bouton": 6883,
      "ceremon": 6884,
      "gangway": 6885,
      "ostentat": 6886,
      "rascal": 6887,
      "tables": 6888,
      "beheaded": 6889,
      "management": 6890,
      "carcase": 6891,
      "handspikes": 6892,
      "serenity": 6893,
      "pitchpoling": 6894,
      "schoolmaster": 6895,
      "symptoms": 6896,
      "czar": 6897,
      "dumplings": 6898,
      "fibres": 6899,
      "louis": 6900,
      "pudding": 6901,
      "vindict": 6902,
      "unimag": 6903,
      "introduced": 6904,
      "hercules": 6905,
      "pervading": 6906,
      "conscientious": 6907,
      "resurrection": 6908,
      "insufferable": 6909,
      "coronation": 6910,
      "parallel": 6911,
      "circumference": 6912,
      "artificial": 6913,
      "unwarrant": 6914,
      "excitement": 6915,
      "fugitive": 6916,
      "lucif": 6917,
      "opportun": 6918,
      "perempt": 6919,
      "source": 6920,
      "tobacco": 6921,
      "shreds": 6922,
      "notwithstanding": 6923,
      "universe": 6924,
      "slippery": 6925,
      "preternatural": 6926,
      "archipelagoes": 6927,
      "27": 6928,
      "aim": 6929,
      "aust": 6930,
      "apo": 6931,
      "ape": 6932,
      "bor": 6933,
      "bath": 6934,
      "bite": 6935,
      "boun": 6936,
      "bade": 6937,
      "bishop": 6938,
      "cu": 6939,
      "ca": 6940,
      "ced": 6941,
      "cis": 6942,
      "cri": 6943,
      "cens": 6944,
      "cathed": 6945,
      "dw": 6946,
      "ded": 6947,
      "dar": 6948,
      "dent": 6949,
      "dip": 6950,
      "dict": 6951,
      "dents": 6952,
      "domin": 6953,
      "dotted": 6954,
      "dazz": 6955,
      "ec": 6956,
      "ech": 6957,
      "eag": 6958,
      "fem": 6959,
      "fel": 6960,
      "fable": 6961,
      "fidel": 6962,
      "faded": 6963,
      "germ": 6964,
      "gib": 6965,
      "gull": 6966,
      "gaff": 6967,
      "grie": 6968,
      "gurg": 6969,
      "hay": 6970,
      "hinting": 6971,
      "jing": 6972,
      "junk": 6973,
      "lam": 6974,
      "lun": 6975,
      "lace": 6976,
      "lav": 6977,
      "linn": 6978,
      "langs": 6979,
      "mig": 6980,
      "mask": 6981,
      "mute": 6982,
      "mumbling": 6983,
      "nat": 6984,
      "non": 6985,
      "nour": 6986,
      "nice": 6987,
      "naut": 6988,
      "ot": 6989,
      "oaken": 6990,
      "ps": 6991,
      "pom": 6992,
      "ply": 6993,
      "pard": 6994,
      "pound": 6995,
      "pans": 6996,
      "paw": 6997,
      "pool": 6998,
      "rul": 6999,
      "rome": 7000,
      "rough": 7001,
      "roof": 7002,
      "si": 7003,
      "sed": 7004,
      "sore": 7005,
      "sigh": 7006,
      "satur": 7007,
      "sits": 7008,
      "silly": 7009,
      "scept": 7010,
      "sallied": 7011,
      "sermon": 7012,
      "tas": 7013,
      "tent": 7014,
      "tones": 7015,
      "tierce": 7016,
      "ug": 7017,
      "umb": 7018,
      "vers": 7019,
      "vile": 7020,
      "wight": 7021,
      "wri": 7022,
      "wives": 7023,
      "zone": 7024,
      "zod": 7025,
      "##oved": 7026,
      "##lid": 7027,
      "##lain": 7028,
      "##lorn": 7029,
      "##dy": 7030,
      "##dor": 7031,
      "##nes": 7032,
      "##eign": 7033,
      "##eying": 7034,
      "##sail": 7035,
      "##yth": 7036,
      "##tur": 7037,
      "##mas": 7038,
      "##ieth": 7039,
      "##zber": 7040,
      "##uer": 7041,
      "##uing": 7042,
      "##use": 7043,
      "##cal": 7044,
      "##cating": 7045,
      "##poth": 7046,
      "##pting": 7047,
      "##paul": 7048,
      "##awn": 7049,
      "##rad": 7050,
      "##rent": 7051,
      "##ringly": 7052,
      "##kens": 7053,
      "##kins": 7054,
      "##hire": 7055,
      "##wer": 7056,
      "##wter": 7057,
      "##wood": 7058,
      "##bre": 7059,
      "##bers": 7060,
      "##back": 7061,
      "##bowed": 7062,
      "##xible": 7063,
      "##fit": 7064,
      "##fra": 7065,
      "##jac": 7066,
      "thumb": 7067,
      "thump": 7068,
      "theory": 7069,
      "##eral": 7070,
      "##inition": 7071,
      "##inately": 7072,
      "##eded": 7073,
      "##atics": 7074,
      "##atiate": 7075,
      "##ouching": 7076,
      "##enching": 7077,
      "##enished": 7078,
      "##enetr": 7079,
      "##orus": 7080,
      "##ara": 7081,
      "##arus": 7082,
      "##arctic": 7083,
      "##isure": 7084,
      "##onted": 7085,
      "##onstr": 7086,
      "inl": 7087,
      "inward": 7088,
      "inner": 7089,
      "##anches": 7090,
      "whim": 7091,
      "tool": 7092,
      "toiled": 7093,
      "tokens": 7094,
      "##asant": 7095,
      "##asph": 7096,
      "##reed": 7097,
      "##itt": 7098,
      "##itors": 7099,
      "##itating": 7100,
      "##omas": 7101,
      "hee": 7102,
      "heaps": 7103,
      "healthy": 7104,
      "##uting": 7105,
      "stor": 7106,
      "stem": 7107,
      "stack": 7108,
      "stately": 7109,
      "stooping": 7110,
      "stooped": 7111,
      "stamped": 7112,
      "##lydon": 7113,
      "##ado": 7114,
      "##ader": 7115,
      "##adise": 7116,
      "##adays": 7117,
      "##alt": 7118,
      "##alous": 7119,
      "##etian": 7120,
      "##etime": 7121,
      "hissed": 7122,
      "forwards": 7123,
      "forests": 7124,
      "forbid": 7125,
      "forlorn": 7126,
      "##ithe": 7127,
      "##cement": 7128,
      "##idly": 7129,
      "##idated": 7130,
      "##ckery": 7131,
      "##irm": 7132,
      "##irst": 7133,
      "shun": 7134,
      "shop": 7135,
      "showing": 7136,
      "shifted": 7137,
      "asi": 7138,
      "asia": 7139,
      "##urs": 7140,
      "##ury": 7141,
      "##urous": 7142,
      "##urred": 7143,
      "##vereign": 7144,
      "butts": 7145,
      "wasn": 7146,
      "wasted": 7147,
      "##iless": 7148,
      "##ilian": 7149,
      "allusion": 7150,
      "soap": 7151,
      "sovereign": 7152,
      "ath": 7153,
      "anew": 7154,
      "##icle": 7155,
      "##icorn": 7156,
      "##icirc": 7157,
      "##icien": 7158,
      "##iculous": 7159,
      "frame": 7160,
      "france": 7161,
      "freder": 7162,
      "##thest": 7163,
      "rehe": 7164,
      "rearing": 7165,
      "##keep": 7166,
      "##allen": 7167,
      "spain": 7168,
      "spaces": 7169,
      "##illes": 7170,
      "defe": 7171,
      "deacon": 7172,
      "##ipple": 7173,
      "##rov": 7174,
      "##roph": 7175,
      "##estial": 7176,
      "##cture": 7177,
      "##ulged": 7178,
      "cha": 7179,
      "chain": 7180,
      "chip": 7181,
      "chace": 7182,
      "chines": 7183,
      "chips": 7184,
      "choose": 7185,
      "chorus": 7186,
      "saith": 7187,
      "sacri": 7188,
      "##riage": 7189,
      "##agged": 7190,
      "web": 7191,
      "weak": 7192,
      "conj": 7193,
      "contain": 7194,
      "conqu": 7195,
      "contained": 7196,
      "ornam": 7197,
      "leath": 7198,
      "leather": 7199,
      "leaps": 7200,
      "lexic": 7201,
      "leisure": 7202,
      "manh": 7203,
      "alm": 7204,
      "alien": 7205,
      "nowhere": 7206,
      "nowadays": 7207,
      "##eled": 7208,
      "unce": 7209,
      "unif": 7210,
      "unsu": 7211,
      "uninter": 7212,
      "unicorn": 7213,
      "##arto": 7214,
      "nod": 7215,
      "##umping": 7216,
      "somebody": 7217,
      "##unts": 7218,
      "comical": 7219,
      "whatsoever": 7220,
      "outst": 7221,
      "goin": 7222,
      "goble": 7223,
      "whoever": 7224,
      "exposed": 7225,
      "feath": 7226,
      "feature": 7227,
      "enters": 7228,
      "enlight": 7229,
      "enemy": 7230,
      "poly": 7231,
      "polic": 7232,
      "docks": 7233,
      "doze": 7234,
      "##ooks": 7235,
      "blo": 7236,
      "bland": 7237,
      "blown": 7238,
      "blasph": 7239,
      "plight": 7240,
      "##istics": 7241,
      "flut": 7242,
      "flav": 7243,
      "flashing": 7244,
      "flaming": 7245,
      "abst": 7246,
      "##ify": 7247,
      "aged": 7248,
      "coco": 7249,
      "coals": 7250,
      "coins": 7251,
      "cobb": 7252,
      "cosy": 7253,
      "##ateful": 7254,
      "worm": 7255,
      "worst": 7256,
      "##aciously": 7257,
      "road": 7258,
      "rocked": 7259,
      "roses": 7260,
      "rooted": 7261,
      "##ineer": 7262,
      "hogs": 7263,
      "afar": 7264,
      "afore": 7265,
      "train": 7266,
      "trap": 7267,
      "trag": 7268,
      "trance": 7269,
      "tramp": 7270,
      "traged": 7271,
      "##idean": 7272,
      "pewter": 7273,
      "timbers": 7274,
      "knotted": 7275,
      "aright": 7276,
      "arrow": 7277,
      "prison": 7278,
      "prints": 7279,
      "swart": 7280,
      "swayed": 7281,
      "swarming": 7282,
      "cane": 7283,
      "handker": 7284,
      "willing": 7285,
      "downright": 7286,
      "amp": 7287,
      "heroes": 7288,
      "herring": 7289,
      "watched": 7290,
      "howled": 7291,
      "gramp": 7292,
      "pertaining": 7293,
      "club": 7294,
      "climes": 7295,
      "clenched": 7296,
      "branches": 7297,
      "scold": 7298,
      "cresc": 7299,
      "harris": 7300,
      "harvest": 7301,
      "harbors": 7302,
      "queens": 7303,
      "slipping": 7304,
      "slabs": 7305,
      "parties": 7306,
      "##pped": 7307,
      "glorious": 7308,
      "india": 7309,
      ",\"--": 7310,
      "smile": 7311,
      "smote": 7312,
      "fishes": 7313,
      "whereupon": 7314,
      "adh": 7315,
      "adop": 7316,
      "complicated": 7317,
      "rounded": 7318,
      "loath": 7319,
      "diso": 7320,
      "owned": 7321,
      "standers": 7322,
      "goodness": 7323,
      "remove": 7324,
      "remonstr": 7325,
      "##viating": 7326,
      "##ization": 7327,
      "##izings": 7328,
      "backwards": 7329,
      "obeying": 7330,
      "chaps": 7331,
      "drab": 7332,
      "dress": 7333,
      "dram": 7334,
      "emotion": 7335,
      "deserted": 7336,
      "consists": 7337,
      "consumed": 7338,
      "##awed": 7339,
      "maternal": 7340,
      "preserved": 7341,
      "preserve": 7342,
      "resist": 7343,
      "result": 7344,
      "reserv": 7345,
      "##rying": 7346,
      "##ignant": 7347,
      "breaches": 7348,
      "interven": 7349,
      "interrupt": 7350,
      "internal": 7351,
      "accum": 7352,
      "accustomed": 7353,
      "windows": 7354,
      "belt": 7355,
      "belsh": 7356,
      "skrim": 7357,
      "sunny": 7358,
      "lighter": 7359,
      "invited": 7360,
      "surve": 7361,
      "survive": 7362,
      "curses": 7363,
      "##ogne": 7364,
      "tea": 7365,
      "text": 7366,
      "humming": 7367,
      "##pected": 7368,
      "joints": 7369,
      "march": 7370,
      "marchant": 7371,
      "neared": 7372,
      "entangled": 7373,
      "founded": 7374,
      "writ": 7375,
      "write": 7376,
      "##plic": 7377,
      "voyag": 7378,
      "earlier": 7379,
      "waved": 7380,
      "eluc": 7381,
      "forebod": 7382,
      "finished": 7383,
      "cracks": 7384,
      "helping": 7385,
      "generous": 7386,
      "furthest": 7387,
      "region": 7388,
      "instantaneous": 7389,
      "infants": 7390,
      "##ugn": 7391,
      "shallow": 7392,
      "supposing": 7393,
      "headsmen": 7394,
      "midway": 7395,
      "retreat": 7396,
      "strikes": 7397,
      "sprung": 7398,
      "springing": 7399,
      "idiot": 7400,
      "corro": 7401,
      "excepting": 7402,
      "clearing": 7403,
      "cleared": 7404,
      "signed": 7405,
      "sweat": 7406,
      "boarding": 7407,
      "concre": 7408,
      "doubted": 7409,
      "##bearing": 7410,
      "maintain": 7411,
      "maintained": 7412,
      "parce": 7413,
      "paradise": 7414,
      "commanding": 7415,
      "assure": 7416,
      "assumed": 7417,
      "assuming": 7418,
      "assaults": 7419,
      "mouthed": 7420,
      "tread": 7421,
      "topmost": 7422,
      "secur": 7423,
      "cheering": 7424,
      "cologne": 7425,
      "profile": 7426,
      "miscell": 7427,
      "solic": 7428,
      "extent": 7429,
      "extinct": 7430,
      "extracted": 7431,
      "repent": 7432,
      "##agger": 7433,
      "namely": 7434,
      "portra": 7435,
      "portents": 7436,
      "expense": 7437,
      "expanded": 7438,
      "laden": 7439,
      "reliable": 7440,
      "imminent": 7441,
      "smoked": 7442,
      "continue": 7443,
      "continuous": 7444,
      "thirds": 7445,
      "##cluded": 7446,
      "advances": 7447,
      "advantage": 7448,
      "guilty": 7449,
      "priests": 7450,
      "confounded": 7451,
      "veh": 7452,
      "goney": 7453,
      "straightened": 7454,
      "rooms": 7455,
      "mincer": 7456,
      "##ocation": 7457,
      "##oclydon": 7458,
      "latin": 7459,
      "massive": 7460,
      "reader": 7461,
      "readiness": 7462,
      "trick": 7463,
      "severe": 7464,
      "quarters": 7465,
      "castle": 7466,
      "islanders": 7467,
      "transom": 7468,
      "transition": 7469,
      "strongest": 7470,
      "cruc": 7471,
      "englishman": 7472,
      "gracious": 7473,
      "raising": 7474,
      "carpenters": 7475,
      "bund": 7476,
      "recently": 7477,
      "magnet": 7478,
      "magnanim": 7479,
      "countless": 7480,
      "breaks": 7481,
      "mutual": 7482,
      "gallows": 7483,
      "gallons": 7484,
      "varieties": 7485,
      "talked": 7486,
      "thickly": 7487,
      "breathe": 7488,
      "jackets": 7489,
      "kindred": 7490,
      "chronic": 7491,
      "produce": 7492,
      "official": 7493,
      "pursuing": 7494,
      "pursuers": 7495,
      "dimens": 7496,
      "divide": 7497,
      "detail": 7498,
      "filling": 7499,
      "mildness": 7500,
      "salvation": 7501,
      "##prise": 7502,
      "furniture": 7503,
      "moder": 7504,
      "modified": 7505,
      "patched": 7506,
      "useful": 7507,
      "##spread": 7508,
      "aspects": 7509,
      "antarctic": 7510,
      "decap": 7511,
      "leader": 7512,
      "billow": 7513,
      "billiard": 7514,
      "shower": 7515,
      "archy": 7516,
      "archite": 7517,
      "regarding": 7518,
      "walks": 7519,
      "walrus": 7520,
      "towns": 7521,
      "defy": 7522,
      "definition": 7523,
      "scraping": 7524,
      "counsel": 7525,
      "counted": 7526,
      "posture": 7527,
      "proceeding": 7528,
      "proceedings": 7529,
      "occasions": 7530,
      "skeletons": 7531,
      "christmas": 7532,
      "blended": 7533,
      "blending": 7534,
      "hairs": 7535,
      "crowds": 7536,
      "hulls": 7537,
      "##ground": 7538,
      "lawy": 7539,
      "unwonted": 7540,
      "medic": 7541,
      "faced": 7542,
      "facing": 7543,
      "penn": 7544,
      "pencil": 7545,
      "##iences": 7546,
      "degrees": 7547,
      "colle": 7548,
      "calves": 7549,
      "anchored": 7550,
      "animals": 7551,
      "suffering": 7552,
      "absence": 7553,
      "rocky": 7554,
      "colours": 7555,
      "painting": 7556,
      "murderers": 7557,
      "moods": 7558,
      "##icha": 7559,
      "reverend": 7560,
      "expressed": 7561,
      "potency": 7562,
      "dismay": 7563,
      "dismasted": 7564,
      "descended": 7565,
      "profoundest": 7566,
      "numberless": 7567,
      "hooks": 7568,
      "hooked": 7569,
      "periodical": 7570,
      "groves": 7571,
      "volition": 7572,
      "shouting": 7573,
      "lifetime": 7574,
      "fighting": 7575,
      "revealing": 7576,
      "##ippers": 7577,
      "arrive": 7578,
      "arrival": 7579,
      "uttermost": 7580,
      "venetian": 7581,
      "replenished": 7582,
      "approach": 7583,
      "banqu": 7584,
      "ridge": 7585,
      "ridiculous": 7586,
      "situation": 7587,
      "tropic": 7588,
      "inference": 7589,
      "worshipping": 7590,
      "drinking": 7591,
      "cheerful": 7592,
      "squalls": 7593,
      "vapoury": 7594,
      "candid": 7595,
      "funeral": 7596,
      "vigor": 7597,
      "include": 7598,
      "stuffed": 7599,
      "boxes": 7600,
      "pondering": 7601,
      "critters": 7602,
      "erected": 7603,
      "narrated": 7604,
      "authorities": 7605,
      "tranque": 7606,
      "invests": 7607,
      "barrel": 7608,
      "frequented": 7609,
      "cele": 7610,
      "hypoth": 7611,
      "pickle": 7612,
      "reckless": 7613,
      "surprised": 7614,
      "digest": 7615,
      "geological": 7616,
      "hoof": 7617,
      "pedro": 7618,
      "pedest": 7619,
      "##arius": 7620,
      "revolved": 7621,
      "impression": 7622,
      "snatched": 7623,
      "horrors": 7624,
      "gloomy": 7625,
      "horizontally": 7626,
      "buckets": 7627,
      "mirr": 7628,
      "miracle": 7629,
      "pirate": 7630,
      "unrel": 7631,
      "grasp": 7632,
      "glimpses": 7633,
      "successive": 7634,
      "successful": 7635,
      "paddles": 7636,
      "tarpaul": 7637,
      "vacant": 7638,
      "wheeled": 7639,
      "wheeling": 7640,
      "scorching": 7641,
      "speedy": 7642,
      "article": 7643,
      "superstitions": 7644,
      "kicking": 7645,
      "stirred": 7646,
      "melted": 7647,
      "unusually": 7648,
      "mysteries": 7649,
      "afforded": 7650,
      "destroy": 7651,
      "tranquo": 7652,
      "tranquilly": 7653,
      "ruin": 7654,
      "wedded": 7655,
      "##bury": 7656,
      "inquiring": 7657,
      "befell": 7658,
      "fortitude": 7659,
      "whalebo": 7660,
      "adventure": 7661,
      "resembling": 7662,
      "incredulous": 7663,
      "accompanying": 7664,
      "vengeful": 7665,
      "lanterns": 7666,
      "withdrawn": 7667,
      "gasp": 7668,
      "lingered": 7669,
      "mouldy": 7670,
      "navy": 7671,
      "navies": 7672,
      "puffs": 7673,
      "throat": 7674,
      "wharves": 7675,
      "ascended": 7676,
      "credulous": 7677,
      "imagination": 7678,
      "humorously": 7679,
      "satisfied": 7680,
      "embraces": 7681,
      "admirable": 7682,
      "announcing": 7683,
      "experiences": 7684,
      "calculating": 7685,
      "philosophers": 7686,
      "vibration": 7687,
      "augment": 7688,
      "multip": 7689,
      "poured": 7690,
      "raging": 7691,
      "hawk": 7692,
      "choice": 7693,
      "unharmed": 7694,
      "intolerably": 7695,
      "loomed": 7696,
      "instinctively": 7697,
      "deliverance": 7698,
      "deliberate": 7699,
      "identity": 7700,
      "errand": 7701,
      "sufficient": 7702,
      "fiends": 7703,
      "gleamed": 7704,
      "sulph": 7705,
      "convin": 7706,
      "extended": 7707,
      "flashes": 7708,
      "robes": 7709,
      "increasing": 7710,
      "tempestuous": 7711,
      "euroclydon": 7712,
      "lazily": 7713,
      "lazarus": 7714,
      "oakum": 7715,
      "packed": 7716,
      "semicirc": 7717,
      "abandon": 7718,
      "hospitable": 7719,
      "predest": 7720,
      "emerged": 7721,
      "designated": 7722,
      "##azzar": 7723,
      "concentr": 7724,
      "observation": 7725,
      "splinters": 7726,
      "antique": 7727,
      "antiquity": 7728,
      "exhausted": 7729,
      "axe": 7730,
      "oaths": 7731,
      "riveted": 7732,
      "##ggling": 7733,
      "suspected": 7734,
      "trucks": 7735,
      "impatient": 7736,
      "apprehension": 7737,
      "phrens": 7738,
      "innocent": 7739,
      "gaunt": 7740,
      "risk": 7741,
      "venture": 7742,
      "valleys": 7743,
      "yarns": 7744,
      "sullenly": 7745,
      "safely": 7746,
      "clutch": 7747,
      "comprehend": 7748,
      "emperors": 7749,
      "passengers": 7750,
      "snuffed": 7751,
      "familiarly": 7752,
      "fabulous": 7753,
      "omitted": 7754,
      "permitted": 7755,
      "ascribed": 7756,
      "atmosphere": 7757,
      "anatomical": 7758,
      "revelry": 7759,
      "flourish": 7760,
      "professional": 7761,
      "vertical": 7762,
      "discernible": 7763,
      "suspicions": 7764,
      "basket": 7765,
      "##aeus": 7766,
      "beasts": 7767,
      "items": 7768,
      "struggling": 7769,
      "disordered": 7770,
      "subsided": 7771,
      "incessant": 7772,
      "exclamation": 7773,
      "proportion": 7774,
      "obliged": 7775,
      "celestial": 7776,
      "cavity": 7777,
      "dusky": 7778,
      "maketh": 7779,
      "style": 7780,
      "reclining": 7781,
      "sultan": 7782,
      "pronounced": 7783,
      "qualities": 7784,
      "impelled": 7785,
      "creamy": 7786,
      "rescue": 7787,
      "transported": 7788,
      "specimen": 7789,
      "iceberg": 7790,
      "establish": 7791,
      "irresistible": 7792,
      "hieroglyphics": 7793,
      "gamesome": 7794,
      "wisdom": 7795,
      "##ufactured": 7796,
      "wheels": 7797,
      "tolerable": 7798,
      "forbade": 7799,
      "shelf": 7800,
      "associations": 7801,
      "washington": 7802,
      "spitzber": 7803,
      "conversation": 7804,
      "legend": 7805,
      "hosea": 7806,
      "kneeling": 7807,
      "literally": 7808,
      "interpre": 7809,
      "attentively": 7810,
      "benevolent": 7811,
      "trembling": 7812,
      "undeviating": 7813,
      "bedfellow": 7814,
      "esteem": 7815,
      "propriet": 7816,
      "laborers": 7817,
      "inquiry": 7818,
      "omnipotent": 7819,
      "dyspeps": 7820,
      "dictionary": 7821,
      "journey": 7822,
      "jungfra": 7823,
      "random": 7824,
      "haughty": 7825,
      "suggest": 7826,
      "orphans": 7827,
      "manilla": 7828,
      "unconditional": 7829,
      "outrage": 7830,
      "governor": 7831,
      "aboriginal": 7832,
      "procedure": 7833,
      "twilight": 7834,
      "adieu": 7835,
      "competent": 7836,
      "sleeves": 7837,
      "phenomenon": 7838,
      "parmacet": 7839,
      "unconqu": 7840,
      "symmetr": 7841,
      "guinea": 7842,
      "schooner": 7843,
      "unfathom": 7844,
      "promontory": 7845,
      "ghastly": 7846,
      "unimaginable": 7847,
      "opportunity": 7848,
      "cedar": 7849,
      "cistern": 7850,
      "census": 7851,
      "eagle": 7852,
      "linnaeus": 7853,
      "langsdor": 7854,
      "ott": 7855,
      "psalm": 7856,
      "pardon": 7857,
      "saturday": 7858,
      "zodiac": 7859,
      "frederick": 7860,
      "defendants": 7861,
      "chinese": 7862,
      "leathern": 7863,
      "uniform": 7864,
      "policy": 7865,
      "flavor": 7866,
      "handkerchief": 7867,
      "grampus": 7868,
      "belshazzar": 7869,
      "spitzbergen": 7870,
      "jungfrau": 7871,
      "langsdorff": 7872,
      "!)": 7873,
      "',": 7874,
      ")--": 7875,
      ";'": 7876,
      "aut": 7877,
      "agh": 7878,
      "aven": 7879,
      "aunt": 7880,
      "akin": 7881,
      "bough": 7882,
      "baw": 7883,
      "bamb": 7884,
      "cam": 7885,
      "card": 7886,
      "cach": 7887,
      "cards": 7888,
      "dand": 7889,
      "dub": 7890,
      "dav": 7891,
      "dug": 7892,
      "dared": 7893,
      "dined": 7894,
      "diet": 7895,
      "dented": 7896,
      "ee": 7897,
      "eve": 7898,
      "erie": 7899,
      "fix": 7900,
      "fought": 7901,
      "faster": 7902,
      "fuel": 7903,
      "gin": 7904,
      "gar": 7905,
      "gable": 7906,
      "goth": 7907,
      "gild": 7908,
      "gather": 7909,
      "gene": 7910,
      "gills": 7911,
      "hing": 7912,
      "hip": 7913,
      "ic": 7914,
      "jig": 7915,
      "jub": 7916,
      "jup": 7917,
      "javel": 7918,
      "kid": 7919,
      "kent": 7920,
      "kitch": 7921,
      "l1": 7922,
      "lin": 7923,
      "lard": 7924,
      "lack": 7925,
      "lac": 7926,
      "lull": 7927,
      "luff": 7928,
      "lubber": 7929,
      "ming": 7930,
      "mas": 7931,
      "mong": 7932,
      "mish": 7933,
      "mum": 7934,
      "maker": 7935,
      "masters": 7936,
      "nim": 7937,
      "nue": 7938,
      "nons": 7939,
      "ol": 7940,
      "oun": 7941,
      "oily": 7942,
      "pon": 7943,
      "pest": 7944,
      "pars": 7945,
      "pals": 7946,
      "pages": 7947,
      "pelt": 7948,
      "paul": 7949,
      "panting": 7950,
      "pounds": 7951,
      "ray": 7952,
      "rab": 7953,
      "rue": 7954,
      "ramp": 7955,
      "ringing": 7956,
      "russ": 7957,
      "sab": 7958,
      "sable": 7959,
      "sire": 7960,
      "sash": 7961,
      "sane": 7962,
      "sabb": 7963,
      "tale": 7964,
      "tens": 7965,
      "tasted": 7966,
      "tumbling": 7967,
      "tenth": 7968,
      "vom": 7969,
      "vow": 7970,
      "vag": 7971,
      "veter": 7972,
      "vaults": 7973,
      "varying": 7974,
      "wad": 7975,
      "ware": 7976,
      "wert": 7977,
      "wander": 7978,
      "yan": 7979,
      "##ois": 7980,
      "##laz": 7981,
      "##dest": 7982,
      "##dler": 7983,
      "##nut": 7984,
      "##nel": 7985,
      "##eous": 7986,
      "##ecy": 7987,
      "##sk": 7988,
      "##tar": 7989,
      "##test": 7990,
      "##top": 7991,
      "##tured": 7992,
      "##my": 7993,
      "##mates": 7994,
      "##iel": 7995,
      "##iating": 7996,
      "##ule": 7997,
      "##uits": 7998,
      "##uction": 7999,
      "##can": 8000,
      "##cest": 8001,
      "##cord": 8002,
      "##cence": 8003,
      "##pat": 8004,
      "##pul": 8005,
      "##permost": 8006,
      "##ais": 8007,
      "##avi": 8008,
      "##glar": 8009,
      "##rain": 8010,
      "##rance": 8011,
      "##romed": 8012,
      "##hered": 8013,
      "##va": 8014,
      "##bable": 8015,
      "##bol": 8016,
      "##bell": 8017,
      "##bones": 8018,
      "##brew": 8019,
      "##fish": 8020,
      "##fold": 8021,
      "##jud": 8022,
      "thames": 8023,
      "thomas": 8024,
      "##erc": 8025,
      "##erness": 8026,
      "##erting": 8027,
      "##eronom": 8028,
      "##inth": 8029,
      "##inence": 8030,
      "##inations": 8031,
      "##inisc": 8032,
      "##edy": 8033,
      "##inged": 8034,
      "##esis": 8035,
      "##ester": 8036,
      "##orate": 8037,
      "##orable": 8038,
      "##oration": 8039,
      "##arance": 8040,
      "##arches": 8041,
      "##istered": 8042,
      "##iscr": 8043,
      "andromed": 8044,
      "ing": 8045,
      "inco": 8046,
      "inert": 8047,
      "ingen": 8048,
      "##llows": 8049,
      "##aning": 8050,
      "##anth": 8051,
      "toiling": 8052,
      "##aseless": 8053,
      "##rel": 8054,
      "##itan": 8055,
      "##itious": 8056,
      "##itched": 8057,
      "##itching": 8058,
      "##itime": 8059,
      "##let": 8060,
      "heap": 8061,
      "heark": 8062,
      "hebrew": 8063,
      "##uteronom": 8064,
      "bead": 8065,
      "beaver": 8066,
      "stab": 8067,
      "store": 8068,
      "stig": 8069,
      "stated": 8070,
      "stained": 8071,
      "stamp": 8072,
      "stool": 8073,
      "stages": 8074,
      "stays": 8075,
      "stocks": 8076,
      "ital": 8077,
      "##alot": 8078,
      "##alter": 8079,
      "##chment": 8080,
      "##stition": 8081,
      "##stead": 8082,
      "##structed": 8083,
      "##etical": 8084,
      "hissing": 8085,
      "##otes": 8086,
      "fors": 8087,
      "sees": 8088,
      "sepul": 8089,
      "##idious": 8090,
      "##idable": 8091,
      "shin": 8092,
      "shed": 8093,
      "shif": 8094,
      "shell": 8095,
      "share": 8096,
      "shaken": 8097,
      "shells": 8098,
      "shapes": 8099,
      "shaft": 8100,
      "assemb": 8101,
      "##urd": 8102,
      "##urry": 8103,
      "##entially": 8104,
      "##aying": 8105,
      "issue": 8106,
      "buttons": 8107,
      "##aining": 8108,
      "##tery": 8109,
      "##ilted": 8110,
      "allies": 8111,
      "sob": 8112,
      "sof": 8113,
      "socks": 8114,
      "attaining": 8115,
      "analy": 8116,
      "ancest": 8117,
      "##icy": 8118,
      "##icing": 8119,
      "fron": 8120,
      "frock": 8121,
      "##the": 8122,
      "##tha": 8123,
      "##apted": 8124,
      "rev": 8125,
      "reward": 8126,
      "revi": 8127,
      "rept": 8128,
      "relish": 8129,
      "reappe": 8130,
      "liv": 8131,
      "liver": 8132,
      "sucked": 8133,
      "##kee": 8134,
      "##amount": 8135,
      "notion": 8136,
      "spinning": 8137,
      "spikes": 8138,
      "deer": 8139,
      "deity": 8140,
      "depl": 8141,
      "deuteronom": 8142,
      "uppermost": 8143,
      "##astroph": 8144,
      "--(": 8145,
      "##ipro": 8146,
      "##ropol": 8147,
      "##estation": 8148,
      "##cts": 8149,
      "##ctions": 8150,
      "##ulted": 8151,
      "##ulence": 8152,
      "##ulates": 8153,
      "memb": 8154,
      "mealy": 8155,
      "boast": 8156,
      "boister": 8157,
      "chal": 8158,
      "chancing": 8159,
      "chicha": 8160,
      "saun": 8161,
      "##ago": 8162,
      "##ags": 8163,
      "wearing": 8164,
      "wealth": 8165,
      "conting": 8166,
      "convi": 8167,
      "converted": 8168,
      "##ersed": 8169,
      "altering": 8170,
      "##elstr": 8171,
      "unv": 8172,
      "unri": 8173,
      "unqu": 8174,
      "unhing": 8175,
      "unhe": 8176,
      "unple": 8177,
      "unsc": 8178,
      "unsh": 8179,
      "ungr": 8180,
      "unapp": 8181,
      "unalter": 8182,
      "noses": 8183,
      "neat": 8184,
      "necks": 8185,
      "##ishly": 8186,
      "##ums": 8187,
      "##umes": 8188,
      "##umption": 8189,
      "##osted": 8190,
      "##unge": 8191,
      "##unken": 8192,
      "composing": 8193,
      "intuit": 8194,
      "yell": 8195,
      "goat": 8196,
      "whosoever": 8197,
      "exch": 8198,
      "exped": 8199,
      "expose": 8200,
      "exists": 8201,
      "exerc": 8202,
      "area": 8203,
      "enh": 8204,
      "enable": 8205,
      "envel": 8206,
      "ensued": 8207,
      "pod": 8208,
      "pods": 8209,
      "bluff": 8210,
      "blunder": 8211,
      "plough": 8212,
      "plug": 8213,
      "plump": 8214,
      "##point": 8215,
      "##igning": 8216,
      "##isture": 8217,
      "##istically": 8218,
      "fling": 8219,
      "flows": 8220,
      "flowed": 8221,
      "flowing": 8222,
      "##orts": 8223,
      "##ortions": 8224,
      "##inding": 8225,
      "abound": 8226,
      "##ifies": 8227,
      "##ifully": 8228,
      "##iferous": 8229,
      "agitated": 8230,
      "agencies": 8231,
      "coach": 8232,
      "cogent": 8233,
      "##queness": 8234,
      "overr": 8235,
      "overbearing": 8236,
      "headway": 8237,
      "##acies": 8238,
      "##aculous": 8239,
      "capting": 8240,
      "root": 8241,
      "holid": 8242,
      "trapp": 8243,
      "peg": 8244,
      "peered": 8245,
      "peeled": 8246,
      "propose": 8247,
      "progen": 8248,
      "prosec": 8249,
      "##gee": 8250,
      "straps": 8251,
      "striding": 8252,
      "knight": 8253,
      "knights": 8254,
      "arom": 8255,
      "arising": 8256,
      "oldest": 8257,
      "prest": 8258,
      "##ouring": 8259,
      "twas": 8260,
      "twisting": 8261,
      "handling": 8262,
      "willingly": 8263,
      "william": 8264,
      "##arking": 8265,
      "quill": 8266,
      "quitted": 8267,
      "quarto": 8268,
      "##oda": 8269,
      "##udge": 8270,
      "##asses": 8271,
      "howl": 8272,
      "longing": 8273,
      "##olested": 8274,
      "grou": 8275,
      "granting": 8276,
      "grapes": 8277,
      "gramm": 8278,
      "grooves": 8279,
      "##ndering": 8280,
      "peru": 8281,
      "perishing": 8282,
      "cling": 8283,
      "clap": 8284,
      "clung": 8285,
      "claps": 8286,
      "cliff": 8287,
      "clapped": 8288,
      "clapping": 8289,
      "cliffs": 8290,
      "bru": 8291,
      "brist": 8292,
      "brine": 8293,
      "branded": 8294,
      "branch": 8295,
      "brisk": 8296,
      "herein": 8297,
      "thresh": 8298,
      "crying": 8299,
      "crush": 8300,
      "crater": 8301,
      "##ache": 8302,
      "imposing": 8303,
      "usur": 8304,
      "slay": 8305,
      "slaught": 8306,
      "slanting": 8307,
      "sloop": 8308,
      "slumber": 8309,
      "partially": 8310,
      "##pping": 8311,
      "glow": 8312,
      "glared": 8313,
      "glowing": 8314,
      "glued": 8315,
      "glories": 8316,
      "indust": 8317,
      "indians": 8318,
      "induced": 8319,
      "offing": 8320,
      "offering": 8321,
      "##fts": 8322,
      "prel": 8323,
      "hasn": 8324,
      "fishy": 8325,
      "fishers": 8326,
      "fisheries": 8327,
      "whereon": 8328,
      "whereof": 8329,
      "##ccas": 8330,
      "creep": 8331,
      "adapted": 8332,
      "comprising": 8333,
      "carav": 8334,
      "cargo": 8335,
      "rounding": 8336,
      "losing": 8337,
      "loses": 8338,
      "local": 8339,
      "disse": 8340,
      "discl": 8341,
      "diseng": 8342,
      "disaster": 8343,
      "disposed": 8344,
      "disasters": 8345,
      "##aux": 8346,
      "contracted": 8347,
      "moves": 8348,
      "moisture": 8349,
      "specks": 8350,
      "ours": 8351,
      "reminisc": 8352,
      "fog": 8353,
      "follows": 8354,
      "##izes": 8355,
      "backing": 8356,
      "oblong": 8357,
      "comment": 8358,
      "dromed": 8359,
      "empt": 8360,
      "emblem": 8361,
      "desk": 8362,
      "desir": 8363,
      "desist": 8364,
      "desires": 8365,
      "presby": 8366,
      "presume": 8367,
      "respo": 8368,
      "farew": 8369,
      "subm": 8370,
      "##ensity": 8371,
      "breach": 8372,
      "##ptive": 8373,
      "intermed": 8374,
      "interrupted": 8375,
      "interchange": 8376,
      "accosted": 8377,
      "landsc": 8378,
      "beloved": 8379,
      "becalmed": 8380,
      "##ival": 8381,
      "##ivious": 8382,
      "##ivable": 8383,
      "undert": 8384,
      "suns": 8385,
      "hearties": 8386,
      "heartless": 8387,
      "heartily": 8388,
      "lighting": 8389,
      "distracted": 8390,
      "distended": 8391,
      "##cedented": 8392,
      "invent": 8393,
      "armies": 8394,
      "impious": 8395,
      "imperson": 8396,
      "fullest": 8397,
      "halting": 8398,
      "curved": 8399,
      "##ogy": 8400,
      "##ograph": 8401,
      "slept": 8402,
      "tex": 8403,
      "sne": 8404,
      "snapping": 8405,
      "humped": 8406,
      "humane": 8407,
      "insure": 8408,
      "insular": 8409,
      "insisted": 8410,
      "insurance": 8411,
      "inserting": 8412,
      "maritime": 8413,
      "martha": 8414,
      "foundations": 8415,
      "wrap": 8416,
      "begun": 8417,
      "begone": 8418,
      "begged": 8419,
      "begging": 8420,
      "harder": 8421,
      "voyager": 8422,
      "justice": 8423,
      "gets": 8424,
      "momentous": 8425,
      "apple": 8426,
      "apprised": 8427,
      "elab": 8428,
      "elapsed": 8429,
      "craven": 8430,
      "cracking": 8431,
      "crazed": 8432,
      "sets": 8433,
      "generic": 8434,
      "hugest": 8435,
      "incap": 8436,
      "##oubted": 8437,
      "##ifications": 8438,
      "warrant": 8439,
      "regal": 8440,
      "regions": 8441,
      "devouring": 8442,
      "deeps": 8443,
      "infat": 8444,
      "infle": 8445,
      "inform": 8446,
      "infancy": 8447,
      "informed": 8448,
      "darkly": 8449,
      "wilderness": 8450,
      "supposition": 8451,
      "cables": 8452,
      "morbid": 8453,
      "##ilet": 8454,
      "burial": 8455,
      "burtons": 8456,
      "burglar": 8457,
      "terti": 8458,
      "lengths": 8459,
      "possibility": 8460,
      "keepers": 8461,
      "idly": 8462,
      "attitudes": 8463,
      "attracted": 8464,
      "meanest": 8465,
      "meanings": 8466,
      "cork": 8467,
      "fasting": 8468,
      "fastening": 8469,
      "swears": 8470,
      "swearing": 8471,
      "boarders": 8472,
      "apoth": 8473,
      "dreaded": 8474,
      "benefit": 8475,
      "sinners": 8476,
      "singularly": 8477,
      "starts": 8478,
      "marking": 8479,
      "restless": 8480,
      "restric": 8481,
      "##bee": 8482,
      "##bec": 8483,
      "##beg": 8484,
      "parchment": 8485,
      "affect": 8486,
      "##legant": 8487,
      "darts": 8488,
      "hats": 8489,
      "series": 8490,
      "turks": 8491,
      "assert": 8492,
      "assume": 8493,
      "assault": 8494,
      "trem": 8495,
      "reasoning": 8496,
      "cheap": 8497,
      "cheers": 8498,
      "chewed": 8499,
      "charitable": 8500,
      "colnett": 8501,
      "profit": 8502,
      "elect": 8503,
      "misg": 8504,
      "mischief": 8505,
      "visits": 8506,
      "visual": 8507,
      "##ontis": 8508,
      "reported": 8509,
      "reputation": 8510,
      "artist": 8511,
      "superl": 8512,
      "superfl": 8513,
      "superstition": 8514,
      "savor": 8515,
      "precip": 8516,
      "portly": 8517,
      "portion": 8518,
      "portug": 8519,
      "satan": 8520,
      "relics": 8521,
      "relax": 8522,
      "workman": 8523,
      "continent": 8524,
      "barric": 8525,
      "barrow": 8526,
      "bracing": 8527,
      "madly": 8528,
      "merit": 8529,
      "wondering": 8530,
      "guests": 8531,
      "confl": 8532,
      "tempered": 8533,
      "depicted": 8534,
      "##ruped": 8535,
      "redness": 8536,
      "redden": 8537,
      "crosswise": 8538,
      "latent": 8539,
      "awakened": 8540,
      "mortar": 8541,
      "severest": 8542,
      "sharper": 8543,
      "ordin": 8544,
      "speaks": 8545,
      "driver": 8546,
      "undec": 8547,
      "eastern": 8548,
      "verb": 8549,
      "verily": 8550,
      "veritable": 8551,
      "shoots": 8552,
      "happily": 8553,
      "happening": 8554,
      "gloss": 8555,
      "biting": 8556,
      "forthwith": 8557,
      "planet": 8558,
      "transce": 8559,
      "stronger": 8560,
      "cruet": 8561,
      "pleated": 8562,
      "viewed": 8563,
      "##ship": 8564,
      "gravity": 8565,
      "recipro": 8566,
      "embod": 8567,
      "embell": 8568,
      "emblaz": 8569,
      "countries": 8570,
      "household": 8571,
      "naturalist": 8572,
      "batt": 8573,
      "muttering": 8574,
      "motives": 8575,
      "walled": 8576,
      "friendly": 8577,
      "drags": 8578,
      "thickest": 8579,
      "malays": 8580,
      "towers": 8581,
      "limber": 8582,
      "helpless": 8583,
      "helplessly": 8584,
      "constell": 8585,
      "constantly": 8586,
      "detailed": 8587,
      "schem": 8588,
      "schol": 8589,
      "yoked": 8590,
      "##meas": 8591,
      "bearer": 8592,
      "respective": 8593,
      "respectfully": 8594,
      "respectively": 8595,
      "spoil": 8596,
      "spoiled": 8597,
      "footed": 8598,
      "personal": 8599,
      "freed": 8600,
      "furnishing": 8601,
      "fixedly": 8602,
      "guns": 8603,
      "model": 8604,
      "patent": 8605,
      "patience": 8606,
      "refused": 8607,
      "refrained": 8608,
      "decan": 8609,
      "encounters": 8610,
      "deny": 8611,
      "denied": 8612,
      "escaping": 8613,
      "defile": 8614,
      "defined": 8615,
      "defiance": 8616,
      "deficien": 8617,
      "scraps": 8618,
      "script": 8619,
      "career": 8620,
      "counting": 8621,
      "counters": 8622,
      "eighty": 8623,
      "efful": 8624,
      "fallen": 8625,
      "maim": 8626,
      "maelstr": 8627,
      "posterity": 8628,
      "summoned": 8629,
      "unsounded": 8630,
      "christend": 8631,
      "blend": 8632,
      "bleed": 8633,
      "bleak": 8634,
      "music": 8635,
      "pilgr": 8636,
      "##licted": 8637,
      "haired": 8638,
      "suspend": 8639,
      "altar": 8640,
      "untra": 8641,
      "untutored": 8642,
      "crowded": 8643,
      "admitted": 8644,
      "avail": 8645,
      "conceits": 8646,
      "conceivable": 8647,
      "captive": 8648,
      "unworthy": 8649,
      "promising": 8650,
      "promethe": 8651,
      "quietude": 8652,
      "dreamy": 8653,
      "ersk": 8654,
      "facet": 8655,
      "penny": 8656,
      "experiment": 8657,
      "collect": 8658,
      "collapsed": 8659,
      "pagoda": 8660,
      "tallow": 8661,
      "##issipp": 8662,
      "sufferable": 8663,
      "demig": 8664,
      "absurd": 8665,
      "glassy": 8666,
      "distinction": 8667,
      "laughing": 8668,
      "authors": 8669,
      "authentic": 8670,
      "metropol": 8671,
      "heedless": 8672,
      "discip": 8673,
      "accommod": 8674,
      "beaten": 8675,
      "stroll": 8676,
      "reverence": 8677,
      "reversed": 8678,
      "uneas": 8679,
      "uncomfort": 8680,
      "burns": 8681,
      "saddest": 8682,
      "torments": 8683,
      "spotted": 8684,
      "percept": 8685,
      "buoyancy": 8686,
      "breezes": 8687,
      "pasture": 8688,
      "memories": 8689,
      "prophecy": 8690,
      "swallows": 8691,
      "groping": 8692,
      "volcan": 8693,
      "succession": 8694,
      "clothed": 8695,
      "badly": 8696,
      "brick": 8697,
      "luckless": 8698,
      "panthe": 8699,
      "wrecks": 8700,
      "##cript": 8701,
      "reveal": 8702,
      "drawings": 8703,
      "ignorantly": 8704,
      "180": 8705,
      "ringed": 8706,
      "replaced": 8707,
      "feeds": 8708,
      "apparent": 8709,
      "corners": 8710,
      "riddle": 8711,
      "trod": 8712,
      "troph": 8713,
      "##luent": 8714,
      "inferred": 8715,
      "hauling": 8716,
      "attending": 8717,
      "require": 8718,
      "leaks": 8719,
      "loftiest": 8720,
      "cheerily": 8721,
      "pleasure": 8722,
      "vapours": 8723,
      "duplic": 8724,
      "jerk": 8725,
      "practicable": 8726,
      "pondered": 8727,
      "planting": 8728,
      "propontis": 8729,
      "failed": 8730,
      "referred": 8731,
      "peaceable": 8732,
      "contrived": 8733,
      "merchantmen": 8734,
      "ceaseless": 8735,
      "hyd": 8736,
      "laborious": 8737,
      "operated": 8738,
      "picking": 8739,
      "widows": 8740,
      "inher": 8741,
      "studying": 8742,
      "intensely": 8743,
      "explained": 8744,
      "examples": 8745,
      "northward": 8746,
      "understanding": 8747,
      "significantly": 8748,
      "systematically": 8749,
      "bubbling": 8750,
      "listening": 8751,
      "peddling": 8752,
      "reeling": 8753,
      "revolve": 8754,
      "cherries": 8755,
      "prayer": 8756,
      "snatch": 8757,
      "marvelled": 8758,
      "horrid": 8759,
      "streams": 8760,
      "appearances": 8761,
      "fetching": 8762,
      "fathers": 8763,
      "miraculous": 8764,
      "villages": 8765,
      "unmolested": 8766,
      "unrecord": 8767,
      "successfully": 8768,
      "mounts": 8769,
      "mounttop": 8770,
      "paddle": 8771,
      "tumble": 8772,
      "##ficial": 8773,
      "whirled": 8774,
      "enterprise": 8775,
      "hopes": 8776,
      "argued": 8777,
      "gladly": 8778,
      "tendons": 8779,
      "tendency": 8780,
      "tendinous": 8781,
      "muskets": 8782,
      "hostile": 8783,
      "stirs": 8784,
      "stirring": 8785,
      "december": 8786,
      "johnson": 8787,
      "attacked": 8788,
      "tranquil": 8789,
      "tranquill": 8790,
      "palace": 8791,
      "palpable": 8792,
      "befrie": 8793,
      "statement": 8794,
      "statements": 8795,
      "sticks": 8796,
      "stiffly": 8797,
      "fortress": 8798,
      "flowers": 8799,
      "protection": 8800,
      "grimly": 8801,
      "adventurous": 8802,
      "subsequently": 8803,
      "surrounding": 8804,
      "bitterest": 8805,
      "principal": 8806,
      "principles": 8807,
      "essence": 8808,
      "ferocity": 8809,
      "genu": 8810,
      "genial": 8811,
      "genius": 8812,
      "gasping": 8813,
      "grizz": 8814,
      "puffing": 8815,
      "velvet": 8816,
      "vinegar": 8817,
      "ascend": 8818,
      "sociable": 8819,
      "frosty": 8820,
      "suspicious": 8821,
      "consequently": 8822,
      "organs": 8823,
      "credit": 8824,
      "imagine": 8825,
      "locker": 8826,
      "invariable": 8827,
      "embraced": 8828,
      "embracing": 8829,
      "admiral": 8830,
      "announcement": 8831,
      "philosophy": 8832,
      "philosopher": 8833,
      "danish": 8834,
      "multitud": 8835,
      "multitude": 8836,
      "ragged": 8837,
      "squeezing": 8838,
      "shirr": 8839,
      "hams": 8840,
      "spectacles": 8841,
      "monomania": 8842,
      "infallible": 8843,
      "mississipp": 8844,
      "virginia": 8845,
      "bucks": 8846,
      "buckle": 8847,
      "gleams": 8848,
      "nurtured": 8849,
      "vaguely": 8850,
      "winged": 8851,
      "habits": 8852,
      "##iculty": 8853,
      "sulk": 8854,
      "sulky": 8855,
      "convuls": 8856,
      "strangest": 8857,
      "perchance": 8858,
      "oblivious": 8859,
      "engraving": 8860,
      "physical": 8861,
      "eddying": 8862,
      "egyptians": 8863,
      "coup": 8864,
      "fountains": 8865,
      "juncture": 8866,
      "oftener": 8867,
      "bethinking": 8868,
      "sporting": 8869,
      "conveyed": 8870,
      "universally": 8871,
      "overlook": 8872,
      "primal": 8873,
      "brimming": 8874,
      "inscript": 8875,
      "incompet": 8876,
      "attempts": 8877,
      "concentrated": 8878,
      "acquaint": 8879,
      "acquainted": 8880,
      "hurrying": 8881,
      "correspond": 8882,
      "threatened": 8883,
      "hearses": 8884,
      "stagger": 8885,
      "likened": 8886,
      "platon": 8887,
      "timidity": 8888,
      "quadruped": 8889,
      "climb": 8890,
      "classification": 8891,
      "favourite": 8892,
      "distinguish": 8893,
      "impatience": 8894,
      "snugly": 8895,
      "apprehensiveness": 8896,
      "infinitely": 8897,
      "serenely": 8898,
      "graceful": 8899,
      "recorded": 8900,
      "astonished": 8901,
      "innocence": 8902,
      "hopelessly": 8903,
      "budge": 8904,
      "bankrupt": 8905,
      "difficulty": 8906,
      "ninet": 8907,
      "tawny": 8908,
      "tinker": 8909,
      "victor": 8910,
      "washed": 8911,
      "unctuousness": 8912,
      "plumage": 8913,
      "bridal": 8914,
      "comprehended": 8915,
      "accidentally": 8916,
      "imparts": 8917,
      "punchbow": 8918,
      "distrusted": 8919,
      "distrustful": 8920,
      "endeavor": 8921,
      "endeavors": 8922,
      "alex": 8923,
      "ache": 8924,
      "achieved": 8925,
      "cautious": 8926,
      "jamming": 8927,
      "pierced": 8928,
      "piercing": 8929,
      "paintings": 8930,
      "ascribe": 8931,
      "alleged": 8932,
      "soothed": 8933,
      "atmospheric": 8934,
      "anatomy": 8935,
      "rebell": 8936,
      "recovered": 8937,
      "manifested": 8938,
      "outline": 8939,
      "prospects": 8940,
      "handfuls": 8941,
      "premature": 8942,
      "contempor": 8943,
      "reminds": 8944,
      "reminded": 8945,
      "subterrane": 8946,
      "retreated": 8947,
      "correctly": 8948,
      "serpents": 8949,
      "diminish": 8950,
      "##________": 8951,
      "suspicion": 8952,
      "remorselessly": 8953,
      "bennett": 8954,
      "ducking": 8955,
      "mizen": 8956,
      "mizzen": 8957,
      "tufted": 8958,
      "tidings": 8959,
      "tusks": 8960,
      "waning": 8961,
      "havoc": 8962,
      "rendering": 8963,
      "unobser": 8964,
      "unobstructed": 8965,
      "enveloped": 8966,
      "doctors": 8967,
      "abundance": 8968,
      "cluster": 8969,
      "desolate": 8970,
      "desolation": 8971,
      "interlude": 8972,
      "skirts": 8973,
      "incorpor": 8974,
      "incessantly": 8975,
      "exclamations": 8976,
      "politely": 8977,
      "bumpkin": 8978,
      "alternating": 8979,
      "intricacies": 8980,
      "examine": 8981,
      "pressure": 8982,
      "quivering": 8983,
      "preacher": 8984,
      "fireside": 8985,
      "purchased": 8986,
      "affectionate": 8987,
      "addressing": 8988,
      "crystal": 8989,
      "muscles": 8990,
      "meditation": 8991,
      "tropical": 8992,
      "tropics": 8993,
      "contribute": 8994,
      "satisfaction": 8995,
      "hospital": 8996,
      "cadiz": 8997,
      "caulking": 8998,
      "ebony": 8999,
      "festoon": 9000,
      "gorgeous": 9001,
      "lustre": 9002,
      "mowers": 9003,
      "renoun": 9004,
      "rubbing": 9005,
      "razor": 9006,
      "rippling": 9007,
      "tartar": 9008,
      "vulture": 9009,
      "wandering": 9010,
      "nobler": 9011,
      "dolphin": 9012,
      "arsacidean": 9013,
      "research": 9014,
      "subdiv": 9015,
      "invoking": 9016,
      "warrior": 9017,
      "supreme": 9018,
      "sprinkled": 9019,
      "professor": 9020,
      "soliloquized": 9021,
      "castaway": 9022,
      "absorbed": 9023,
      "intellectual": 9024,
      "whirlp": 9025,
      "inhabitants": 9026,
      "spasmodically": 9027,
      "daughters": 9028,
      "gestures": 9029,
      "garnery": 9030,
      "linked": 9031,
      "nominally": 9032,
      "permanent": 9033,
      "rifle": 9034,
      "rattling": 9035,
      "riotous": 9036,
      "tantal": 9037,
      "warden": 9038,
      "stationary": 9039,
      "butchers": 9040,
      "plaited": 9041,
      "overheard": 9042,
      "scalding": 9043,
      "disdain": 9044,
      "contemptible": 9045,
      "betokened": 9046,
      "profundities": 9047,
      "earthquake": 9048,
      "maddened": 9049,
      "courtesy": 9050,
      "meridians": 9051,
      "triangular": 9052,
      "globular": 9053,
      "constitution": 9054,
      "contradict": 9055,
      "patagonian": 9056,
      "reflections": 9057,
      "denominated": 9058,
      "supplementary": 9059,
      "condemned": 9060,
      "inevitably": 9061,
      "corporeal": 9062,
      "unprecedented": 9063,
      "missionary": 9064,
      "neighboring": 9065,
      "impregnable": 9066,
      "ceremony": 9067,
      "ostentatiously": 9068,
      "lucifers": 9069,
      "peremptorily": 9070,
      "275th": 9071,
      "cups": 9072,
      "dedic": 9073,
      "econom": 9074,
      "echo": 9075,
      "fidelity": 9076,
      "lamps": 9077,
      "nautical": 9078,
      "ugly": 9079,
      "umbre": 9080,
      "wriggling": 9081,
      "##awned": 9082,
      "tools": 9083,
      "storied": 9084,
      "rehears": 9085,
      "chaos": 9086,
      "webster": 9087,
      "unsupp": 9088,
      "outstretched": 9089,
      "enlightened": 9090,
      "polynes": 9091,
      "bloom": 9092,
      "tragic": 9093,
      "amput": 9094,
      "scolding": 9095,
      "crescentic": 9096,
      "adhering": 9097,
      "resistance": 9098,
      "reservoir": 9099,
      "skrimsh": 9100,
      "parcel": 9101,
      "miscellaneous": 9102,
      "portrait": 9103,
      "magnanimous": 9104,
      "dimensions": 9105,
      "banquet": 9106,
      "vigorously": 9107,
      "celebr": 9108,
      "mirror": 9109,
      "whaleboats": 9110,
      "sulphur": 9111,
      "convinced": 9112,
      "predestinated": 9113,
      "dyspepsia": 9114,
      "unconquerable": 9115,
      "ottoman": 9116,
      "aghast": 9117,
      "bamboo": 9118,
      "cachalot": 9119,
      "gothic": 9120,
      "jupiter": 9121,
      "kidn": 9122,
      "kitchen": 9123,
      "linen": 9124,
      "nuee": 9125,
      "nonsense": 9126,
      "ounce": 9127,
      "rampart": 9128,
      "russian": 9129,
      "sabbee": 9130,
      "sabbath": 9131,
      "veteran": 9132,
      "wareh": 9133,
      "##bolts": 9134,
[...]
